{
  "Ā": 0,
  "ā": 1,
  "Ă": 2,
  "ă": 3,
  "Ą": 4,
  "ą": 5,
  "Ć": 6,
  "ć": 7,
  "Ĉ": 8,
  "ĉ": 9,
  "Ċ": 10,
  "ċ": 11,
  "Č": 12,
  "č": 13,
  "Ď": 14,
  "ď": 15,
  "Đ": 16,
  "đ": 17,
  "Ē": 18,
  "ē": 19,
  "Ĕ": 20,
  "ĕ": 21,
  "Ė": 22,
  "ė": 23,
  "Ę": 24,
  "ę": 25,
  "Ě": 26,
  "ě": 27,
  "Ĝ": 28,
  "ĝ": 29,
  "Ğ": 30,
  "ğ": 31,
  "Ġ": 32,
  "!": 33,
  "\"": 34,
  "#": 35,
  "$": 36,
  "%": 37,
  "&": 38,
  "'": 39,
  "(": 40,
  ")": 41,
  "*": 42,
  "+": 43,
  ",": 44,
  "-": 45,
  ".": 46,
  "/": 47,
  "0": 48,
  "1": 49,
  "2": 50,
  "3": 51,
  "4": 52,
  "5": 53,
  "6": 54,
  "7": 55,
  "8": 56,
  "9": 57,
  ":": 58,
  ";": 59,
  "<": 60,
  "=": 61,
  ">": 62,
  "?": 63,
  "@": 64,
  "A": 65,
  "B": 66,
  "C": 67,
  "D": 68,
  "E": 69,
  "F": 70,
  "G": 71,
  "H": 72,
  "I": 73,
  "J": 74,
  "K": 75,
  "L": 76,
  "M": 77,
  "N": 78,
  "O": 79,
  "P": 80,
  "Q": 81,
  "R": 82,
  "S": 83,
  "T": 84,
  "U": 85,
  "V": 86,
  "W": 87,
  "X": 88,
  "Y": 89,
  "Z": 90,
  "[": 91,
  "\\": 92,
  "]": 93,
  "^": 94,
  "_": 95,
  "`": 96,
  "a": 97,
  "b": 98,
  "c": 99,
  "d": 100,
  "e": 101,
  "f": 102,
  "g": 103,
  "h": 104,
  "i": 105,
  "j": 106,
  "k": 107,
  "l": 108,
  "m": 109,
  "n": 110,
  "o": 111,
  "p": 112,
  "q": 113,
  "r": 114,
  "s": 115,
  "t": 116,
  "u": 117,
  "v": 118,
  "w": 119,
  "x": 120,
  "y": 121,
  "z": 122,
  "{": 123,
  "|": 124,
  "}": 125,
  "~": 126,
  "ġ": 127,
  "Ģ": 128,
  "ģ": 129,
  "Ĥ": 130,
  "ĥ": 131,
  "Ħ": 132,
  "ħ": 133,
  "Ĩ": 134,
  "ĩ": 135,
  "Ī": 136,
  "ī": 137,
  "Ĭ": 138,
  "ĭ": 139,
  "Į": 140,
  "į": 141,
  "İ": 142,
  "ı": 143,
  "Ĳ": 144,
  "ĳ": 145,
  "Ĵ": 146,
  "ĵ": 147,
  "Ķ": 148,
  "ķ": 149,
  "ĸ": 150,
  "Ĺ": 151,
  "ĺ": 152,
  "Ļ": 153,
  "ļ": 154,
  "Ľ": 155,
  "ľ": 156,
  "Ŀ": 157,
  "ŀ": 158,
  "Ł": 159,
  "ł": 160,
  "¡": 161,
  "¢": 162,
  "£": 163,
  "¤": 164,
  "¥": 165,
  "¦": 166,
  "§": 167,
  "¨": 168,
  "©": 169,
  "ª": 170,
  "«": 171,
  "¬": 172,
  "Ń": 173,
  "®": 174,
  "¯": 175,
  "°": 176,
  "±": 177,
  "²": 178,
  "³": 179,
  "´": 180,
  "µ": 181,
  "¶": 182,
  "·": 183,
  "¸": 184,
  "¹": 185,
  "º": 186,
  "»": 187,
  "¼": 188,
  "½": 189,
  "¾": 190,
  "¿": 191,
  "À": 192,
  "Á": 193,
  "Â": 194,
  "Ã": 195,
  "Ä": 196,
  "Å": 197,
  "Æ": 198,
  "Ç": 199,
  "È": 200,
  "É": 201,
  "Ê": 202,
  "Ë": 203,
  "Ì": 204,
  "Í": 205,
  "Î": 206,
  "Ï": 207,
  "Ð": 208,
  "Ñ": 209,
  "Ò": 210,
  "Ó": 211,
  "Ô": 212,
  "Õ": 213,
  "Ö": 214,
  "×": 215,
  "Ø": 216,
  "Ù": 217,
  "Ú": 218,
  "Û": 219,
  "Ü": 220,
  "Ý": 221,
  "Þ": 222,
  "ß": 223,
  "à": 224,
  "á": 225,
  "â": 226,
  "ã": 227,
  "ä": 228,
  "å": 229,
  "æ": 230,
  "ç": 231,
  "è": 232,
  "é": 233,
  "ê": 234,
  "ë": 235,
  "ì": 236,
  "í": 237,
  "î": 238,
  "ï": 239,
  "ð": 240,
  "ñ": 241,
  "ò": 242,
  "ó": 243,
  "ô": 244,
  "õ": 245,
  "ö": 246,
  "÷": 247,
  "ø": 248,
  "ù": 249,
  "ú": 250,
  "û": 251,
  "ü": 252,
  "ý": 253,
  "þ": 254,
  "ÿ": 255,
  "<|endoftext|>": 256,
  "he": 257,
  "Ġt": 258,
  "Ġa": 259,
  "Ġs": 260,
  "Ġw": 261,
  "nd": 262,
  "Ġthe": 263,
  "ed": 264,
  "Ġb": 265,
  "Ġto": 266,
  "Ġand": 267,
  "Ġh": 268,
  "Ġf": 269,
  "in": 270,
  "Ġwa": 271,
  "ĠT": 272,
  "it": 273,
  "re": 274,
  "ou": 275,
  "Ġl": 276,
  "Ġd": 277,
  "Ġc": 278,
  "Ġp": 279,
  "ay": 280,
  "Ġwas": 281,
  "er": 282,
  "Ġm": 283,
  "om": 284,
  "Ġhe": 285,
  "ĠThe": 286,
  "is": 287,
  "Ġn": 288,
  "on": 289,
  "ar": 290,
  "im": 291,
  "Ġsa": 292,
  "ll": 293,
  "id": 294,
  "Ġha": 295,
  "Ġg": 296,
  "ĠS": 297,
  "at": 298,
  "ing": 299,
  "ot": 300,
  "en": 301,
  "an": 302,
  "le": 303,
  "or": 304,
  "ir": 305,
  "ĠH": 306,
  "am": 307,
  "et": 308,
  "Ġit": 309,
  "Ġth": 310,
  "ig": 311,
  "ĠThey": 312,
  "il": 313,
  "Ġin": 314,
  "ĠHe": 315,
  "Ġpl": 316,
  "Ġ\"": 317,
  "ow": 318,
  "ver": 319,
  "ri": 320,
  "Ġu": 321,
  "ut": 322,
  "Ġday": 323,
  "Ġsaid": 324,
  "ith": 325,
  "pp": 326,
  "Ġplay": 327,
  "Ġbe": 328,
  "On": 329,
  "Ġwith": 330,
  "Ġo": 331,
  "Ġy": 332,
  "Ġher": 333,
  "Ġr": 334,
  "oo": 335,
  "ked": 336,
  "ce": 337,
  "Ġhis": 338,
  "ĠShe": 339,
  "ĠI": 340,
  "ld": 341,
  "Ġst": 342,
  "ĠTim": 343,
  "ke": 344,
  "Ġe": 345,
  "nt": 346,
  "ck": 347,
  "Ġbig": 348,
  "very": 349,
  "Ġyou": 350,
  "ve": 351,
  "st": 352,
  "Ġhapp": 353,
  "Ġon": 354,
  "end": 355,
  "un": 356,
  "all": 357,
  "ily": 358,
  "riend": 359,
  "Ġfriend": 360,
  "ĠL": 361,
  "Ġup": 362,
  "Ġthey": 363,
  "Ġwant": 364,
  "Ġwe": 365,
  "Ġhad": 366,
  "Ġnot": 367,
  "her": 368,
  "Ġli": 369,
  "itt": 370,
  "Ġdo": 371,
  "Ġof": 372,
  "ĠB": 373,
  "ad": 374,
  "es": 375,
  "Ġhappy": 376,
  "ĠM": 377,
  "ent": 378,
  "Ġvery": 379,
  "Ġthat": 380,
  "One": 381,
  "Ġsaw": 382,
  "Ġmom": 383,
  "ould": 384,
  "'s": 385,
  "se": 386,
  "Ġfor": 387,
  "ittle": 388,
  "Ġlittle": 389,
  "Ġso": 390,
  "Ġshe": 391,
  "Ġsh": 392,
  "ime": 393,
  "Ġk": 394,
  "Ġtime": 395,
  "Ġne": 396,
  "Ġnam": 397,
  "ch": 398,
  "Ġthere": 399,
  ".\"": 400,
  "ound": 401,
  "Ġbo": 402,
  "Ġnamed": 403,
  "ĠLily": 404,
  "ird": 405,
  "Ġsm": 406,
  "Ġwanted": 407,
  "Ġbird": 408,
  "ĠTom": 409,
  "ved": 410,
  "Ġwere": 411,
  "Ġbut": 412,
  "The": 413,
  "Ġfriends": 414,
  "!\"": 415,
  "out": 416,
  "ht": 417,
  "el": 418,
  "ake": 419,
  "al": 420,
  "Ġan": 421,
  "Ġtoo": 422,
  "ide": 423,
  "Ġhel": 424,
  "Once": 425,
  "Ġwh": 426,
  "Ġhelp": 427,
  "ug": 428,
  "ome": 429,
  "Ġwent": 430,
  "Ġall": 431,
  "ĠIt": 432,
  "ĠA": 433,
  "Ġloo": 434,
  "Ġis": 435,
  "Ġupon": 436,
  "Ġlo": 437,
  "ue": 438,
  "ter": 439,
  "ry": 440,
  "ore": 441,
  "ind": 442,
  "get": 443,
  "Ġfun": 444,
  "Ġtoy": 445,
  "ill": 446,
  "ack": 447,
  "gether": 448,
  "Ġat": 449,
  "Ġj": 450,
  "Ġas": 451,
  "Ġdid": 452,
  "ame": 453,
  "Ġre": 454,
  "Ġtogether": 455,
  "ur": 456,
  "Ġcat": 457,
  "ra": 458,
  "Ġdog": 459,
  "Ġse": 460,
  "ly": 461,
  "Ġtre": 462,
  "ood": 463,
  "Ġgir": 464,
  "Ġcan": 465,
  "ic": 466,
  "Ġball": 467,
  "my": 468,
  "Ġgirl": 469,
  "Ġcould": 470,
  "ard": 471,
  "ted": 472,
  "Ġhim": 473,
  "Ġtheir": 474,
  "ec": 475,
  "ark": 476,
  "Ġro": 477,
  "way": 478,
  "Ġkn": 479,
  "Ġplayed": 480,
  "?\"": 481,
  "hed": 482,
  "Ġfr": 483,
  "ain": 484,
  "hen": 485,
  "Ġle": 486,
  "Ġout": 487,
  "um": 488,
  "'t": 489,
  "ax": 490,
  "Ġgo": 491,
  "Ġthem": 492,
  "Ġare": 493,
  "Ġboy": 494,
  "Ġsad": 495,
  "ul": 496,
  "oug": 497,
  "Ġhave": 498,
  "Ġtree": 499,
  "Ġcl": 500,
  "Ġloved": 501,
  "other": 502,
  "Ġback": 503,
  "Ġlooked": 504,
  "Ġsp": 505,
  "Ġfound": 506,
  "own": 507,
  "one": 508,
  "ĠMax": 509,
  "Ġme": 510,
  "Ġsc": 511,
  "Ġman": 512,
  "are": 513,
  "Ġstar": 514,
  "ĠSue": 515,
  "hing": 516,
  "side": 517,
  "Ġpark": 518,
  "ong": 519,
  "op": 520,
  "ful": 521,
  "Ġbec": 522,
  "Ġlike": 523,
  "Ġwould": 524,
  "Ġliked": 525,
  "elt": 526,
  "round": 527,
  "ĠOne": 528,
  "Ġfelt": 529,
  "ight": 530,
  "Ġfa": 531,
  "ĠBen": 532,
  "Ġla": 533,
  "ĠW": 534,
  "ell": 535,
  "Ġmake": 536,
  "ĠBut": 537,
  "You": 538,
  "Ġasked": 539,
  "Ġnew": 540,
  "ice": 541,
  "iled": 542,
  "ss": 543,
  "ared": 544,
  "ag": 545,
  "ĠSam": 546,
  "ought": 547,
  "Ġsee": 548,
  "omet": 549,
  "Ġal": 550,
  "Ġstarted": 551,
  "Ġag": 552,
  "Ġcame": 553,
  "Ġno": 554,
  "Ġsmiled": 555,
  "Ġcar": 556,
  "Ġother": 557,
  "ried": 558,
  "Ġsomet": 559,
  "Ġgood": 560,
  "Ġsay": 561,
  "Ġbr": 562,
  "Ġsmall": 563,
  "ade": 564,
  "pot": 565,
  "ob": 566,
  "ings": 567,
  "Ġwor": 568,
  "Ġaway": 569,
  "ab": 570,
  "ouse": 571,
  "Ġfind": 572,
  "us": 573,
  "Ġex": 574,
  "Ġfrom": 575,
  "Ġput": 576,
  "ty": 577,
  "Ġthought": 578,
  "Ġwhat": 579,
  "Ġmade": 580,
  "ened": 581,
  "Ġplaying": 582,
  "ie": 583,
  "Ġhome": 584,
  "king": 585,
  "Ġwal": 586,
  "ach": 587,
  "Ġsomething": 588,
  "ia": 589,
  "ile": 590,
  "Ġevery": 591,
  "Ġran": 592,
  "ĠSpot": 593,
  "Ġagain": 594,
  "ĠF": 595,
  "Ġco": 596,
  "ave": 597,
  "uc": 598,
  "arn": 599,
  "Ġbox": 600,
  "Ġdown": 601,
  "dd": 602,
  "Ġtoys": 603,
  "ook": 604,
  "ĠJ": 605,
  "Ġpr": 606,
  "Ġtook": 607,
  "Ġsw": 608,
  "Ġsome": 609,
  "if": 610,
  "Ġlaug": 611,
  "oud": 612,
  "ust": 613,
  "ew": 614,
  "Ġsun": 615,
  "Ġaround": 616,
  "ny": 617,
  "Ġscared": 618,
  "Ġlived": 619,
  "Ġlearn": 620,
  "Ġwill": 621,
  "Ġmy": 622,
  "Ġfl": 623,
  "ure": 624,
  "Ġyour": 625,
  "ick": 626,
  "ret": 627,
  "ep": 628,
  "Ġhouse": 629,
  "Ġwhen": 630,
  "ĠYou": 631,
  "Ġthings": 632,
  "Ġbl": 633,
  ",\"": 634,
  "ank": 635,
  "uck": 636,
  "Ġthen": 637,
  "pped": 638,
  "ĠMia": 639,
  "ist": 640,
  "Th": 641,
  "Ġbot": 642,
  "Ġab": 643,
  "ish": 644,
  "Ġwho": 645,
  "Ġget": 646,
  "Ġknow": 647,
  "ucy": 648,
  "Ġfe": 649,
  "as": 650,
  "Ġtried": 651,
  "Ġgot": 652,
  "Ġknew": 653,
  "ited": 654,
  "Ġlot": 655,
  "uch": 656,
  "Ġsays": 657,
  "ally": 658,
  "ap": 659,
  "Ġint": 660,
  "Ġch": 661,
  "ive": 662,
  "Ġred": 663,
  "Tim": 664,
  "nder": 665,
  "ump": 666,
  "Lily": 667,
  "Ġpret": 668,
  "ous": 669,
  "Ġabout": 670,
  "Ġcare": 671,
  "fter": 672,
  "Ġdec": 673,
  "ĠSo": 674,
  "Ġop": 675,
  "fe": 676,
  "Ġlook": 677,
  "ĠD": 678,
  "Ġmany": 679,
  "use": 680,
  "Ġun": 681,
  "Ġmore": 682,
  "ise": 683,
  "ways": 684,
  "ĠE": 685,
  "nn": 686,
  "Ġexc": 687,
  "ĠMom": 688,
  "Ġalways": 689,
  "Ġpic": 690,
  "Ġpo": 691,
  "âĢ": 692,
  "Ġbest": 693,
  "qu": 694,
  "Ġany": 695,
  "Ġshow": 696,
  "Ġboth": 697,
  "ĠLucy": 698,
  "ite": 699,
  "Ġroom": 700,
  "Ġhug": 701,
  "ace": 702,
  "ers": 703,
  "ause": 704,
  "Ġinto": 705,
  "Ġwater": 706,
  "Ġbecame": 707,
  "Ġoutside": 708,
  "Ġlearned": 709,
  "Ġlaughed": 710,
  "udd": 711,
  "Ġdad": 712,
  "ided": 713,
  "ant": 714,
  "Ġbecause": 715,
  "Ġone": 716,
  "Ġgre": 717,
  "Ġpe": 718,
  "Ġdecided": 719,
  "ĠAnd": 720,
  "pr": 721,
  "Ġexcited": 722,
  "Ġv": 723,
  "Yes": 724,
  "Ġnice": 725,
  "Ġho": 726,
  "nna": 727,
  "Ġke": 728,
  "Ġeat": 729,
  "Ġsor": 730,
  "Ġthis": 731,
  "ara": 732,
  "Ġjump": 733,
  "Ġlong": 734,
  "Ġfeel": 735,
  "They": 736,
  "ĠBob": 737,
  "Tom": 738,
  "Ġmo": 739,
  "Ġtold": 740,
  "Ġrun": 741,
  "ull": 742,
  "ink": 743,
  "Ġsur": 744,
  "Ġrock": 745,
  "Ġinside": 746,
  "Ġpretty": 747,
  "Ġsl": 748,
  "Ġsk": 749,
  "lew": 750,
  "iny": 751,
  "Ġtake": 752,
  "Ġam": 753,
  "Ġgave": 754,
  "Ġsurpr": 755,
  "Ġfast": 756,
  "Ġeach": 757,
  "Ġtow": 758,
  "our": 759,
  "ess": 760,
  "ro": 761,
  "ven": 762,
  "ged": 763,
  "Ġsorry": 764,
  "Ġneed": 765,
  "Ġor": 766,
  "Ġmuch": 767,
  "Ġthan": 768,
  "urt": 769,
  "Ġhow": 770,
  "ised": 771,
  "Ġstr": 772,
  "able": 773,
  "Ġunder": 774,
  "Wh": 775,
  "og": 776,
  "ge": 777,
  "Ġkind": 778,
  "and": 779,
  "Ġgra": 780,
  "ĠAmy": 781,
  "imal": 782,
  "ving": 783,
  "Ġanimal": 784,
  "ft": 785,
  "Ġta": 786,
  "But": 787,
  "Ġfood": 788,
  "etter": 789,
  "Can": 790,
  "Ġwalked": 791,
  "ĠWe": 792,
  "Ġtr": 793,
  "Ġwat": 794,
  "Ġhand": 795,
  "Ġold": 796,
  "ĠHis": 797,
  "Ġlist": 798,
  "Ġhig": 799,
  "ff": 800,
  "Ġjust": 801,
  "Ġclo": 802,
  "Ġflow": 803,
  "Ġen": 804,
  "rom": 805,
  "Ġcle": 806,
  "ched": 807,
  "Ġdidn": 808,
  "urn": 809,
  "Ġide": 810,
  "eci": 811,
  "Mom": 812,
  "ase": 813,
  "Ġtry": 814,
  "Ġidea": 815,
  "Ġdan": 816,
  "ion": 817,
  "here": 818,
  "Ġsky": 819,
  "Ġits": 820,
  "ecial": 821,
  "Ġspecial": 822,
  "Ġnear": 823,
  "Ġflew": 824,
  "Ġus": 825,
  "ĠAnna": 826,
  "Ġtw": 827,
  "Ġhappened": 828,
  "pl": 829,
  "gry": 830,
  "Ġfo": 831,
  "ine": 832,
  "Ġfi": 833,
  "Ġsn": 834,
  "ĠTh": 835,
  "Thank": 836,
  "Ġif": 837,
  "Ġcake": 838,
  "ber": 839,
  "Ġfish": 840,
  "Ġanimals": 841,
  "Ġstor": 842,
  "Ġover": 843,
  "Ġbug": 844,
  "lf": 845,
  "Ġheard": 846,
  "ate": 847,
  "Ġcareful": 848,
  "ex": 849,
  "Ġcom": 850,
  "udden": 851,
  "rm": 852,
  "Ġbetter": 853,
  "Ġlots": 854,
  "Ġby": 855,
  "Ġlet": 856,
  "Ġhard": 857,
  "Ġwind": 858,
  "Ġnever": 859,
  "Ġhurt": 860,
  "Ġbear": 861,
  "Ġshare": 862,
  "ople": 863,
  "ĠEvery": 864,
  "Ġdre": 865,
  "uddenly": 866,
  "more": 867,
  "Ġanymore": 868,
  "Ġeven": 869,
  "Ġte": 870,
  "ort": 871,
  "Ġtal": 872,
  "pec": 873,
  "Ġfly": 874,
  "ĠSara": 875,
  "Ġsafe": 876,
  "Ġlove": 877,
  "ady": 878,
  "Ġbu": 879,
  "Ġend": 880,
  "Ġdon": 881,
  "ĠK": 882,
  "Ġfore": 883,
  "ĊĊ": 884,
  "Ġgive": 885,
  "Ġpeople": 886,
  "Ġafter": 887,
  "Ġclean": 888,
  "uff": 889,
  "Ġproud": 890,
  "Ġopened": 891,
  "bed": 892,
  "'m": 893,
  "Ġhigh": 894,
  "Ġgr": 895,
  "Ġfam": 896,
  "Ġbad": 897,
  "Ġdoor": 898,
  "Ġsurprised": 899,
  "ĠThen": 900,
  "itty": 901,
  "ak": 902,
  "Ġturn": 903,
  "As": 904,
  "Ġgl": 905,
  "age": 906,
  "ĠFrom": 907,
  "ummy": 908,
  "ough": 909,
  "Ġground": 910,
  "Ġclim": 911,
  "ĠHer": 912,
  "Ġthanked": 913,
  "Ġim": 914,
  "ĠWhen": 915,
  "iz": 916,
  "Ġblue": 917,
  "Ġcall": 918,
  "Ġbook": 919,
  "kay": 920,
  "arden": 921,
  "Ġgarden": 922,
  "ild": 923,
  "Ġfar": 924,
  "Ġma": 925,
  "Ġever": 926,
  "Ġway": 927,
  "pected": 928,
  "Ġhugged": 929,
  "Ġche": 930,
  "Ġshiny": 931,
  "Ġcol": 932,
  "Ġpicked": 933,
  "Let": 934,
  "Ġsmile": 935,
  "Ġmag": 936,
  "Ġloud": 937,
  "Ġcu": 938,
  "Ġoff": 939,
  "Ġshould": 940,
  "Ġcome": 941,
  "ĠIn": 942,
  "expected": 943,
  "Ġunexpected": 944,
  "xt": 945,
  "Ġnext": 946,
  "Ġstick": 947,
  "Ġplace": 948,
  "Ġwalk": 949,
  "ĠN": 950,
  "ture": 951,
  "Ġfamily": 952,
  "hes": 953,
  "em": 954,
  "Ġqu": 955,
  "Ġcolor": 956,
  "by": 957,
  "ĠP": 958,
  "Ġstill": 959,
  "ip": 960,
  "Ġunt": 961,
  "Ġstrong": 962,
  "Ġgreat": 963,
  "Ġboat": 964,
  "Ġapp": 965,
  "les": 966,
  "Ġhat": 967,
  "oy": 968,
  "Ġhappily": 969,
  "Ġbro": 970,
  "ool": 971,
  "Ġuntil": 972,
  "Ġjumped": 973,
  "Ġtown": 974,
  "Ġca": 975,
  "Ġfrog": 976,
  "dy": 977,
  "Ġkid": 978,
  "Ġhelped": 979,
  "ĠSally": 980,
  "Ġforest": 981,
  "ies": 982,
  "Ġsto": 983,
  "orn": 984,
  "ct": 985,
  "Ġdoll": 986,
  "aut": 987,
  "Ġsqu": 988,
  "ary": 989,
  "ĠKitty": 990,
  "Ġbeaut": 991,
  "Ġlisten": 992,
  "Ġshowed": 993,
  "Ġmet": 994,
  "Ġnow": 995,
  "No": 996,
  "uffy": 997,
  "Ġpar": 998,
  "Ġmagic": 999,
  "oon": 1000,
  "raw": 1001,
  "Ġwhile": 1002,
  "Ġopen": 1003,
  "Ġstory": 1004,
  "iful": 1005,
  "Ġrem": 1006,
  "Ġpicture": 1007,
  "lease": 1008,
  "Ġbeautiful": 1009,
  "Ġbra": 1010,
  "th": 1011,
  "bit": 1012,
  "Ġsoft": 1013,
  "He": 1014,
  "abbit": 1015,
  "Ġstay": 1016,
  "Ġcouldn": 1017,
  "Ġclos": 1018,
  "ock": 1019,
  "Ġcalled": 1020,
  "ush": 1021,
  "ane": 1022,
  "Ġyummy": 1023,
  "Ġkids": 1024,
  "pt": 1025,
  "It": 1026,
  "Ġrabbit": 1027,
  "Ġwatch": 1028,
  "When": 1029,
  "Ġslide": 1030,
  "luffy": 1031,
  "Ġeveryone": 1032,
  "Ġate": 1033,
  "Ġpa": 1034,
  "Ġbeing": 1035,
  "Ġwarm": 1036,
  "Ġwo": 1037,
  "Ġface": 1038,
  "Ġfin": 1039,
  "illy": 1040,
  "Ġde": 1041,
  "Ġstopped": 1042,
  "Ġad": 1043,
  "rel": 1044,
  "Ġtra": 1045,
  "Ġthre": 1046,
  "Ġflowers": 1047,
  "Ġsoon": 1048,
  "Ġcry": 1049,
  "iss": 1050,
  "Ġtwo": 1051,
  "vent": 1052,
  "fore": 1053,
  "Ġimp": 1054,
  "Ġangry": 1055,
  "Ġkeep": 1056,
  "Ġhear": 1057,
  "unny": 1058,
  "dded": 1059,
  "Ġstore": 1060,
  "Ġcre": 1061,
  "Ġfell": 1062,
  "ished": 1063,
  "Ġlost": 1064,
  "Ġleave": 1065,
  "ired": 1066,
  "Ġrain": 1067,
  "ĠLet": 1068,
  "self": 1069,
  "Ġpain": 1070,
  "Ġhaving": 1071,
  "That": 1072,
  "Ġfix": 1073,
  "Ġcook": 1074,
  "ĠFluffy": 1075,
  "ĠWh": 1076,
  "owl": 1077,
  "day": 1078,
  "Ġnodded": 1079,
  "ĠC": 1080,
  "so": 1081,
  "ear": 1082,
  "Ġsat": 1083,
  "Ġbrave": 1084,
  "Ġwhere": 1085,
  "oh": 1086,
  "Ġalso": 1087,
  "âĢĿ": 1088,
  "Ġyell": 1089,
  "Ġmommy": 1090,
  "âĢľ": 1091,
  "Ben": 1092,
  "Ġbefore": 1093,
  "ohn": 1094,
  "Ġgame": 1095,
  "Ġsand": 1096,
  "Ġhands": 1097,
  "ĠNow": 1098,
  "Ġtired": 1099,
  "ud": 1100,
  "ger": 1101,
  "irst": 1102,
  "Ġmean": 1103,
  "Ġbre": 1104,
  "gan": 1105,
  "What": 1106,
  "Ġwork": 1107,
  "Hi": 1108,
  "Ġuse": 1109,
  "Ġnoise": 1110,
  "Ġhead": 1111,
  "be": 1112,
  "Ġkept": 1113,
  "Ġfav": 1114,
  "Look": 1115,
  "Ġokay": 1116,
  "ble": 1117,
  "Ġpie": 1118,
  "Ġmon": 1119,
  "Ġhas": 1120,
  "Ġz": 1121,
  "Ġsing": 1122,
  "Ġreal": 1123,
  "Ġgreen": 1124,
  "Ġey": 1125,
  "Ġcou": 1126,
  "Ġblock": 1127,
  "Ġwait": 1128,
  "irrel": 1129,
  "ĠG": 1130,
  "Ġthink": 1131,
  "Ġbed": 1132,
  "ange": 1133,
  "Then": 1134,
  "Ġsquirrel": 1135,
  "Ġothers": 1136,
  "Ġcatch": 1137,
  "ĠR": 1138,
  "ember": 1139,
  "Ġdress": 1140,
  "joy": 1141,
  "Ġsunny": 1142,
  "Ġshared": 1143,
  "Ġfunny": 1144,
  "ĠâĢľ": 1145,
  "az": 1146,
  "Ġlooking": 1147,
  "Ġduck": 1148,
  "itc": 1149,
  "Ġpond": 1150,
  "Ġdr": 1151,
  "ath": 1152,
  "Ġmess": 1153,
  "Ġhole": 1154,
  "Ġbunny": 1155,
  "Ġown": 1156,
  "Ġexpl": 1157,
  "Ġbeh": 1158,
  "uit": 1159,
  "Ġused": 1160,
  "Ġpull": 1161,
  "Ġthr": 1162,
  "ello": 1163,
  "ect": 1164,
  "Hello": 1165,
  "Ġgoing": 1166,
  "Ġenjoy": 1167,
  "ĠMr": 1168,
  "ĠCan": 1169,
  "ĠDo": 1170,
  "oral": 1171,
  "leep": 1172,
  "Ġmaking": 1173,
  "Ġdif": 1174,
  "itchen": 1175,
  "Ġright": 1176,
  "Ġkitchen": 1177,
  "Ġswing": 1178,
  "Ġfavor": 1179,
  "ster": 1180,
  "eet": 1181,
  "Ġworked": 1182,
  "Ġtable": 1183,
  "Ġremember": 1184,
  "Ġfavorite": 1185,
  "Ġbirds": 1186,
  "Ġour": 1187,
  "Ġmove": 1188,
  "Ġcon": 1189,
  "ng": 1190,
  "ub": 1191,
  "Ġjo": 1192,
  "Ġagre": 1193,
  "ning": 1194,
  "Ġtruck": 1195,
  "Ġvo": 1196,
  "Ġeyes": 1197,
  "ĠJack": 1198,
  "Ġmoral": 1199,
  "Ġlady": 1200,
  "Ġcuri": 1201,
  "imes": 1202,
  "Ġflo": 1203,
  "Ġcut": 1204,
  "ught": 1205,
  "Ġsound": 1206,
  "thing": 1207,
  "lly": 1208,
  "We": 1209,
  "After": 1210,
  "Ġcurious": 1211,
  "Ġyard": 1212,
  "Ġtall": 1213,
  "Ġcla": 1214,
  "ma": 1215,
  "aper": 1216,
  "Ġclimb": 1217,
  "que": 1218,
  "Ġimport": 1219,
  "Ġfirst": 1220,
  "Ġice": 1221,
  "Ġtalk": 1222,
  "Ġadvent": 1223,
  "ious": 1224,
  "Ġflower": 1225,
  "ila": 1226,
  "Ġask": 1227,
  "Ġtri": 1228,
  "Ġparty": 1229,
  "Ġforg": 1230,
  "Ġbag": 1231,
  "Ġdir": 1232,
  "Ġwatched": 1233,
  "ied": 1234,
  "aybe": 1235,
  "Ġimportant": 1236,
  "Ġblocks": 1237,
  "Ġbab": 1238,
  "ĠThis": 1239,
  "led": 1240,
  "Ġdoes": 1241,
  "Ġhere": 1242,
  "Ġtop": 1243,
  "Ġgrab": 1244,
  "Ġcold": 1245,
  "ting": 1246,
  "Ġtail": 1247,
  "Ġste": 1248,
  "Ġdis": 1249,
  "ken": 1250,
  "Ġhair": 1251,
  "Ġbel": 1252,
  "At": 1253,
  "Ġsong": 1254,
  "Ġpick": 1255,
  "zy": 1256,
  "Ġyellow": 1257,
  "Ġgrass": 1258,
  "Ġdraw": 1259,
  "llow": 1260,
  "Ġwr": 1261,
  "Ġagreed": 1262,
  "Ġhill": 1263,
  "Ġsweet": 1264,
  "Ġmouse": 1265,
  "Ġbright": 1266,
  "Ġbegan": 1267,
  "ign": 1268,
  "Ġhun": 1269,
  "Ġcloud": 1270,
  "fere": 1271,
  "Ġrest": 1272,
  "Ġbaby": 1273,
  "af": 1274,
  "Ġnight": 1275,
  "ĠFin": 1276,
  "Don": 1277,
  "Ġtast": 1278,
  "Ġdiffere": 1279,
  "Ġstop": 1280,
  "Ġwalking": 1281,
  "Wow": 1282,
  "Anna": 1283,
  "Ġvoice": 1284,
  "Ġsleep": 1285,
  "ĠMommy": 1286,
  "ushed": 1287,
  "ient": 1288,
  "ced": 1289,
  "Ġlaugh": 1290,
  "Sara": 1291,
  "Ġshar": 1292,
  "Ġhop": 1293,
  "ĠSuddenly": 1294,
  "cked": 1295,
  "Ġtouch": 1296,
  "ppy": 1297,
  "Ġhid": 1298,
  "Ġclot": 1299,
  "oom": 1300,
  "ached": 1301,
  "Ġfollow": 1302,
  "Ġsurprise": 1303,
  "Ġpiece": 1304,
  "co": 1305,
  "Max": 1306,
  "Ġplease": 1307,
  "Ġfeeling": 1308,
  "Ġdifferent": 1309,
  "Ġdance": 1310,
  "Ġanother": 1311,
  "Ġleaves": 1312,
  "Why": 1313,
  "Ġprom": 1314,
  "Ġcried": 1315,
  "Ġhungry": 1316,
  "Ġrace": 1317,
  "Ġgone": 1318,
  "Ġshout": 1319,
  "Ġneeded": 1320,
  "air": 1321,
  "Ġfair": 1322,
  "Ġcloser": 1323,
  "Ġbus": 1324,
  "âĢĻ": 1325,
  "Ġthing": 1326,
  "Ġper": 1327,
  "Ġfloor": 1328,
  "Ġfarm": 1329,
  "Ġcr": 1330,
  "Ġtrees": 1331,
  "isy": 1332,
  "So": 1333,
  "Ġhelping": 1334,
  "Ġswim": 1335,
  "Ġhot": 1336,
  "Ġbehind": 1337,
  "Ġtell": 1338,
  "Ġread": 1339,
  "Ġlistened": 1340,
  "Ġadventure": 1341,
  "Suddenly": 1342,
  "Ġsho": 1343,
  "Ġdark": 1344,
  "bo": 1345,
  "Ġworry": 1346,
  "Ġfull": 1347,
  "Ġclimbed": 1348,
  "bye": 1349,
  "Ġac": 1350,
  "ĠAs": 1351,
  "Ġri": 1352,
  "key": 1353,
  "ered": 1354,
  "Ġcount": 1355,
  "Sam": 1356,
  "Ġwood": 1357,
  "Ġpaper": 1358,
  "ĠThat": 1359,
  "av": 1360,
  "Ġtiny": 1361,
  "Ġmust": 1362,
  "Ġprin": 1363,
  "Ġfriendly": 1364,
  "Ġfire": 1365,
  "ely": 1366,
  "ater": 1367,
  "Ġturned": 1368,
  "Ġsit": 1369,
  "Ġapple": 1370,
  "ĠDad": 1371,
  "Ġreached": 1372,
  "Ġhold": 1373,
  "Ġbroken": 1374,
  "Ġrepl": 1375,
  "Ġtreat": 1376,
  "where": 1377,
  "Ġpink": 1378,
  "Ġcolors": 1379,
  "Ġsmell": 1380,
  "Ġready": 1381,
  "ĠAll": 1382,
  "ash": 1383,
  "Ġsees": 1384,
  "Ġdel": 1385,
  "Ġbeen": 1386,
  "Ġwonder": 1387,
  "Ġroll": 1388,
  "She": 1389,
  "Ġwag": 1390,
  "Ġonly": 1391,
  "Ġfight": 1392,
  "Ġwindow": 1393,
  "Ġfall": 1394,
  "Ġcast": 1395,
  "ĠEveryone": 1396,
  "red": 1397,
  "Ġgoodbye": 1398,
  "Ġowl": 1399,
  "iced": 1400,
  "Sue": 1401,
  "Ġtrying": 1402,
  "Ġhide": 1403,
  "Ġpushed": 1404,
  "Ġdin": 1405,
  "ĠO": 1406,
  "Ġlooks": 1407,
  "Ġbit": 1408,
  "ower": 1409,
  "'re": 1410,
  "Ġtrain": 1411,
  "Ġperf": 1412,
  "Ġmoment": 1413,
  "Ġdri": 1414,
  "Ġcream": 1415,
  "Ġcars": 1416,
  "sh": 1417,
  "Ġar": 1418,
  "Ġwise": 1419,
  "Ġrunning": 1420,
  "Ġglad": 1421,
  "Ġdoing": 1422,
  "Ġslow": 1423,
  "Ġreach": 1424,
  "Ġdone": 1425,
  "Ġbar": 1426,
  "Ġwear": 1427,
  "Ġpretend": 1428,
  "Ġless": 1429,
  "Ġwet": 1430,
  "Ġreplied": 1431,
  "Ġlight": 1432,
  "Ġdream": 1433,
  "Ġstuck": 1434,
  "Ġpu": 1435,
  "Ġpot": 1436,
  "Ġexplore": 1437,
  "man": 1438,
  "Ġscary": 1439,
  "ather": 1440,
  "nts": 1441,
  "avy": 1442,
  "Ġname": 1443,
  "In": 1444,
  "Ġclose": 1445,
  "Ġballoon": 1446,
  "Ġlion": 1447,
  "ĠJane": 1448,
  "Ġbuild": 1449,
  "Ġpaint": 1450,
  "Ġnest": 1451,
  "Ġdro": 1452,
  "Ġbott": 1453,
  "Ġamaz": 1454,
  "Ġbuy": 1455,
  "andy": 1456,
  "Ġwall": 1457,
  "Ġra": 1458,
  "Ġcool": 1459,
  "Ġsure": 1460,
  "Ġmum": 1461,
  "ield": 1462,
  "up": 1463,
  "Ġset": 1464,
  "Ġbutter": 1465,
  "Oh": 1466,
  "Ġmiss": 1467,
  "ĠTimmy": 1468,
  "orm": 1469,
  "Ġbroke": 1470,
  "ĠAfter": 1471,
  "ike": 1472,
  "Mia": 1473,
  "oney": 1474,
  "oe": 1475,
  "atter": 1476,
  "Ġshouted": 1477,
  "Ġsometimes": 1478,
  "Ġfruit": 1479,
  "Ġcoming": 1480,
  "Her": 1481,
  "Ġthrew": 1482,
  "Ġswam": 1483,
  "Ġsnow": 1484,
  "Ġclapped": 1485,
  "Ġair": 1486,
  "ized": 1487,
  "Ġjob": 1488,
  "Ġcont": 1489,
  "ĠBobo": 1490,
  "uddy": 1491,
  "ames": 1492,
  "aisy": 1493,
  "Ġunderst": 1494,
  "Ġturns": 1495,
  "Ġthank": 1496,
  "Ġblew": 1497,
  "outh": 1498,
  "Ġspl": 1499,
  "Ġremembered": 1500,
  "Ġmouth": 1501,
  "Ġheavy": 1502,
  "art": 1503,
  "Ġland": 1504,
  "Ġdirty": 1505,
  "der": 1506,
  "ask": 1507,
  "Ġgrabbed": 1508,
  "Ġbooks": 1509,
  "ucky": 1510,
  "ation": 1511,
  "Ġleft": 1512,
  "ĠJohn": 1513,
  "ndma": 1514,
  "Ġthrough": 1515,
  "Ġjoin": 1516,
  "ĠLila": 1517,
  "gg": 1518,
  "Ġpulled": 1519,
  "Ġnoticed": 1520,
  "Ġfox": 1521,
  "room": 1522,
  "olly": 1523,
  "Ġplan": 1524,
  "Ġpen": 1525,
  "Ġenjoyed": 1526,
  "pe": 1527,
  "Ġworld": 1528,
  "Ġthree": 1529,
  "Ġmus": 1530,
  "Ġclothes": 1531,
  "Ġchild": 1532,
  "ner": 1533,
  "ister": 1534,
  "\".": 1535,
  "Ġwhy": 1536,
  "Ġstayed": 1537,
  "Ġmight": 1538,
  "Ġlesson": 1539,
  "Ġgent": 1540,
  "Ġdeep": 1541,
  "Ġcookies": 1542,
  "ape": 1543,
  "Bob": 1544,
  "Ġwhite": 1545,
  "Ġwin": 1546,
  "Ġwaved": 1547,
  "Ġpig": 1548,
  "Ġhopped": 1549,
  "Ġgif": 1550,
  "Ġfinished": 1551,
  "Ġfill": 1552,
  "Ġbutterf": 1553,
  "Okay": 1554,
  "Ġpictures": 1555,
  "Ġleaf": 1556,
  "Ġbrother": 1557,
  "Ġspot": 1558,
  "Ġshop": 1559,
  "Ġscre": 1560,
  "Ġgrow": 1561,
  "Ġcastle": 1562,
  "This": 1563,
  "Ġcolorful": 1564,
  "Lucy": 1565,
  "Ġwoods": 1566,
  "Ġquick": 1567,
  "Ġkey": 1568,
  "John": 1569,
  "ully": 1570,
  "asure": 1571,
  "Ġround": 1572,
  "Ġeverywhere": 1573,
  "ĠThere": 1574,
  "iet": 1575,
  "Ġforgot": 1576,
  "Ġarm": 1577,
  "ple": 1578,
  "ang": 1579,
  "ac": 1580,
  "Ġquiet": 1581,
  "thy": 1582,
  "Ġwished": 1583,
  "Ġpare": 1584,
  "Ġbran": 1585,
  "Ġanything": 1586,
  "zz": 1587,
  "ssed": 1588,
  "lc": 1589,
  "imi": 1590,
  "icy": 1591,
  "fully": 1592,
  "Ġgu": 1593,
  "Ġdinner": 1594,
  "less": 1595,
  "Ġhimself": 1596,
  "ĠBuddy": 1597,
  "ĠBilly": 1598,
  "ds": 1599,
  "Ġmusic": 1600,
  "Ġheld": 1601,
  "Ġalone": 1602,
  "Ġsister": 1603,
  "Ġride": 1604,
  "Ġmonster": 1605,
  "Ġgames": 1606,
  "Ġwrong": 1607,
  "Ġwaited": 1608,
  "Ġem": 1609,
  "ued": 1610,
  "ins": 1611,
  "ix": 1612,
  "Ġsea": 1613,
  "ĠSarah": 1614,
  "rag": 1615,
  "Ġseen": 1616,
  "Ġbreak": 1617,
  "Ġbrought": 1618,
  "ton": 1619,
  "Ġsnack": 1620,
  "Ġrel": 1621,
  "Ġmonkey": 1622,
  "rot": 1623,
  "ass": 1624,
  "Ġwell": 1625,
  "Ġplant": 1626,
  "Ġbutterfly": 1627,
  "itten": 1628,
  "cle": 1629,
  "Ġlikes": 1630,
  "Ġju": 1631,
  "ĠWhat": 1632,
  "Ġegg": 1633,
  "Ġdanced": 1634,
  "Ġdry": 1635,
  "Ġbottle": 1636,
  "Ġque": 1637,
  "Ġyear": 1638,
  "Ġwants": 1639,
  "Ġbeach": 1640,
  "cess": 1641,
  "Ġfairy": 1642,
  "row": 1643,
  "Amy": 1644,
  "Ġmakes": 1645,
  "Ġcup": 1646,
  "Ġbee": 1647,
  "Ġatt": 1648,
  "ĠDaisy": 1649,
  "sc": 1650,
  "Ġpromised": 1651,
  "Ġve": 1652,
  "ph": 1653,
  "Ġfollowed": 1654,
  "Ġcarefully": 1655,
  "ries": 1656,
  "ee": 1657,
  "Ġquickly": 1658,
  "Ġfield": 1659,
  "ĠInside": 1660,
  "Ġtoday": 1661,
  "ĠTo": 1662,
  "ĠEm": 1663,
  "Ġtower": 1664,
  "Ġparents": 1665,
  "Ġcra": 1666,
  "Ġbigger": 1667,
  "ĠZ": 1668,
  "Spot": 1669,
  "From": 1670,
  "Ġgi": 1671,
  "Ġce": 1672,
  "ove": 1673,
  "ey": 1674,
  "ards": 1675,
  "Ġnap": 1676,
  "Ġgift": 1677,
  "Ġdanger": 1678,
  "onely": 1679,
  "Ġsilly": 1680,
  "Ġsign": 1681,
  "Ġlonely": 1682,
  "Ġfre": 1683,
  "itch": 1684,
  ".âĢĿ": 1685,
  "Ġreally": 1686,
  "Ġorange": 1687,
  "Ġkite": 1688,
  "Ġfaster": 1689,
  "ĠSoon": 1690,
  "Ġsomeone": 1691,
  "Ġsmart": 1692,
  "ĠMimi": 1693,
  "os": 1694,
  "cy": 1695,
  "Ġwithout": 1696,
  "Ġtight": 1697,
  "Ġspr": 1698,
  "Ġshin": 1699,
  "Ġpol": 1700,
  "Ġpre": 1701,
  "Ġmar": 1702,
  "Ġbrown": 1703,
  "Ġdi": 1704,
  "Ġwagged": 1705,
  "Ġwon": 1706,
  "Ġtalked": 1707,
  "Ġpieces": 1708,
  "Ġhit": 1709,
  "Ġenough": 1710,
  "Ġdrink": 1711,
  "ated": 1712,
  "Ġmail": 1713,
  "Ġfur": 1714,
  "Ġeating": 1715,
  "Ġcro": 1716,
  "Ġbath": 1717,
  "ren": 1718,
  "igg": 1719,
  "aught": 1720,
  "Do": 1721,
  "Ġtalking": 1722,
  "Ġperfect": 1723,
  "Ġpur": 1724,
  "Ġlake": 1725,
  "ella": 1726,
  "Ġsharing": 1727,
  "pper": 1728,
  "fish": 1729,
  "ence": 1730,
  "Ġunderstand": 1731,
  "Ġroad": 1732,
  "Ġmix": 1733,
  "Ġcontin": 1734,
  "Ġbranch": 1735,
  "oup": 1736,
  "Ġbelie": 1737,
  "itting": 1738,
  "amed": 1739,
  "Ġwish": 1740,
  "Ġpet": 1741,
  "His": 1742,
  "Ġrealized": 1743,
  "Ġking": 1744,
  "Ġant": 1745,
  "Ġrocks": 1746,
  "Ġpoin": 1747,
  "Ġliving": 1748,
  "Ġear": 1749,
  "Ġchildren": 1750,
  "orning": 1751,
  "iver": 1752,
  "Ġwelc": 1753,
  "Ġmorning": 1754,
  "Ġjar": 1755,
  "oun": 1756,
  "arm": 1757,
  "ance": 1758,
  "Ġyes": 1759,
  "Ġstone": 1760,
  "Ġside": 1761,
  "Ġnum": 1762,
  "Ġflying": 1763,
  "Ġfilled": 1764,
  "Ġdolls": 1765,
  "Ġdelic": 1766,
  "Ġcow": 1767,
  "ze": 1768,
  "Ġworried": 1769,
  "Ġthrow": 1770,
  "Ġpat": 1771,
  "Ġowner": 1772,
  "Ġjuice": 1773,
  "Ġcontinued": 1774,
  "Ġbuck": 1775,
  "Ġbike": 1776,
  "ract": 1777,
  "pping": 1778,
  "Ġsmiles": 1779,
  "Ġph": 1780,
  "Ġfinally": 1781,
  "Ġcomp": 1782,
  "Ġcarrot": 1783,
  "ĠTommy": 1784,
  "ord": 1785,
  "lla": 1786,
  "eo": 1787,
  "amp": 1788,
  "althy": 1789,
  "Ġstre": 1790,
  "Ġapples": 1791,
  "br": 1792,
  "Ġwords": 1793,
  "Ġsail": 1794,
  "Ġriver": 1795,
  "fort": 1796,
  "ast": 1797,
  "Ġsitting": 1798,
  "Ġcrying": 1799,
  "Ġbutton": 1800,
  "Ġbarked": 1801,
  "ĠBl": 1802,
  "ĠAt": 1803,
  "Mommy": 1804,
  "Ġsang": 1805,
  "Ġhigher": 1806,
  "Ġbowl": 1807,
  "used": 1808,
  "unch": 1809,
  "ich": 1810,
  "ead": 1811,
  "Ġwhist": 1812,
  "Ġtasty": 1813,
  "Ġsharp": 1814,
  "Ġpudd": 1815,
  "Ġfree": 1816,
  "Ġblank": 1817,
  "Ġballs": 1818,
  "ĠJoe": 1819,
  "Ġwelcome": 1820,
  "Ġpill": 1821,
  "Ġmat": 1822,
  "Ġleg": 1823,
  "Ġletter": 1824,
  "Ġasks": 1825,
  "vel": 1826,
  "lder": 1827,
  "enny": 1828,
  "Just": 1829,
  "Ġshining": 1830,
  "Ġruns": 1831,
  "Ġmine": 1832,
  "Ġhappen": 1833,
  "Ġclosed": 1834,
  "Ġblanket": 1835,
  "stead": 1836,
  "cket": 1837,
  "Ġvis": 1838,
  "Ġlaughing": 1839,
  "Ġeverything": 1840,
  "Ġcaught": 1841,
  "Ġcandy": 1842,
  "ves": 1843,
  "ato": 1844,
  "Ġrolled": 1845,
  "Ġmother": 1846,
  "Ġfan": 1847,
  "Ġel": 1848,
  "Ġbor": 1849,
  "Ġ-": 1850,
  "Ġcoat": 1851,
  "ĠGra": 1852,
  "ĊĠ": 1853,
  "irt": 1854,
  "Ġstand": 1855,
  "Ġsec": 1856,
  "Ġheart": 1857,
  "Ġdangerous": 1858,
  "Ġdrag": 1859,
  "Ġbone": 1860,
  "sw": 1861,
  "Ġmoved": 1862,
  "Ġansw": 1863,
  "set": 1864,
  "me": 1865,
  "ises": 1866,
  "ail": 1867,
  "Maybe": 1868,
  "Ġwhe": 1869,
  "Ġele": 1870,
  "Ġstrange": 1871,
  "Ġstart": 1872,
  "Ġsecret": 1873,
  "Ġfit": 1874,
  "Ġelse": 1875,
  "ung": 1876,
  "oth": 1877,
  "llie": 1878,
  "Ġchair": 1879,
  "Ġboun": 1880,
  "ctor": 1881,
  "Ġwore": 1882,
  "Ġtrou": 1883,
  "Ġpaw": 1884,
  "isk": 1885,
  "Ġsinging": 1886,
  "Ġrope": 1887,
  "Ġpers": 1888,
  "Ġband": 1889,
  "idge": 1890,
  "ama": 1891,
  "Ġtreasure": 1892,
  "Ġsame": 1893,
  "Ġpower": 1894,
  "Ġmud": 1895,
  "Ġmad": 1896,
  "ĠLeo": 1897,
  "isa": 1898,
  "board": 1899,
  "While": 1900,
  "Jack": 1901,
  "Fin": 1902,
  "Ġgentle": 1903,
  "Ġcorn": 1904,
  "ude": 1905,
  "Ġwoke": 1906,
  "Ġvisit": 1907,
  "Ġherself": 1908,
  "unt": 1909,
  "ney": 1910,
  "ire": 1911,
  "Ġshy": 1912,
  "Ġsear": 1913,
  "Ġdropped": 1914,
  "Ġbucket": 1915,
  "Ġbelieve": 1916,
  "ĠThank": 1917,
  "sp": 1918,
  "Please": 1919,
  "Ġspoon": 1920,
  "Ġnose": 1921,
  "Ġdragon": 1922,
  "ĠBlue": 1923,
  "ost": 1924,
  "izz": 1925,
  "Ġthinks": 1926,
  "Ġcookie": 1927,
  "iskers": 1928,
  "gy": 1929,
  "Ġswings": 1930,
  "Ġpush": 1931,
  "Ġlunch": 1932,
  "Ġgetting": 1933,
  "Ġbelong": 1934,
  "ased": 1935,
  "Ġtouc": 1936,
  "Ġshook": 1937,
  "Ġcute": 1938,
  "Ġcard": 1939,
  "Ġblack": 1940,
  "Ġbite": 1941,
  "urtle": 1942,
  "phant": 1943,
  "ol": 1944,
  "gly": 1945,
  "!âĢĿ": 1946,
  "Ġseat": 1947,
  "Ġsoup": 1948,
  "Ġrocket": 1949,
  "Ġlive": 1950,
  "Ġkitten": 1951,
  "Ġcraw": 1952,
  "Ġslowly": 1953,
  "Ġshr": 1954,
  "Ġben": 1955,
  "ĠBella": 1956,
  "cing": 1957,
  "cer": 1958,
  "asket": 1959,
  "Ġtaking": 1960,
  "Ġmark": 1961,
  "Ġjour": 1962,
  "Ġhoped": 1963,
  "Ġholding": 1964,
  "Ġeas": 1965,
  "Ġboss": 1966,
  "Ġbasket": 1967,
  "ĠFred": 1968,
  "med": 1969,
  "ible": 1970,
  "Ġwild": 1971,
  "Ġvill": 1972,
  "Ġugly": 1973,
  "Ġtreats": 1974,
  "Ġtouched": 1975,
  "Ġmoney": 1976,
  "Ġjoy": 1977,
  "Ġdays": 1978,
  "ĠMaybe": 1979,
  "thday": 1980,
  "ourse": 1981,
  "irthday": 1982,
  "chool": 1983,
  "Lila": 1984,
  "Ġyears": 1985,
  "Ġschool": 1986,
  "Ġinc": 1987,
  "Ġforever": 1988,
  "Ġdirt": 1989,
  "Ġdelicious": 1990,
  "Ġcourse": 1991,
  "Ġarri": 1992,
  "Ġtwins": 1993,
  "Ġturtle": 1994,
  "Ġstring": 1995,
  "Ġspo": 1996,
  "Ġkiss": 1997,
  "Ġgray": 1998,
  "ĠSp": 1999,
  "izza": 2000,
  "app": 2001,
  "Ġteac": 2002,
  "Ġshake": 2003,
  "Ġpuppy": 2004,
  "Ġje": 2005,
  "Ġfeels": 2006,
  "ress": 2007,
  "iling": 2008,
  "est": 2009,
  "Ġwra": 2010,
  "Ġshell": 2011,
  "Ġlate": 2012,
  "Ġfarmer": 2013,
  "Ġchees": 2014,
  "Ġcarry": 2015,
  "Ġbush": 2016,
  "Ġarrived": 2017,
  "sting": 2018,
  "ose": 2019,
  "ined": 2020,
  "ere": 2021,
  "ayon": 2022,
  "'ll": 2023,
  "Ġtom": 2024,
  "Ġstorm": 2025,
  "Ġshoes": 2026,
  "Ġpuddle": 2027,
  "Ġpuzz": 2028,
  "Ġmed": 2029,
  "Ġintere": 2030,
  "Ġfixed": 2031,
  "Ġfew": 2032,
  "Ġcheese": 2033,
  "lower": 2034,
  "fused": 2035,
  "Ġpop": 2036,
  "Ġmist": 2037,
  "Ġgrew": 2038,
  "Ġdist": 2039,
  "Ġbusy": 2040,
  "umpy": 2041,
  "igh": 2042,
  "ier": 2043,
  "eddy": 2044,
  "Ġsnowman": 2045,
  "Ġsandw": 2046,
  "Ġprob": 2047,
  "Ġhiding": 2048,
  "Ġamazing": 2049,
  "ĠWhiskers": 2050,
  "bb": 2051,
  "Ġworm": 2052,
  "Ġwash": 2053,
  "Ġrude": 2054,
  "Ġqueen": 2055,
  "Ġpromise": 2056,
  "Ġinteresting": 2057,
  "Ġhealthy": 2058,
  "Ġcrayon": 2059,
  "Ġbirthday": 2060,
  "ling": 2061,
  "Hey": 2062,
  "Ġyoung": 2063,
  "Ġwonderful": 2064,
  "Ġwhistle": 2065,
  "Ġshelf": 2066,
  "Ġplane": 2067,
  "Ġpillow": 2068,
  "Ġpatient": 2069,
  "Ġpile": 2070,
  "Ġgiant": 2071,
  "ĠCh": 2072,
  "Ġign": 2073,
  "lem": 2074,
  "Ġwar": 2075,
  "Ġteacher": 2076,
  "Ġproblem": 2077,
  "Ġnut": 2078,
  "Ġmoon": 2079,
  "Ġlife": 2080,
  "Ġinv": 2081,
  "Ġcrab": 2082,
  "Ġbow": 2083,
  "ĠDucky": 2084,
  "ount": 2085,
  "eared": 2086,
  "Ġteach": 2087,
  "Ġshirt": 2088,
  "Ġres": 2089,
  "Ġprincess": 2090,
  "Ġpart": 2091,
  "Ġpast": 2092,
  "Ġneck": 2093,
  "Ġtowards": 2094,
  "Ġsnake": 2095,
  "Ġlay": 2096,
  "Ġelephant": 2097,
  "ĠLisa": 2098,
  "ross": 2099,
  "oof": 2100,
  "ilk": 2101,
  "ipped": 2102,
  "Ġwings": 2103,
  "Ġvillage": 2104,
  "Ġsmo": 2105,
  "Ġseed": 2106,
  "Ġser": 2107,
  "Ġpocket": 2108,
  "Ġmilk": 2109,
  "Ġlanded": 2110,
  "Ġdoctor": 2111,
  "Ġdisapp": 2112,
  "Ġcreat": 2113,
  "Ġbench": 2114,
  "Ġamazed": 2115,
  "Ġable": 2116,
  "ĠEmma": 2117,
  "ors": 2118,
  "oman": 2119,
  "lebr": 2120,
  "irr": 2121,
  "fortable": 2122,
  "elly": 2123,
  "Ġwoman": 2124,
  "Ġsuddenly": 2125,
  "Ġrub": 2126,
  "Ġpizza": 2127,
  "Ġdrove": 2128,
  "Ġcoll": 2129,
  "Ġcheered": 2130,
  "Ġchick": 2131,
  "Ġcelebr": 2132,
  "Ġbread": 2133,
  "rill": 2134,
  "ider": 2135,
  "St": 2136,
  "Ġstepped": 2137,
  "Ġfoot": 2138,
  "Ġdriver": 2139,
  "ually": 2140,
  "ountain": 2141,
  "ond": 2142,
  "aughty": 2143,
  "OK": 2144,
  "Good": 2145,
  "Ġstreet": 2146,
  "Ġstories": 2147,
  "Ġsave": 2148,
  "Ġnaughty": 2149,
  "Ġlaw": 2150,
  "Ġhugs": 2151,
  "Ġhoney": 2152,
  "Ġcart": 2153,
  "ĠGrandma": 2154,
  "sy": 2155,
  "iger": 2156,
  "ian": 2157,
  "ek": 2158,
  "Later": 2159,
  "Kitty": 2160,
  "Ġzoom": 2161,
  "Ġsock": 2162,
  "Ġslid": 2163,
  "Ġpath": 2164,
  "Ġdaddy": 2165,
  "Ġcave": 2166,
  "Ġbought": 2167,
  "Ġacross": 2168,
  "ĠAnn": 2169,
  "ife": 2170,
  "ches": 2171,
  "Finally": 2172,
  "Ġupset": 2173,
  "Ġthin": 2174,
  "Ġmost": 2175,
  "Ġfighting": 2176,
  "Ġducks": 2177,
  "Ġbring": 2178,
  "ĠDog": 2179,
  "ert": 2180,
  "Ġrob": 2181,
  "Ġcover": 2182,
  "Ġbeak": 2183,
  "eter": 2184,
  "epend": 2185,
  "ens": 2186,
  "Be": 2187,
  "Ġzoo": 2188,
  "Ġpurple": 2189,
  "Ġpowerful": 2190,
  "Ġpeace": 2191,
  "Ġnumber": 2192,
  "Ġmind": 2193,
  "Ġgrumpy": 2194,
  "ĠMolly": 2195,
  "ular": 2196,
  "turn": 2197,
  "oop": 2198,
  "bow": 2199,
  "Ġthough": 2200,
  "Ġspin": 2201,
  "Ġsuc": 2202,
  "Ġlovely": 2203,
  "Ġforget": 2204,
  "Ġbell": 2205,
  "ĠMomo": 2206,
  "ĠFinally": 2207,
  "oose": 2208,
  "izzy": 2209,
  "erry": 2210,
  "Ġwheel": 2211,
  "Ġwasn": 2212,
  "Ġtrip": 2213,
  "Ġshap": 2214,
  "Ġsal": 2215,
  "Ġreturn": 2216,
  "Ġpour": 2217,
  "Ġnoises": 2218,
  "Ġact": 2219,
  "upid": 2220,
  "not": 2221,
  "Ġsplash": 2222,
  "Ġsmelly": 2223,
  "Ġseek": 2224,
  "Ġsaved": 2225,
  "Ġsack": 2226,
  "Ġpool": 2227,
  "Ġjourney": 2228,
  "Ġfancy": 2229,
  "Ġbugs": 2230,
  "Ġbossy": 2231,
  "Ġbat": 2232,
  "ity": 2233,
  "Of": 2234,
  "Ġspider": 2235,
  "Ġshapes": 2236,
  "Ġpuzzle": 2237,
  "Ġnet": 2238,
  "Ġforgive": 2239,
  "Ġfence": 2240,
  "Ġdish": 2241,
  "Ġclouds": 2242,
  "Ġcannot": 2243,
  "ward": 2244,
  "oph": 2245,
  "To": 2246,
  "Ġworking": 2247,
  "Ġstupid": 2248,
  "Ġsounds": 2249,
  "Ġmessy": 2250,
  "Ġmeet": 2251,
  "Ġeasy": 2252,
  "Ġcap": 2253,
  "Ġbrush": 2254,
  "ym": 2255,
  "llo": 2256,
  "eon": 2257,
  "Now": 2258,
  "Ġval": 2259,
  "Ġsteal": 2260,
  "Ġrobot": 2261,
  "Ġmissed": 2262,
  "Ġmin": 2263,
  "Ġgrandma": 2264,
  "Ġfinish": 2265,
  "Ġdrive": 2266,
  "Ġdes": 2267,
  "Ġban": 2268,
  "Ġba": 2269,
  "Ġanyone": 2270,
  "ĠTiny": 2271,
  "ocked": 2272,
  "kin": 2273,
  "Sure": 2274,
  "?âĢĿ": 2275,
  "Ġtie": 2276,
  "Ġspark": 2277,
  "Ġpigeon": 2278,
  "Ġorgan": 2279,
  "Ġjelly": 2280,
  "Ġhelpful": 2281,
  "Ġglass": 2282,
  "Ġcloth": 2283,
  "to": 2284,
  "oomy": 2285,
  "mon": 2286,
  "ery": 2287,
  "bedient": 2288,
  "amond": 2289,
  "alm": 2290,
  "Ġunk": 2291,
  "Ġteddy": 2292,
  "Ġrod": 2293,
  "Ġrainbow": 2294,
  "Ġputs": 2295,
  "Ġpoor": 2296,
  "Ġobedient": 2297,
  "Ġnote": 2298,
  "Ġmistake": 2299,
  "Ġhor": 2300,
  "Ġfake": 2301,
  "Ġdiamond": 2302,
  "Ġunkn": 2303,
  "Ġtowel": 2304,
  "Ġtiger": 2305,
  "Ġob": 2306,
  "Ġmagical": 2307,
  "Ġlift": 2308,
  "Ġhuge": 2309,
  "Ġgrate": 2310,
  "Ġglow": 2311,
  "Ġexp": 2312,
  "Ġclass": 2313,
  "Ġcir": 2314,
  "Ġalong": 2315,
  "ĠTogether": 2316,
  "ĠJill": 2317,
  "getable": 2318,
  "bled": 2319,
  "Ġwhole": 2320,
  "Ġvegetable": 2321,
  "Ġunknown": 2322,
  "Ġtakes": 2323,
  "Ġsug": 2324,
  "Ġphone": 2325,
  "Ġpack": 2326,
  "Ġlater": 2327,
  "Ġhope": 2328,
  "Ġgrateful": 2329,
  "Ġadventures": 2330,
  "ĠMark": 2331,
  "ĠOn": 2332,
  "lderly": 2333,
  "ize": 2334,
  "com": 2335,
  "Ġwondered": 2336,
  "Ġwatching": 2337,
  "Ġtaste": 2338,
  "Ġsplas": 2339,
  "Ġsel": 2340,
  "Ġrose": 2341,
  "Ġperson": 2342,
  "Ġpan": 2343,
  "Ġoven": 2344,
  "Ġlock": 2345,
  "Ġfing": 2346,
  "Ġemb": 2347,
  "Ġelderly": 2348,
  "Ġbanan": 2349,
  "ventually": 2350,
  "ions": 2351,
  "asp": 2352,
  "Ġsongs": 2353,
  "Ġsu": 2354,
  "Ġpotato": 2355,
  "Ġpract": 2356,
  "Ġlemon": 2357,
  "Ġjumping": 2358,
  "Ġignor": 2359,
  "Ġarms": 2360,
  "uce": 2361,
  "irror": 2362,
  "aur": 2363,
  "Ġselfish": 2364,
  "Ġscar": 2365,
  "Ġpointed": 2366,
  "Ġpin": 2367,
  "Ġmirror": 2368,
  "Ġlonger": 2369,
  "Ġline": 2370,
  "Ġhorse": 2371,
  "Ġcoo": 2372,
  "Ġbark": 2373,
  "Ġav": 2374,
  "scape": 2375,
  "ork": 2376,
  "icine": 2377,
  "col": 2378,
  "Sally": 2379,
  "Dad": 2380,
  "Ġzip": 2381,
  "Ġwis": 2382,
  "Ġsheep": 2383,
  "Ġseemed": 2384,
  "Ġrough": 2385,
  "Ġonto": 2386,
  "Ġmedicine": 2387,
  "Ġdrank": 2388,
  "Ġcouch": 2389,
  "Ġcomes": 2390,
  "ĠJust": 2391,
  "ewel": 2392,
  "ever": 2393,
  "arra": 2394,
  "Ġwrap": 2395,
  "Ġsupp": 2396,
  "Ġsuch": 2397,
  "Ġsick": 2398,
  "Ġlegs": 2399,
  "Ġjewel": 2400,
  "Ġinstead": 2401,
  "Ġhello": 2402,
  "Ġfaces": 2403,
  "Ġfil": 2404,
  "Ġembarra": 2405,
  "Ġconfused": 2406,
  "Ġbounce": 2407,
  "ĠBear": 2408,
  "work": 2409,
  "una": 2410,
  "pty": 2411,
  "pill": 2412,
  "pillar": 2413,
  "emy": 2414,
  "dile": 2415,
  "codile": 2416,
  "Ġwide": 2417,
  "Ġstep": 2418,
  "Ġsort": 2419,
  "Ġmyster": 2420,
  "Ġlast": 2421,
  "Ġgently": 2422,
  "Ġempty": 2423,
  "Ġeag": 2424,
  "Ġdancing": 2425,
  "Ġcho": 2426,
  "Ġcarried": 2427,
  "ĠSt": 2428,
  "ĠBu": 2429,
  "ment": 2430,
  "ball": 2431,
  "airs": 2432,
  "Soon": 2433,
  "Ġwolf": 2434,
  "Ġwave": 2435,
  "Ġtries": 2436,
  "Ġnearby": 2437,
  "Ġmaybe": 2438,
  "Ġhats": 2439,
  "Ġgives": 2440,
  "Ġfeed": 2441,
  "Ġcalm": 2442,
  "Ġbal": 2443,
  "yard": 2444,
  "pect": 2445,
  "ipp": 2446,
  "elp": 2447,
  "azz": 2448,
  "adow": 2449,
  "Ġtent": 2450,
  "Ġspe": 2451,
  "Ġsmooth": 2452,
  "Ġjoke": 2453,
  "Ġgather": 2454,
  "Ġcrocodile": 2455,
  "Ġchange": 2456,
  "Ġbackyard": 2457,
  "ĠMary": 2458,
  "ĠJenny": 2459,
  "ĠHow": 2460,
  "ĠDoggy": 2461,
  "ume": 2462,
  "udy": 2463,
  "Ġtool": 2464,
  "Ġstars": 2465,
  "Ġstraw": 2466,
  "Ġspicy": 2467,
  "Ġsoap": 2468,
  "Ġsandwich": 2469,
  "Ġrad": 2470,
  "Ġpretended": 2471,
  "Ġprot": 2472,
  "Ġguess": 2473,
  "Ġfat": 2474,
  "Ġdogs": 2475,
  "Ġdizzy": 2476,
  "Ġclever": 2477,
  "Ġbuilding": 2478,
  "Ġash": 2479,
  "ĠCome": 2480,
  "ormous": 2481,
  "berry": 2482,
  "Ġtrouble": 2483,
  "Ġsticks": 2484,
  "Ġspring": 2485,
  "Ġsleepy": 2486,
  "Ġhero": 2487,
  "Ġfeather": 2488,
  "Ġfle": 2489,
  "Ġenormous": 2490,
  "Ġbarn": 2491,
  "Ġbake": 2492,
  "ult": 2493,
  "ness": 2494,
  "iff": 2495,
  "den": 2496,
  "Help": 2497,
  "Ġwaiting": 2498,
  "Ġscreamed": 2499,
  "Ġsuit": 2500,
  "Ġrich": 2501,
  "Ġrat": 2502,
  "Ġplants": 2503,
  "Ġlucky": 2504,
  "Ġdug": 2505,
  "Ġcost": 2506,
  "Ġanswer": 2507,
  "rated": 2508,
  "ont": 2509,
  "oppy": 2510,
  "And": 2511,
  "Ġweak": 2512,
  "Ġsnacks": 2513,
  "Ġsearch": 2514,
  "Ġsaus": 2515,
  "Ġquest": 2516,
  "Ġhidden": 2517,
  "Ġgold": 2518,
  "Ġfear": 2519,
  "Ġchew": 2520,
  "Ġcri": 2521,
  "Ġbridge": 2522,
  "ĠElla": 2523,
  "ĠBr": 2524,
  "ute": 2525,
  "arge": 2526,
  "Stop": 2527,
  "My": 2528,
  "Come": 2529,
  "Ġtest": 2530,
  "Ġstudy": 2531,
  "Ġprint": 2532,
  "Ġpicks": 2533,
  "Ġpeaceful": 2534,
  "Ġmatter": 2535,
  "Ġknocked": 2536,
  "Ġjug": 2537,
  "Ġfront": 2538,
  "Ġescape": 2539,
  "Ġdecor": 2540,
  "Ġchicken": 2541,
  "ĠWith": 2542,
  "unk": 2543,
  "shine": 2544,
  "orrow": 2545,
  "onest": 2546,
  "mer": 2547,
  "iting": 2548,
  "ieved": 2549,
  "box": 2550,
  "Ġtrick": 2551,
  "Ġtomorrow": 2552,
  "Ġsteak": 2553,
  "Ġspray": 2554,
  "Ġsmelled": 2555,
  "Ġscarf": 2556,
  "Ġrec": 2557,
  "Ġplaces": 2558,
  "Ġkick": 2559,
  "Ġimag": 2560,
  "Ġhonest": 2561,
  "Ġcrown": 2562,
  "Ġent": 2563,
  "ustrated": 2564,
  "mb": 2565,
  "iv": 2566,
  "io": 2567,
  "host": 2568,
  "erpillar": 2569,
  "alk": 2570,
  "ained": 2571,
  "adder": 2572,
  "Ġsell": 2573,
  "Ġreg": 2574,
  "Ġhay": 2575,
  "Ġhar": 2576,
  "Ġcollect": 2577,
  "Ġcozy": 2578,
  "Ġchased": 2579,
  "Ġcaterpillar": 2580,
  "ĠTheir": 2581,
  "ĠPlease": 2582,
  "ĠJim": 2583,
  "Ġ'": 2584,
  "umble": 2585,
  "uitar": 2586,
  "ming": 2587,
  "ino": 2588,
  "ightened": 2589,
  "Are": 2590,
  "Ġtear": 2591,
  "Ġswan": 2592,
  "Ġsquare": 2593,
  "Ġsol": 2594,
  "Ġsmiling": 2595,
  "Ġseal": 2596,
  "Ġlarge": 2597,
  "Ġladder": 2598,
  "Ġguitar": 2599,
  "Ġghost": 2600,
  "Ġfrustrated": 2601,
  "Ġfrightened": 2602,
  "Ġclock": 2603,
  "Ġclear": 2604,
  "Ġchase": 2605,
  "Ġappeared": 2606,
  "ĠMy": 2607,
  "ĠEmily": 2608,
  "ones": 2609,
  "old": 2610,
  "icked": 2611,
  "bbles": 2612,
  "alous": 2613,
  "Ġyelled": 2614,
  "Ġvegetables": 2615,
  "Ġuncle": 2616,
  "Ġstret": 2617,
  "Ġpay": 2618,
  "Ġord": 2619,
  "Ġnothing": 2620,
  "Ġnewsp": 2621,
  "Ġmeasure": 2622,
  "Ġknee": 2623,
  "Ġjealous": 2624,
  "Ġdrew": 2625,
  "Ġdrum": 2626,
  "Ġbean": 2627,
  "ĠRemy": 2628,
  "ĠMama": 2629,
  "ĠDaddy": 2630,
  "ungle": 2631,
  "oto": 2632,
  "irp": 2633,
  "gest": 2634,
  "ensive": 2635,
  "acht": 2636,
  "Ġyourself": 2637,
  "Ġyacht": 2638,
  "Ġwearing": 2639,
  "Ġvan": 2640,
  "Ġrelieved": 2641,
  "Ġpear": 2642,
  "Ġnoisy": 2643,
  "Ġmod": 2644,
  "Ġloves": 2645,
  "Ġliz": 2646,
  "Ġjungle": 2647,
  "Ġexplor": 2648,
  "Ġexpensive": 2649,
  "Ġeager": 2650,
  "Ġdest": 2651,
  "Ġchest": 2652,
  "Ġcelebrate": 2653,
  "Ġbody": 2654,
  "ĠBunny": 2655,
  "ten": 2656,
  "opard": 2657,
  "eb": 2658,
  "Ġwip": 2659,
  "Ġswimming": 2660,
  "Ġstir": 2661,
  "Ġstamp": 2662,
  "Ġscare": 2663,
  "Ġsour": 2664,
  "Ġprotect": 2665,
  "Ġpolice": 2666,
  "Ġplate": 2667,
  "Ġpepper": 2668,
  "Ġleopard": 2669,
  "Ġjellyfish": 2670,
  "Ġjog": 2671,
  "Ġfurry": 2672,
  "Ġfold": 2673,
  "Ġfeet": 2674,
  "Ġdrawing": 2675,
  "Ġcoin": 2676,
  "Ġcats": 2677,
  "Ġashamed": 2678,
  "Ġants": 2679,
  "ĠTV": 2680,
  "ĠCat": 2681,
  "ractive": 2682,
  "ormal": 2683,
  "nic": 2684,
  "ned": 2685,
  "irit": 2686,
  "dom": 2687,
  "bor": 2688,
  "Ġwake": 2689,
  "Ġtrust": 2690,
  "Ġthoughtful": 2691,
  "Ġru": 2692,
  "Ġnewspaper": 2693,
  "Ġmountain": 2694,
  "Ġhairy": 2695,
  "Ġharm": 2696,
  "Ġgoes": 2697,
  "Ġglue": 2698,
  "Ġgigg": 2699,
  "Ġgen": 2700,
  "Ġembarrassed": 2701,
  "Ġdisco": 2702,
  "Ġcage": 2703,
  "Ġasking": 2704,
  "Ġacorn": 2705,
  "ĠSomet": 2706,
  "Ġ3": 2707,
  "rue": 2708,
  "la": 2709,
  "imp": 2710,
  "fee": 2711,
  "ffee": 2712,
  "elery": 2713,
  "Tommy": 2714,
  "Ġyog": 2715,
  "Ġwitch": 2716,
  "Ġtoug": 2717,
  "Ġsold": 2718,
  "Ġrug": 2719,
  "Ġpicnic": 2720,
  "Ġpass": 2721,
  "Ġnormal": 2722,
  "Ġlab": 2723,
  "Ġflag": 2724,
  "Ġdig": 2725,
  "Ġcelery": 2726,
  "Ġattractive": 2727,
  "ĠWhy": 2728,
  "utom": 2729,
  "utomob": 2730,
  "utomobile": 2731,
  "ual": 2732,
  "let": 2733,
  "keep": 2734,
  "issors": 2735,
  "ique": 2736,
  "corn": 2737,
  "cient": 2738,
  "Ġwaff": 2739,
  "Ġunique": 2740,
  "Ġtough": 2741,
  "Ġspill": 2742,
  "Ġsaf": 2743,
  "Ġremind": 2744,
  "Ġring": 2745,
  "Ġprince": 2746,
  "Ġprun": 2747,
  "Ġmoving": 2748,
  "Ġmighty": 2749,
  "Ġlazy": 2750,
  "Ġincred": 2751,
  "Ġhang": 2752,
  "Ġhoop": 2753,
  "Ġgener": 2754,
  "Ġfruits": 2755,
  "Ġfinger": 2756,
  "Ġcoffee": 2757,
  "Ġcheer": 2758,
  "Ġcareless": 2759,
  "Ġbecome": 2760,
  "Ġancient": 2761,
  "ĠGo": 2762,
  "ĠBenny": 2763,
  "ubb": 2764,
  "rilli": 2765,
  "rob": 2766,
  "ject": 2767,
  "Ġwrite": 2768,
  "Ġunderstood": 2769,
  "Ġtid": 2770,
  "Ġsword": 2771,
  "Ġsunshine": 2772,
  "Ġsunf": 2773,
  "Ġstood": 2774,
  "Ġscissors": 2775,
  "Ġrh": 2776,
  "Ġrare": 2777,
  "Ġpolite": 2778,
  "Ġpit": 2779,
  "Ġlizard": 2780,
  "Ġincredible": 2781,
  "Ġhur": 2782,
  "Ġgenerous": 2783,
  "Ġending": 2784,
  "Ġcleaned": 2785,
  "Ġbrilli": 2786,
  "Ġarrow": 2787,
  "ĠRex": 2788,
  "ĠOllie": 2789,
  "ĠIf": 2790,
  "ĠEven": 2791,
  "ĠBobby": 2792,
  "keeper": 2793,
  "illa": 2794,
  "gen": 2795,
  "fra": 2796,
  "aking": 2797,
  "Ġtrue": 2798,
  "Ġtasted": 2799,
  "Ġsuccess": 2800,
  "Ġstri": 2801,
  "Ġsquash": 2802,
  "Ġsausage": 2803,
  "Ġpro": 2804,
  "Ġpow": 2805,
  "Ġmatch": 2806,
  "Ġmarket": 2807,
  "Ġkicked": 2808,
  "Ġhunt": 2809,
  "Ġbrilliant": 2810,
  "Ġautomobile": 2811,
  "ugg": 2812,
  "tress": 2813,
  "lves": 2814,
  "fraid": 2815,
  "aughter": 2816,
  "angle": 2817,
  "How": 2818,
  "Ġtidy": 2819,
  "Ġtea": 2820,
  "Ġstuff": 2821,
  "Ġsalad": 2822,
  "Ġpray": 2823,
  "Ġmattress": 2824,
  "Ġknowing": 2825,
  "Ġgun": 2826,
  "Ġgate": 2827,
  "Ġdead": 2828,
  "Ġcrayons": 2829,
  "Ġcovered": 2830,
  "Ġcush": 2831,
  "Ġblow": 2832,
  "Ġbloom": 2833,
  "Ġadventur": 2834,
  "Ġafraid": 2835,
  "ĠPe": 2836,
  "ĠJerry": 2837,
  "ĠDon": 2838,
  "vous": 2839,
  "ushroom": 2840,
  "robe": 2841,
  "roy": 2842,
  "ict": 2843,
  "abin": 2844,
  "Molly": 2845,
  "Here": 2846,
  "Ġwouldn": 2847,
  "Ġweird": 2848,
  "Ġthese": 2849,
  "Ġsunflower": 2850,
  "Ġshells": 2851,
  "Ġneigh": 2852,
  "Ġmic": 2853,
  "Ġdisg": 2854,
  "Ġdestroy": 2855,
  "Ġcrawl": 2856,
  "Ġcounted": 2857,
  "Ġcomb": 2858,
  "Ġclay": 2859,
  "Ġclap": 2860,
  "Ġcircle": 2861,
  "Ġcarrots": 2862,
  "Ġcabin": 2863,
  "Ġbehave": 2864,
  "Ġbathroom": 2865,
  "Ġadventurous": 2866,
  "ĠLuna": 2867,
  "ĠInstead": 2868,
  "usting": 2869,
  "ulif": 2870,
  "udge": 2871,
  "ope": 2872,
  "land": 2873,
  "inal": 2874,
  "comfortable": 2875,
  "bers": 2876,
  "Ġuncomfortable": 2877,
  "Ġthie": 2878,
  "Ġrespect": 2879,
  "Ġrelax": 2880,
  "Ġperform": 2881,
  "Ġmole": 2882,
  "Ġignorant": 2883,
  "Ġhumble": 2884,
  "Ġframe": 2885,
  "Ġfolder": 2886,
  "Ġdisgusting": 2887,
  "ĠJen": 2888,
  "Ġind": 2889,
  "usual": 2890,
  "rella": 2891,
  "pes": 2892,
  "net": 2893,
  "mbrella": 2894,
  "isp": 2895,
  "inary": 2896,
  "ident": 2897,
  "icult": 2898,
  "iable": 2899,
  "ficult": 2900,
  "era": 2901,
  "ages": 2902,
  "ale": 2903,
  "Mum": 2904,
  "Ġwing": 2905,
  "Ġusing": 2906,
  "Ġunusual": 2907,
  "Ġumbrella": 2908,
  "Ġshrimp": 2909,
  "Ġreliable": 2910,
  "Ġpaws": 2911,
  "Ġmysterious": 2912,
  "Ġmagnet": 2913,
  "Ġmask": 2914,
  "Ġhose": 2915,
  "Ġglove": 2916,
  "Ġfridge": 2917,
  "Ġeng": 2918,
  "Ġdifficult": 2919,
  "Ġdaughter": 2920,
  "Ġcross": 2921,
  "Ġcaulif": 2922,
  "Ġcand": 2923,
  "Ġboring": 2924,
  "Ġballoons": 2925,
  "Ġbalance": 2926,
  "Ġasleep": 2927,
  "Ġadm": 2928,
  "ĠSometimes": 2929,
  "ĠBe": 2930,
  "ule": 2931,
  "osaur": 2932,
  "oot": 2933,
  "iginal": 2934,
  "ighed": 2935,
  "eth": 2936,
  "Together": 2937,
  "Sarah": 2938,
  "Ġyours": 2939,
  "Ġwhisp": 2940,
  "Ġunl": 2941,
  "Ġtwist": 2942,
  "Ġtape": 2943,
  "Ġstove": 2944,
  "Ġsplashed": 2945,
  "Ġsque": 2946,
  "Ġpowder": 2947,
  "Ġones": 2948,
  "Ġoy": 2949,
  "Ġner": 2950,
  "Ġmoms": 2951,
  "Ġjudge": 2952,
  "Ġhorn": 2953,
  "Ġfamous": 2954,
  "Ġfis": 2955,
  "Ġdistur": 2956,
  "Ġdiscover": 2957,
  "Ġdinosaur": 2958,
  "Ġbees": 2959,
  "ĠDolly": 2960,
  "tt": 2961,
  "tti": 2962,
  "sent": 2963,
  "irsty": 2964,
  "hetti": 2965,
  "fted": 2966,
  "erries": 2967,
  "cil": 2968,
  "aghetti": 2969,
  "affe": 2970,
  "aw": 2971,
  "Inside": 2972,
  "Ġwagon": 2973,
  "Ġtravel": 2974,
  "Ġspoiled": 2975,
  "Ġspirit": 2976,
  "Ġspaghetti": 2977,
  "Ġship": 2978,
  "Ġradio": 2979,
  "Ġroof": 2980,
  "Ġpoured": 2981,
  "Ġpencil": 2982,
  "Ġordinary": 2983,
  "Ġoriginal": 2984,
  "Ġnumbers": 2985,
  "Ġnervous": 2986,
  "Ġmov": 2987,
  "Ġmule": 2988,
  "Ġmach": 2989,
  "Ġknight": 2990,
  "Ġisland": 2991,
  "Ġhopping": 2992,
  "Ġharmless": 2993,
  "Ġguil": 2994,
  "Ġfrown": 2995,
  "Ġeggs": 2996,
  "Ġdough": 2997,
  "Ġcrack": 2998,
  "Ġcorner": 2999,
  "Ġcloset": 3000,
  "Ġchalk": 3001,
  "Ġbreath": 3002,
  "Ġbanana": 3003,
  "Ġberries": 3004,
  "Ġang": 3005,
  "ĠSammy": 3006,
  "ĠSome": 3007,
  "owed": 3008,
  "orilla": 3009,
  "ina": 3010,
  "ependent": 3011,
  "eze": 3012,
  "dern": 3013,
  "Billy": 3014,
  "Ġtroubled": 3015,
  "Ġtriangle": 3016,
  "Ġthief": 3017,
  "Ġthick": 3018,
  "Ġsugar": 3019,
  "Ġstage": 3020,
  "Ġsearched": 3021,
  "Ġsailor": 3022,
  "Ġsink": 3023,
  "Ġresc": 3024,
  "Ġquit": 3025,
  "Ġpresent": 3026,
  "Ġpal": 3027,
  "Ġmodern": 3028,
  "Ġlog": 3029,
  "Ġlead": 3030,
  "Ġindependent": 3031,
  "Ġcreative": 3032,
  "Ġcoal": 3033,
  "Ġcauliflower": 3034,
  "Ġcop": 3035,
  "Ġbarber": 3036,
  "Ġbull": 3037,
  "Ġbin": 3038,
  "ĠWhile": 3039,
  "ĠBrown": 3040,
  "Ġicy": 3041,
  "read": 3042,
  "itter": 3043,
  "bble": 3044,
  "ator": 3045,
  "any": 3046,
  "Timmy": 3047,
  "Ġuniver": 3048,
  "Ġtaken": 3049,
  "Ġspread": 3050,
  "Ġsailed": 3051,
  "Ġpainted": 3052,
  "Ġpri": 3053,
  "Ġjolly": 3054,
  "Ġinvited": 3055,
  "Ġhears": 3056,
  "Ġgloomy": 3057,
  "Ġgym": 3058,
  "Ġgorilla": 3059,
  "Ġfork": 3060,
  "Ġengine": 3061,
  "Ġdive": 3062,
  "Ġcomput": 3063,
  "Ġanswered": 3064,
  "xious": 3065,
  "xe": 3066,
  "ither": 3067,
  "iness": 3068,
  "gu": 3069,
  "ground": 3070,
  "erc": 3071,
  "dle": 3072,
  "colate": 3073,
  "atch": 3074,
  "arming": 3075,
  "ado": 3076,
  "aff": 3077,
  "Go": 3078,
  "Every": 3079,
  "Ġwhip": 3080,
  "Ġstrawberry": 3081,
  "Ġstanding": 3082,
  "Ġspent": 3083,
  "Ġshape": 3084,
  "Ġscream": 3085,
  "Ġsauce": 3086,
  "Ġpant": 3087,
  "Ġmop": 3088,
  "Ġlose": 3089,
  "Ġknife": 3090,
  "Ġhive": 3091,
  "Ġguilty": 3092,
  "Ġflute": 3093,
  "Ġcleaning": 3094,
  "Ġchocolate": 3095,
  "Ġcharming": 3096,
  "Ġcher": 3097,
  "Ġboard": 3098,
  "Ġbatter": 3099,
  "Ġanxious": 3100,
  "Ġaxe": 3101,
  "ĠTrue": 3102,
  "ĠSn": 3103,
  "ubborn": 3104,
  "selves": 3105,
  "ser": 3106,
  "rage": 3107,
  "opl": 3108,
  "omes": 3109,
  "herman": 3110,
  "eropl": 3111,
  "cident": 3112,
  "attern": 3113,
  "als": 3114,
  "aving": 3115,
  "Mama": 3116,
  "Ġwhich": 3117,
  "Ġwashed": 3118,
  "Ġwaffle": 3119,
  "Ġuseful": 3120,
  "Ġtied": 3121,
  "Ġstubborn": 3122,
  "Ġsmaller": 3123,
  "Ġseeds": 3124,
  "Ġreturned": 3125,
  "Ġpalace": 3126,
  "Ġpattern": 3127,
  "Ġobject": 3128,
  "Ġimpr": 3129,
  "Ġhelps": 3130,
  "Ġfisherman": 3131,
  "Ġfilthy": 3132,
  "Ġfine": 3133,
  "Ġdecide": 3134,
  "Ġdull": 3135,
  "Ġcostume": 3136,
  "Ġcries": 3137,
  "Ġcone": 3138,
  "Ġboys": 3139,
  "Ġburn": 3140,
  "Ġangel": 3141,
  "Ġaeropl": 3142,
  "zzy": 3143,
  "ulb": 3144,
  "most": 3145,
  "irpy": 3146,
  "inocer": 3147,
  "inoceros": 3148,
  "ilt": 3149,
  "ament": 3150,
  "Jane": 3151,
  "Ġvalu": 3152,
  "Ġtaught": 3153,
  "Ġtun": 3154,
  "Ġtimes": 3155,
  "Ġtank": 3156,
  "Ġslipped": 3157,
  "Ġserious": 3158,
  "Ġsighed": 3159,
  "Ġrhinoceros": 3160,
  "Ġraft": 3161,
  "Ġpants": 3162,
  "Ġpump": 3163,
  "Ġnapkin": 3164,
  "Ġmachine": 3165,
  "Ġlifted": 3166,
  "Ġlearning": 3167,
  "Ġlaughs": 3168,
  "Ġhomes": 3169,
  "Ġexerc": 3170,
  "Ġcreate": 3171,
  "Ġcastles": 3172,
  "Ġbored": 3173,
  "Ġaeroplane": 3174,
  "Ġaunt": 3175,
  "ĠPoppy": 3176,
  "ĠMany": 3177,
  "ragile": 3178,
  "orry": 3179,
  "oc": 3180,
  "nament": 3181,
  "isted": 3182,
  "inky": 3183,
  "iddle": 3184,
  "esday": 3185,
  "anged": 3186,
  "aged": 3187,
  "Ġwishes": 3188,
  "Ġvaluable": 3189,
  "Ġthankful": 3190,
  "Ġspilled": 3191,
  "Ġshoot": 3192,
  "Ġshore": 3193,
  "Ġscr": 3194,
  "Ġpoem": 3195,
  "Ġpasta": 3196,
  "Ġornament": 3197,
  "Ġmakeup": 3198,
  "Ġloudly": 3199,
  "Ġlotion": 3200,
  "Ġhunter": 3201,
  "Ġgrand": 3202,
  "Ġgoose": 3203,
  "Ġgar": 3204,
  "Ġforward": 3205,
  "Ġfearful": 3206,
  "Ġfool": 3207,
  "Ġexploring": 3208,
  "Ġdrop": 3209,
  "Ġcushion": 3210,
  "Ġcrawled": 3211,
  "Ġcounting": 3212,
  "Ġcomple": 3213,
  "Ġchoose": 3214,
  "Ġalmost": 3215,
  "Ġaccident": 3216,
  "ĠNo": 3217,
  "ĠBuzz": 3218,
  "useum": 3219,
  "rin": 3220,
  "opter": 3221,
  "icopter": 3222,
  "ipper": 3223,
  "appy": 3224,
  "Give": 3225,
  "Fluffy": 3226,
  "Ġwand": 3227,
  "Ġwool": 3228,
  "Ġur": 3229,
  "Ġthirsty": 3230,
  "Ġtire": 3231,
  "Ġstones": 3232,
  "Ġspotted": 3233,
  "Ġspace": 3234,
  "Ġsolve": 3235,
  "Ġshowing": 3236,
  "Ġscatter": 3237,
  "Ġpopcorn": 3238,
  "Ġplayful": 3239,
  "Ġmovie": 3240,
  "Ġmeadow": 3241,
  "Ġmushroom": 3242,
  "Ġmuseum": 3243,
  "Ġlocked": 3244,
  "Ġjeep": 3245,
  "Ġimpress": 3246,
  "Ġhelicopter": 3247,
  "Ġfoolish": 3248,
  "Ġfragile": 3249,
  "Ġdove": 3250,
  "Ġdiary": 3251,
  "Ġdecorate": 3252,
  "Ġcompet": 3253,
  "Ġcomfortable": 3254,
  "Ġchanged": 3255,
  "Ġbuilt": 3256,
  "Ġbottom": 3257,
  "Ġbulb": 3258,
  "Ġattic": 3259,
  "ĠSpike": 3260,
  "ĠJazz": 3261,
  "ĠBird": 3262,
  "ĠU": 3263,
  "yal": 3264,
  "weet": 3265,
  "rible": 3266,
  "pron": 3267,
  "port": 3268,
  "pack": 3269,
  "ionary": 3270,
  "ictionary": 3271,
  "If": 3272,
  "Ġwife": 3273,
  "Ġvide": 3274,
  "Ġteeth": 3275,
  "Ġter": 3276,
  "Ġswinging": 3277,
  "Ġsle": 3278,
  "Ġsil": 3279,
  "Ġroar": 3280,
  "Ġrecord": 3281,
  "Ġpersist": 3282,
  "Ġmiddle": 3283,
  "Ġmel": 3284,
  "Ġmap": 3285,
  "Ġloyal": 3286,
  "Ġlicked": 3287,
  "Ġlow": 3288,
  "Ġkissed": 3289,
  "Ġjoined": 3290,
  "Ġhappiness": 3291,
  "Ġgasp": 3292,
  "Ġforth": 3293,
  "Ġfinding": 3294,
  "Ġdelight": 3295,
  "Ġdictionary": 3296,
  "Ġcomputer": 3297,
  "Ġcompass": 3298,
  "Ġcase": 3299,
  "Ġbubbles": 3300,
  "Ġbelonged": 3301,
  "Ġapron": 3302,
  "ĠChirpy": 3303,
  "ĠAndy": 3304,
  "umsy": 3305,
  "ray": 3306,
  "ext": 3307,
  "ention": 3308,
  "celet": 3309,
  "cut": 3310,
  "Ġsung": 3311,
  "Ġstronger": 3312,
  "Ġshiver": 3313,
  "Ġrubber": 3314,
  "Ġraven": 3315,
  "Ġpopular": 3316,
  "Ġpainter": 3317,
  "Ġpackage": 3318,
  "Ġmixed": 3319,
  "Ġmarch": 3320,
  "Ġmug": 3321,
  "Ġlively": 3322,
  "Ġlawn": 3323,
  "Ġlabel": 3324,
  "Ġimpressive": 3325,
  "Ġharsh": 3326,
  "Ġglowing": 3327,
  "Ġgiving": 3328,
  "Ġgarage": 3329,
  "Ġfog": 3330,
  "Ġfig": 3331,
  "Ġeventually": 3332,
  "Ġdisturb": 3333,
  "Ġdepend": 3334,
  "Ġcompassion": 3335,
  "Ġclumsy": 3336,
  "Ġbracelet": 3337,
  "ĠToday": 3338,
  "ĠBill": 3339,
  "ying": 3340,
  "opus": 3341,
  "nel": 3342,
  "lass": 3343,
  "lasses": 3344,
  "iew": 3345,
  "ctus": 3346,
  "ctopus": 3347,
  "apped": 3348,
  "Ġyarn": 3349,
  "Ġview": 3350,
  "Ġterrible": 3351,
  "Ġtele": 3352,
  "Ġtick": 3353,
  "Ġsunglasses": 3354,
  "Ġstack": 3355,
  "Ġspeed": 3356,
  "Ġspend": 3357,
  "Ġsnee": 3358,
  "Ġskip": 3359,
  "Ġregular": 3360,
  "Ġraced": 3361,
  "Ġoctopus": 3362,
  "Ġmodel": 3363,
  "Ġmarry": 3364,
  "Ġmanaged": 3365,
  "Ġleash": 3366,
  "Ġknows": 3367,
  "Ġhalf": 3368,
  "Ġfalls": 3369,
  "Ġexciting": 3370,
  "Ġexcite": 3371,
  "Ġdeliver": 3372,
  "Ġdeaf": 3373,
  "Ġcactus": 3374,
  "Ġbald": 3375,
  "Ġadd": 3376,
  "ĠJess": 3377,
  "ĠEllie": 3378,
  "ĠAl": 3379,
  "uth": 3380,
  "lcan": 3381,
  "light": 3382,
  "etle": 3383,
  "Ġvolcan": 3384,
  "Ġtunnel": 3385,
  "Ġtruth": 3386,
  "Ġtomato": 3387,
  "Ġstat": 3388,
  "Ġstaff": 3389,
  "Ġslept": 3390,
  "Ġskin": 3391,
  "Ġshark": 3392,
  "Ġquestion": 3393,
  "Ġprunes": 3394,
  "Ġoyster": 3395,
  "Ġnod": 3396,
  "Ġmis": 3397,
  "Ġmill": 3398,
  "Ġhurts": 3399,
  "Ġflash": 3400,
  "Ġfour": 3401,
  "Ġexercise": 3402,
  "Ġcooked": 3403,
  "Ġcheap": 3404,
  "Ġbeetle": 3405,
  "Ġap": 3406,
  "ĠSnow": 3407,
  "ĠOK": 3408,
  "ygen": 3409,
  "xygen": 3410,
  "urkey": 3411,
  "rick": 3412,
  "rn": 3413,
  "ours": 3414,
  "istol": 3415,
  "ately": 3416,
  "Who": 3417,
  "Ġweigh": 3418,
  "Ġvolcano": 3419,
  "Ġtowers": 3420,
  "Ġtorn": 3421,
  "Ġtem": 3422,
  "Ġtip": 3423,
  "Ġtask": 3424,
  "Ġswe": 3425,
  "Ġsupport": 3426,
  "Ġstretch": 3427,
  "Ġstatue": 3428,
  "Ġspear": 3429,
  "Ġsleeping": 3430,
  "Ġscrew": 3431,
  "Ġpumpkin": 3432,
  "Ġphoto": 3433,
  "Ġpersistent": 3434,
  "Ġpistol": 3435,
  "Ġorganized": 3436,
  "Ġok": 3437,
  "Ġmeant": 3438,
  "Ġlying": 3439,
  "Ġjunk": 3440,
  "Ġimprove": 3441,
  "Ġhandle": 3442,
  "Ġgoat": 3443,
  "Ġfloat": 3444,
  "Ġfather": 3445,
  "Ġenv": 3446,
  "Ġcompetit": 3447,
  "Ġcompassionate": 3448,
  "Ġceiling": 3449,
  "Ġboxes": 3450,
  "Ġbrick": 3451,
  "Ġador": 3452,
  "Ġacce": 3453,
  "ĠWigg": 3454,
  "ĠMum": 3455,
  "xible": 3456,
  "roph": 3457,
  "rophone": 3458,
  "llip": 3459,
  "llipop": 3460,
  "lend": 3461,
  "lace": 3462,
  "ippo": 3463,
  "ik": 3464,
  "erce": 3465,
  "angu": 3466,
  "Sorry": 3467,
  "Mummy": 3468,
  "Ġyogurt": 3469,
  "Ġword": 3470,
  "Ġwheels": 3471,
  "Ġwalls": 3472,
  "Ġwaves": 3473,
  "Ġwander": 3474,
  "Ġvi": 3475,
  "Ġunlock": 3476,
  "Ġtwig": 3477,
  "Ġsuccessful": 3478,
  "Ġstation": 3479,
  "Ġstairs": 3480,
  "Ġsoar": 3481,
  "Ġsniff": 3482,
  "Ġsett": 3483,
  "Ġrake": 3484,
  "Ġpassed": 3485,
  "Ġnuts": 3486,
  "Ġnods": 3487,
  "Ġnecklace": 3488,
  "Ġmicrophone": 3489,
  "Ġmath": 3490,
  "Ġlouder": 3491,
  "Ġlollipop": 3492,
  "Ġlean": 3493,
  "Ġlit": 3494,
  "Ġlangu": 3495,
  "Ġhippo": 3496,
  "Ġgum": 3497,
  "Ġflexible": 3498,
  "Ġfigure": 3499,
  "Ġfierce": 3500,
  "Ġdependable": 3501,
  "Ġcompl": 3502,
  "Ġclown": 3503,
  "Ġbump": 3504,
  "Ġbitter": 3505,
  "Ġadorable": 3506,
  "ĠZoom": 3507,
  "ĠPeople": 3508,
  "ĠMummy": 3509,
  "zed": 3510,
  "velope": 3511,
  "ubby": 3512,
  "pa": 3513,
  "ores": 3514,
  "body": 3515,
  "berries": 3516,
  "asing": 3517,
  "Where": 3518,
  "Ġwheat": 3519,
  "Ġwealthy": 3520,
  "Ġways": 3521,
  "Ġwalks": 3522,
  "Ġvideo": 3523,
  "Ġtrains": 3524,
  "Ġtaller": 3525,
  "Ġturkey": 3526,
  "Ġsne": 3527,
  "Ġshows": 3528,
  "Ġshut": 3529,
  "Ġshine": 3530,
  "Ġruined": 3531,
  "Ġrode": 3532,
  "Ġroot": 3533,
  "Ġrescue": 3534,
  "Ġpracticed": 3535,
  "Ġnosy": 3536,
  "Ġnetwork": 3537,
  "Ġneighbor": 3538,
  "Ġneedle": 3539,
  "Ġmissile": 3540,
  "Ġmailbox": 3541,
  "Ġlanguage": 3542,
  "Ġknob": 3543,
  "Ġhelpless": 3544,
  "Ġheal": 3545,
  "Ġharder": 3546,
  "Ġguard": 3547,
  "Ġgas": 3548,
  "Ġexam": 3549,
  "Ġenvelope": 3550,
  "Ġenc": 3551,
  "Ġdeer": 3552,
  "Ġcreature": 3553,
  "Ġcooking": 3554,
  "Ġcomplet": 3555,
  "Ġchubby": 3556,
  "Ġbranches": 3557,
  "Ġbarrel": 3558,
  "Ġbill": 3559,
  "Ġavoc": 3560,
  "Ġalert": 3561,
  "ĠOw": 3562,
  "ĠMrs": 3563,
  "ĠHere": 3564,
  "ĠGive": 3565,
  "ĠFro": 3566,
  "ymbo": 3567,
  "ymbol": 3568,
  "und": 3569,
  "ream": 3570,
  "lendar": 3571,
  "lph": 3572,
  "ilet": 3573,
  "igi": 3574,
  "ippy": 3575,
  "ebra": 3576,
  "cles": 3577,
  "arrel": 3578,
  "anut": 3579,
  "amera": 3580,
  "aky": 3581,
  "aid": 3582,
  "Jim": 3583,
  "Ġzebra": 3584,
  "Ġyet": 3585,
  "Ġwhispered": 3586,
  "Ġtooth": 3587,
  "Ġtoilet": 3588,
  "Ġthinking": 3589,
  "Ġten": 3590,
  "Ġstared": 3591,
  "Ġsplit": 3592,
  "Ġskull": 3593,
  "Ġshort": 3594,
  "Ġshade": 3595,
  "Ġscoot": 3596,
  "Ġsymbol": 3597,
  "Ġsight": 3598,
  "Ġrealised": 3599,
  "Ġquarrel": 3600,
  "Ġpurse": 3601,
  "Ġpainting": 3602,
  "Ġopens": 3603,
  "Ġmeat": 3604,
  "Ġmot": 3605,
  "Ġleaving": 3606,
  "Ġhaircut": 3607,
  "Ġham": 3608,
  "Ġgifted": 3609,
  "Ġgasped": 3610,
  "Ġfluffy": 3611,
  "Ġexplained": 3612,
  "Ġexcitement": 3613,
  "Ġears": 3614,
  "Ġdreams": 3615,
  "Ġdolph": 3616,
  "Ġcompetitive": 3617,
  "Ġcarp": 3618,
  "Ġcabinet": 3619,
  "Ġcalendar": 3620,
  "Ġcamera": 3621,
  "ĠSandy": 3622,
  "ĠRose": 3623,
  "ĠRo": 3624,
  "ĠFreddy": 3625,
  "ĠBet": 3626,
  "ubway": 3627,
  "uby": 3628,
  "time": 3629,
  "ote": 3630,
  "oin": 3631,
  "ines": 3632,
  "ilot": 3633,
  "ience": 3634,
  "htub": 3635,
  "ceed": 3636,
  "arl": 3637,
  "ailable": 3638,
  "Is": 3639,
  "Ġwhenever": 3640,
  "Ġvase": 3641,
  "Ġtrash": 3642,
  "Ġtemple": 3643,
  "Ġtease": 3644,
  "Ġtag": 3645,
  "Ġsunset": 3646,
  "Ġshoe": 3647,
  "Ġscreen": 3648,
  "Ġsaying": 3649,
  "Ġsafely": 3650,
  "Ġsubway": 3651,
  "Ġson": 3652,
  "Ġrushed": 3653,
  "Ġprov": 3654,
  "Ġpus": 3655,
  "Ġorganize": 3656,
  "Ġobser": 3657,
  "Ġherb": 3658,
  "Ġfeathers": 3659,
  "Ġeye": 3660,
  "Ġenvious": 3661,
  "Ġenjoying": 3662,
  "Ġdeter": 3663,
  "Ġcricket": 3664,
  "Ġcrib": 3665,
  "Ġchores": 3666,
  "Ġchain": 3667,
  "Ġcob": 3668,
  "Ġcell": 3669,
  "Ġbury": 3670,
  "Ġbathrobe": 3671,
  "Ġbathtub": 3672,
  "Ġavailable": 3673,
  "ĠYour": 3674,
  "Ġed": 3675,
  "umb": 3676,
  "stairs": 3677,
  "ory": 3678,
  "loo": 3679,
  "ision": 3680,
  "iki": 3681,
  "iding": 3682,
  "iano": 3683,
  "head": 3684,
  "aspoon": 3685,
  "There": 3686,
  "Mr": 3687,
  "Me": 3688,
  "Little": 3689,
  "Bobo": 3690,
  "Ġwrote": 3691,
  "Ġunpack": 3692,
  "Ġtrap": 3693,
  "Ġtray": 3694,
  "Ġteaspoon": 3695,
  "Ġswitch": 3696,
  "Ġstickers": 3697,
  "Ġslides": 3698,
  "Ġshopkeeper": 3699,
  "Ġsheet": 3700,
  "Ġrepe": 3701,
  "Ġrep": 3702,
  "Ġpointing": 3703,
  "Ġparrot": 3704,
  "Ġnotice": 3705,
  "Ġneeds": 3706,
  "Ġnail": 3707,
  "Ġmeans": 3708,
  "Ġmild": 3709,
  "Ġled": 3710,
  "Ġknock": 3711,
  "Ġkindness": 3712,
  "Ġhappening": 3713,
  "Ġgiraffe": 3714,
  "Ġflashlight": 3715,
  "Ġfalling": 3716,
  "Ġfountain": 3717,
  "Ġeither": 3718,
  "Ġdrawer": 3719,
  "Ġdisappeared": 3720,
  "Ġdeterm": 3721,
  "Ġdesign": 3722,
  "Ġdare": 3723,
  "Ġchess": 3724,
  "Ġcarpet": 3725,
  "Ġcord": 3726,
  "Ġborrow": 3727,
  "Ġbillboard": 3728,
  "ĠSpark": 3729,
  "ye": 3730,
  "iches": 3731,
  "essert": 3732,
  "erable": 3733,
  "cean": 3734,
  "Ġwiped": 3735,
  "Ġweek": 3736,
  "Ġunite": 3737,
  "Ġtricks": 3738,
  "Ġtoe": 3739,
  "Ġsucceed": 3740,
  "Ġstable": 3741,
  "Ġsoldier": 3742,
  "Ġshocked": 3743,
  "Ġsandwiches": 3744,
  "Ġske": 3745,
  "Ġrise": 3746,
  "Ġplayground": 3747,
  "Ġpebble": 3748,
  "Ġpale": 3749,
  "Ġpilot": 3750,
  "Ġocean": 3751,
  "Ġmiserable": 3752,
  "Ġmelon": 3753,
  "Ġmay": 3754,
  "Ġlend": 3755,
  "Ġjet": 3756,
  "Ġgem": 3757,
  "Ġencou": 3758,
  "Ġearth": 3759,
  "Ġdisappoin": 3760,
  "Ġdisappear": 3761,
  "Ġdelicate": 3762,
  "Ġdancer": 3763,
  "Ġdessert": 3764,
  "Ġcable": 3765,
  "Ġbushes": 3766,
  "Ġbikes": 3767,
  "Ġbiggest": 3768,
  "ĠTweet": 3769,
  "ĠMiss": 3770,
  "Ġow": 3771,
  "usie": 3772,
  "uring": 3773,
  "ourite": 3774,
  "otter": 3775,
  "leton": 3776,
  "low": 3777,
  "hip": 3778,
  "cream": 3779,
  "apon": 3780,
  "anda": 3781,
  "Their": 3782,
  "?\".": 3783,
  "Ġweapon": 3784,
  "Ġvalue": 3785,
  "Ġtrack": 3786,
  "Ġtummy": 3787,
  "Ġswung": 3788,
  "Ġstud": 3789,
  "Ġspoke": 3790,
  "Ġspun": 3791,
  "Ġskeleton": 3792,
  "Ġshovel": 3793,
  "Ġpoke": 3794,
  "Ġpiano": 3795,
  "Ġoften": 3796,
  "Ġnicely": 3797,
  "Ġmusician": 3798,
  "Ġmuff": 3799,
  "Ġitself": 3800,
  "Ġhut": 3801,
  "Ġfriendship": 3802,
  "Ġflea": 3803,
  "Ġfavourite": 3804,
  "Ġfastest": 3805,
  "Ġclub": 3806,
  "Ġcity": 3807,
  "Ġbattery": 3808,
  "Ġbags": 3809,
  "Ġbent": 3810,
  "ĠSh": 3811,
  "ĠPrin": 3812,
  "ĠKim": 3813,
  "Ġotter": 3814,
  "wards": 3815,
  "utes": 3816,
  "ummer": 3817,
  "sity": 3818,
  "rmomet": 3819,
  "rmometer": 3820,
  "leased": 3821,
  "imney": 3822,
  "guin": 3823,
  "ero": 3824,
  "ement": 3825,
  "chan": 3826,
  "chair": 3827,
  "ckey": 3828,
  "arry": 3829,
  "ait": 3830,
  "Ġviol": 3831,
  "Ġtrail": 3832,
  "Ġthermometer": 3833,
  "Ġtells": 3834,
  "Ġtears": 3835,
  "Ġteam": 3836,
  "Ġsuggest": 3837,
  "Ġsparkly": 3838,
  "Ġskipped": 3839,
  "Ġserve": 3840,
  "Ġreminded": 3841,
  "Ġref": 3842,
  "Ġrag": 3843,
  "Ġpenguin": 3844,
  "Ġpir": 3845,
  "Ġminutes": 3846,
  "Ġmem": 3847,
  "Ġmitten": 3848,
  "Ġload": 3849,
  "Ġjumps": 3850,
  "Ġjuicy": 3851,
  "Ġhockey": 3852,
  "Ġheat": 3853,
  "Ġgrown": 3854,
  "Ġgroup": 3855,
  "Ġgiggled": 3856,
  "Ġgear": 3857,
  "Ġfinds": 3858,
  "Ġedge": 3859,
  "Ġdolphin": 3860,
  "Ġdisappointed": 3861,
  "Ġdetermined": 3862,
  "Ġcube": 3863,
  "Ġclimbing": 3864,
  "Ġcliff": 3865,
  "Ġchimney": 3866,
  "Ġblackboard": 3867,
  "ĠWill": 3868,
  "ĠJimmy": 3869,
  "ĠGigi": 3870,
  "ĠBuzzy": 3871,
  "ĠAre": 3872,
  "zag": 3873,
  "usia": 3874,
  "ulance": 3875,
  "ressed": 3876,
  "ony": 3877,
  "igzag": 3878,
  "husia": 3879,
  "fa": 3880,
  "ents": 3881,
  "coa": 3882,
  "chanic": 3883,
  "cast": 3884,
  "bulance": 3885,
  "apers": 3886,
  "Wait": 3887,
  "Ouch": 3888,
  "'d": 3889,
  "Ġviolin": 3890,
  "Ġtripped": 3891,
  "Ġtub": 3892,
  "Ġskirt": 3893,
  "Ġsearching": 3894,
  "Ġsandcast": 3895,
  "Ġreward": 3896,
  "Ġrefused": 3897,
  "Ġquestions": 3898,
  "Ġquiz": 3899,
  "Ġpractice": 3900,
  "Ġpopped": 3901,
  "Ġpee": 3902,
  "Ġpeanut": 3903,
  "Ġpeach": 3904,
  "Ġpun": 3905,
  "Ġorder": 3906,
  "Ġneat": 3907,
  "Ġmechanic": 3908,
  "Ġmelt": 3909,
  "Ġlip": 3910,
  "Ġjam": 3911,
  "Ġhelper": 3912,
  "Ġhate": 3913,
  "Ġhappier": 3914,
  "Ġhanging": 3915,
  "Ġgrace": 3916,
  "Ġevening": 3917,
  "Ġenthusia": 3918,
  "Ġdreaming": 3919,
  "Ġdrawings": 3920,
  "Ġdesk": 3921,
  "Ġcrazy": 3922,
  "Ġcows": 3923,
  "Ġcheerful": 3924,
  "Ġcardboard": 3925,
  "Ġbathe": 3926,
  "Ġbananas": 3927,
  "Ġavocado": 3928,
  "Ġambulance": 3929,
  "ĠOr": 3930,
  "ĠKiki": 3931,
  "vision": 3932,
  "render": 3933,
  "par": 3934,
  "nger": 3935,
  "met": 3936,
  "ging": 3937,
  "dge": 3938,
  "bby": 3939,
  "ature": 3940,
  "ana": 3941,
  "aul": 3942,
  "Your": 3943,
  "Ġyield": 3944,
  "Ġwire": 3945,
  "Ġwine": 3946,
  "Ġtelevision": 3947,
  "Ġtide": 3948,
  "Ġstream": 3949,
  "Ġsty": 3950,
  "Ġspeak": 3951,
  "Ġsport": 3952,
  "Ġsofa": 3953,
  "Ġsandcastle": 3954,
  "Ġsalt": 3955,
  "Ġsend": 3956,
  "Ġrubbed": 3957,
  "Ġrolling": 3958,
  "Ġpressed": 3959,
  "Ġpicking": 3960,
  "Ġonion": 3961,
  "Ġonce": 3962,
  "Ġoxygen": 3963,
  "Ġmistakes": 3964,
  "Ġmissing": 3965,
  "Ġmessage": 3966,
  "Ġmedal": 3967,
  "Ġlights": 3968,
  "Ġlibr": 3969,
  "Ġlawy": 3970,
  "Ġincre": 3971,
  "Ġimpressed": 3972,
  "Ġhelmet": 3973,
  "Ġhours": 3974,
  "Ġgrowl": 3975,
  "Ġgrill": 3976,
  "Ġgaz": 3977,
  "Ġfirework": 3978,
  "Ġfile": 3979,
  "Ġearly": 3980,
  "Ġdistant": 3981,
  "Ġcomplete": 3982,
  "Ġcomplain": 3983,
  "Ġcocoa": 3984,
  "Ġcandle": 3985,
  "Ġcamp": 3986,
  "Ġboot": 3987,
  "Ġbedroom": 3988,
  "Ġbicy": 3989,
  "Ġarmchair": 3990,
  "Ġabove": 3991,
  "Ġaw": 3992,
  "ĠZoomy": 3993,
  "ĠZip": 3994,
  "ĠSof": 3995,
  "ĠSusie": 3996,
  "ĠPipp": 3997,
  "ĠPeter": 3998,
  "vator": 3999,
  "urtain": 4000,
  "undry": 4001,
  "ulu": 4002,
  "ses": 4003,
  "ric": 4004,
  "ouses": 4005,
  "ophie": 4006,
  "ination": 4007,
  "hest": 4008,
  "coli": 4009,
  "ccoli": 4010,
  "aked": 4011,
  "Re": 4012,
  "Ow": 4013,
  "Gra": 4014,
  "Ġuniversity": 4015,
  "Ġticket": 4016,
  "Ġthemselves": 4017,
  "Ġthose": 4018,
  "Ġtelling": 4019,
  "Ġsteel": 4020,
  "Ġstom": 4021,
  "Ġspinning": 4022,
  "Ġspade": 4023,
  "Ġshrink": 4024,
  "Ġscooter": 4025,
  "Ġsaving": 4026,
  "Ġrepeat": 4027,
  "Ġrepair": 4028,
  "Ġproblems": 4029,
  "Ġpoint": 4030,
  "Ġpost": 4031,
  "Ġpinch": 4032,
  "Ġpastry": 4033,
  "Ġpanda": 4034,
  "Ġoil": 4035,
  "Ġmeal": 4036,
  "Ġmaze": 4037,
  "Ġmen": 4038,
  "Ġlibrary": 4039,
  "Ġlie": 4040,
  "Ġlaundry": 4041,
  "Ġlid": 4042,
  "Ġkne": 4043,
  "Ġitch": 4044,
  "Ġhotel": 4045,
  "Ġhouses": 4046,
  "Ġgolf": 4047,
  "Ġgets": 4048,
  "Ġfilm": 4049,
  "Ġfought": 4050,
  "Ġelevator": 4051,
  "Ġdriving": 4052,
  "Ġdishes": 4053,
  "Ġcourage": 4054,
  "Ġcontent": 4055,
  "Ġcurtain": 4056,
  "Ġattach": 4057,
  "Ġart": 4058,
  "Ġadmire": 4059,
  "ĠWiggly": 4060,
  "ĠRob": 4061,
  "ĠIs": 4062,
  "ĠY": 4063,
  "ĠV": 4064,
  "ured": 4065,
  "ugged": 4066,
  "under": 4067,
  "uesday": 4068,
  "stic": 4069,
  "rank": 4070,
  "iron": 4071,
  "igent": 4072,
  "fast": 4073,
  "ete": 4074,
  "elligent": 4075,
  "edy": 4076,
  "ecause": 4077,
  "aurant": 4078,
  "alley": 4079,
  "Mimi": 4080,
  "Em": 4081,
  "Bye": 4082,
  "Al": 4083,
  "Ġwindows": 4084,
  "Ġwinter": 4085,
  "Ġwhale": 4086,
  "Ġweight": 4087,
  "Ġthunder": 4088,
  "Ġsurrender": 4089,
  "Ġsquirrels": 4090,
  "Ġsounded": 4091,
  "Ġshaking": 4092,
  "Ġseem": 4093,
  "Ġscale": 4094,
  "Ġrestless": 4095,
  "Ġrestaurant": 4096,
  "Ġreading": 4097,
  "Ġrece": 4098,
  "Ġrot": 4099,
  "Ġriding": 4100,
  "Ġprice": 4101,
  "Ġpoked": 4102,
  "Ġolder": 4103,
  "Ġoak": 4104,
  "Ġnur": 4105,
  "Ġlions": 4106,
  "Ġlawyer": 4107,
  "Ġinvite": 4108,
  "Ġintelligent": 4109,
  "Ġhurry": 4110,
  "Ġholes": 4111,
  "Ġheads": 4112,
  "Ġhen": 4113,
  "Ġhanded": 4114,
  "Ġgrapes": 4115,
  "Ġgathered": 4116,
  "Ġgain": 4117,
  "Ġforgave": 4118,
  "Ġenthusiastic": 4119,
  "Ġdoors": 4120,
  "Ġcomfort": 4121,
  "Ġcherries": 4122,
  "Ġcalling": 4123,
  "Ġbreakfast": 4124,
  "Ġbounced": 4125,
  "Ġbicycle": 4126,
  "Ġbandage": 4127,
  "ĠTuesday": 4128,
  "web": 4129,
  "stiv": 4130,
  "stival": 4131,
  "omed": 4132,
  "oved": 4133,
  "lies": 4134,
  "ipping": 4135,
  "cage": 4136,
  "atient": 4137,
  "aring": 4138,
  "agre": 4139,
  "acket": 4140,
  "ache": 4141,
  "Jimmy": 4142,
  "Jill": 4143,
  "Ġwrapped": 4144,
  "Ġwarn": 4145,
  "Ġvalley": 4146,
  "Ġtools": 4147,
  "Ġspoil": 4148,
  "Ġsnail": 4149,
  "Ġslip": 4150,
  "Ġsilver": 4151,
  "Ġshadow": 4152,
  "Ġroared": 4153,
  "Ġremove": 4154,
  "Ġpuddles": 4155,
  "Ġprep": 4156,
  "Ġpole": 4157,
  "Ġparade": 4158,
  "Ġpair": 4159,
  "Ġpapers": 4160,
  "Ġpage": 4161,
  "Ġnurse": 4162,
  "Ġnature": 4163,
  "Ġnation": 4164,
  "Ġletters": 4165,
  "Ġimpatient": 4166,
  "Ġimagine": 4167,
  "Ġhedge": 4168,
  "Ġgrabs": 4169,
  "Ġfestival": 4170,
  "Ġdiscovered": 4171,
  "Ġdisagre": 4172,
  "Ġdra": 4173,
  "Ġcobweb": 4174,
  "Ġcoins": 4175,
  "Ġcheck": 4176,
  "Ġcere": 4177,
  "Ġcarrying": 4178,
  "Ġbroccoli": 4179,
  "Ġbreaks": 4180,
  "Ġbirdcage": 4181,
  "Ġarg": 4182,
  "Ġallowed": 4183,
  "Ġagainst": 4184,
  "ĠZoe": 4185,
  "ĠPolly": 4186,
  "ĠMar": 4187,
  "ĠFinny": 4188,
  "ĠEverywhere": 4189,
  "ĠEventually": 4190,
  "uper": 4191,
  "rod": 4192,
  "ndor": 4193,
  "nal": 4194,
  "ison": 4195,
  "icle": 4196,
  "ggy": 4197,
  "ating": 4198,
  "ates": 4199,
  "anges": 4200,
  "Woof": 4201,
  "Joe": 4202,
  "Daddy": 4203,
  "Ġzipper": 4204,
  "Ġyaw": 4205,
  "Ġvendor": 4206,
  "Ġvine": 4207,
  "Ġthrows": 4208,
  "Ġsweater": 4209,
  "Ġstyle": 4210,
  "Ġsticky": 4211,
  "Ġsorting": 4212,
  "Ġsepar": 4213,
  "Ġsandbox": 4214,
  "Ġsuper": 4215,
  "Ġsize": 4216,
  "Ġpoems": 4217,
  "Ġperfume": 4218,
  "Ġport": 4219,
  "Ġpine": 4220,
  "Ġmotor": 4221,
  "Ġkinds": 4222,
  "Ġjournal": 4223,
  "Ġjail": 4224,
  "Ġjacket": 4225,
  "Ġins": 4226,
  "Ġhurric": 4227,
  "Ġharbor": 4228,
  "Ġhammer": 4229,
  "Ġhanger": 4230,
  "Ġfrowned": 4231,
  "Ġfrogs": 4232,
  "Ġfive": 4233,
  "Ġexplain": 4234,
  "Ġdreamed": 4235,
  "Ġdem": 4236,
  "Ġcolour": 4237,
  "Ġcheek": 4238,
  "Ġchose": 4239,
  "Ġcaring": 4240,
  "Ġcane": 4241,
  "Ġalarm": 4242,
  "ĠRuby": 4243,
  "ĠOwl": 4244,
  "ĠLulu": 4245,
  "year": 4246,
  "verse": 4247,
  "umpet": 4248,
  "umbled": 4249,
  "ready": 4250,
  "olog": 4251,
  "night": 4252,
  "laud": 4253,
  "lp": 4254,
  "loe": 4255,
  "helf": 4256,
  "heart": 4257,
  "ffic": 4258,
  "chor": 4259,
  "astic": 4260,
  "arlie": 4261,
  "Did": 4262,
  ",âĢĿ": 4263,
  "'ve": 4264,
  "Ġweep": 4265,
  "Ġwallet": 4266,
  "Ġtrunk": 4267,
  "Ġtrumpet": 4268,
  "Ġtoast": 4269,
  "Ġstretched": 4270,
  "Ġstomach": 4271,
  "Ġstirred": 4272,
  "Ġshakes": 4273,
  "Ġsettle": 4274,
  "Ġsummer": 4275,
  "Ġsudden": 4276,
  "Ġremain": 4277,
  "Ġrail": 4278,
  "Ġprayed": 4279,
  "Ġperm": 4280,
  "Ġparent": 4281,
  "Ġmetal": 4282,
  "Ġmarched": 4283,
  "Ġmailman": 4284,
  "Ġmention": 4285,
  "Ġlistening": 4286,
  "Ġkingdom": 4287,
  "Ġintrod": 4288,
  "Ġinse": 4289,
  "Ġink": 4290,
  "Ġignored": 4291,
  "Ġhurricane": 4292,
  "Ġholds": 4293,
  "Ġgraceful": 4294,
  "Ġgrape": 4295,
  "Ġfireman": 4296,
  "Ġdistance": 4297,
  "Ġcooler": 4298,
  "Ġcomf": 4299,
  "Ġchickens": 4300,
  "Ġchecked": 4301,
  "Ġcereal": 4302,
  "Ġcur": 4303,
  "Ġbookshelf": 4304,
  "Ġblueberry": 4305,
  "Ġbasketball": 4306,
  "Ġbase": 4307,
  "Ġapolog": 4308,
  "Ġanyway": 4309,
  "Ġanchor": 4310,
  "Ġalready": 4311,
  "Ġalive": 4312,
  "Ġairport": 4313,
  "Ġaccidentally": 4314,
  "Ġaccept": 4315,
  "Ġahead": 4316,
  "ĠSque": 4317,
  "ĠSm": 4318,
  "ĠPippin": 4319,
  "ĠPandy": 4320,
  "ĠHelp": 4321,
  "ĠBetty": 4322,
  "Ġiron": 4323,
  "sters": 4324,
  "lter": 4325,
  "gie": 4326,
  "bbon": 4327,
  "ampoo": 4328,
  "aggie": 4329,
  "aches": 4330,
  "Next": 4331,
  "Lisa": 4332,
  "Daisy": 4333,
  "Because": 4334,
  "==": 4335,
  "Ġyoga": 4336,
  "Ġwipe": 4337,
  "Ġwags": 4338,
  "Ġveh": 4339,
  "Ġtwisted": 4340,
  "Ġtour": 4341,
  "Ġsweetie": 4342,
  "Ġsweetheart": 4343,
  "Ġswamp": 4344,
  "Ġstrike": 4345,
  "Ġspots": 4346,
  "Ġsneeze": 4347,
  "Ġsnap": 4348,
  "Ġsmoke": 4349,
  "Ġshampoo": 4350,
  "Ġsent": 4351,
  "Ġribbon": 4352,
  "Ġrestore": 4353,
  "Ġresist": 4354,
  "Ġregret": 4355,
  "Ġpushes": 4356,
  "Ġprovide": 4357,
  "Ġproudly": 4358,
  "Ġpeeked": 4359,
  "Ġpacked": 4360,
  "Ġpitch": 4361,
  "Ġoffice": 4362,
  "Ġoffered": 4363,
  "Ġnobody": 4364,
  "Ġmystery": 4365,
  "Ġmuffin": 4366,
  "Ġmodest": 4367,
  "Ġmemory": 4368,
  "Ġmall": 4369,
  "Ġlick": 4370,
  "Ġleak": 4371,
  "Ġlime": 4372,
  "Ġkeeping": 4373,
  "Ġjewelry": 4374,
  "Ġignore": 4375,
  "Ġfreez": 4376,
  "Ġfro": 4377,
  "Ġfixing": 4378,
  "Ġdrain": 4379,
  "Ġdestroyed": 4380,
  "Ġdemand": 4381,
  "Ġdelighted": 4382,
  "Ġcub": 4383,
  "Ġcrossed": 4384,
  "Ġcountry": 4385,
  "Ġclassroom": 4386,
  "Ġcircles": 4387,
  "Ġcomet": 4388,
  "Ġbuttons": 4389,
  "Ġbuzz": 4390,
  "Ġbroom": 4391,
  "Ġbelongs": 4392,
  "Ġbelieved": 4393,
  "ĠLenny": 4394,
  "ĠJohnny": 4395,
  "ĠEnd": 4396,
  "vice": 4397,
  "utor": 4398,
  "urch": 4399,
  "ucet": 4400,
  "stal": 4401,
  "shion": 4402,
  "squ": 4403,
  "squit": 4404,
  "squito": 4405,
  "orch": 4406,
  "ophy": 4407,
  "na": 4408,
  "ittens": 4409,
  "imed": 4410,
  "iest": 4411,
  "eration": 4412,
  "ense": 4413,
  "ecture": 4414,
  "case": 4415,
  "ason": 4416,
  "Yay": 4417,
  "Well": 4418,
  "Not": 4419,
  "Mary": 4420,
  "Grandma": 4421,
  "!\".": 4422,
  "Ġzero": 4423,
  "Ġvroom": 4424,
  "Ġupstairs": 4425,
  "Ġuniverse": 4426,
  "Ġtrophy": 4427,
  "Ġtheater": 4428,
  "Ġthanks": 4429,
  "Ġtutor": 4430,
  "Ġstrip": 4431,
  "Ġstrawberries": 4432,
  "Ġstrugg": 4433,
  "Ġsteps": 4434,
  "Ġsomewhere": 4435,
  "Ġsniffed": 4436,
  "Ġsliding": 4437,
  "Ġshouts": 4438,
  "Ġshelter": 4439,
  "Ġseparate": 4440,
  "Ġrush": 4441,
  "Ġprevent": 4442,
  "Ġpolish": 4443,
  "Ġpoison": 4444,
  "Ġplastic": 4445,
  "Ġpirate": 4446,
  "Ġpetals": 4447,
  "Ġporch": 4448,
  "Ġpony": 4449,
  "Ġpages": 4450,
  "Ġoperation": 4451,
  "Ġobserve": 4452,
  "Ġmosquito": 4453,
  "Ġmass": 4454,
  "Ġlecture": 4455,
  "Ġlamp": 4456,
  "Ġkneel": 4457,
  "Ġinsect": 4458,
  "Ġincl": 4459,
  "Ġimage": 4460,
  "Ġgrowing": 4461,
  "Ġgro": 4462,
  "Ġfreezer": 4463,
  "Ġfingers": 4464,
  "Ġfamil": 4465,
  "Ġfaucet": 4466,
  "Ġfashion": 4467,
  "Ġdoesn": 4468,
  "Ġcrystal": 4469,
  "Ġchurch": 4470,
  "Ġcakes": 4471,
  "Ġbutterflies": 4472,
  "Ġbumped": 4473,
  "Ġburied": 4474,
  "Ġbrothers": 4475,
  "Ġbelow": 4476,
  "Ġbeg": 4477,
  "Ġbarking": 4478,
  "Ġbalan": 4479,
  "Ġbet": 4480,
  "Ġallow": 4481,
  "Ġadvice": 4482,
  "ĠWhere": 4483,
  "ĠSnowy": 4484,
  "ĠSmith": 4485,
  "ĠPaul": 4486,
  "ĠNana": 4487,
  "ĠJoey": 4488,
  "ĠFroggy": 4489,
  "ĠFrank": 4490,
  "veal": 4491,
  "sterday": 4492,
  "play": 4493,
  "mble": 4494,
  "live": 4495,
  "ivi": 4496,
  "isdom": 4497,
  "igloo": 4498,
  "iform": 4499,
  "esterday": 4500,
  "drobe": 4501,
  "arian": 4502,
  "apa": 4503,
  "anger": 4504,
  "aced": 4505,
  "See": 4506,
  "Ready": 4507,
  "Ch": 4508,
  "..": 4509,
  ".'": 4510,
  "Ġzookeeper": 4511,
  "Ġyucky": 4512,
  "Ġworms": 4513,
  "Ġweb": 4514,
  "Ġwashing": 4515,
  "Ġwardrobe": 4516,
  "Ġvehicle": 4517,
  "Ġurge": 4518,
  "Ġuniform": 4519,
  "Ġtwir": 4520,
  "Ġtremble": 4521,
  "Ġtong": 4522,
  "Ġsurprises": 4523,
  "Ġsuggested": 4524,
  "Ġstro": 4525,
  "Ġspell": 4526,
  "Ġsorted": 4527,
  "Ġsmells": 4528,
  "Ġsuff": 4529,
  "Ġreveal": 4530,
  "Ġplayer": 4531,
  "Ġpeek": 4532,
  "Ġpebbles": 4533,
  "Ġpaused": 4534,
  "Ġpleased": 4535,
  "Ġmenu": 4536,
  "Ġmeowed": 4537,
  "Ġlily": 4538,
  "Ġjokes": 4539,
  "Ġintroduce": 4540,
  "Ġhighest": 4541,
  "Ġgreedy": 4542,
  "Ġgoal": 4543,
  "Ġgiggle": 4544,
  "Ġfootball": 4545,
  "Ġext": 4546,
  "Ġended": 4547,
  "Ġemer": 4548,
  "Ġeagerly": 4549,
  "Ġdrops": 4550,
  "Ġdisplay": 4551,
  "Ġdust": 4552,
  "Ġcupboard": 4553,
  "Ġclaw": 4554,
  "Ġchoice": 4555,
  "Ġchasing": 4556,
  "Ġcared": 4557,
  "Ġbookcase": 4558,
  "Ġboats": 4559,
  "Ġbeep": 4560,
  "Ġbaking": 4561,
  "Ġbak": 4562,
  "Ġacorns": 4563,
  "ĠToto": 4564,
  "ĠPete": 4565,
  "ĠPat": 4566,
  "ĠLook": 4567,
  "ĠFl": 4568,
  "ĠChloe": 4569,
  "ĠBig": 4570,
  "Ġigloo": 4571,
  "yth": 4572,
  "uddles": 4573,
  "ucture": 4574,
  "ucked": 4575,
  "riage": 4576,
  "orted": 4577,
  "lv": 4578,
  "lid": 4579,
  "inarian": 4580,
  "ides": 4581,
  "eterinarian": 4582,
  "essie": 4583,
  "emember": 4584,
  "ected": 4585,
  "come": 4586,
  "ations": 4587,
  "aroo": 4588,
  "angaroo": 4589,
  "anny": 4590,
  "amber": 4591,
  "apping": 4592,
  "Jenny": 4593,
  "Ha": 4594,
  "Ġwest": 4595,
  "Ġwarning": 4596,
  "Ġwarned": 4597,
  "Ġwandered": 4598,
  "Ġwigg": 4599,
  "Ġveterinarian": 4600,
  "Ġurged": 4601,
  "Ġtraffic": 4602,
  "Ġthumb": 4603,
  "Ġstudied": 4604,
  "Ġstructure": 4605,
  "Ġstranger": 4606,
  "Ġsticker": 4607,
  "Ġsquee": 4608,
  "Ġsoftly": 4609,
  "Ġshrugged": 4610,
  "Ġshower": 4611,
  "Ġshivering": 4612,
  "Ġshield": 4613,
  "Ġseason": 4614,
  "Ġscore": 4615,
  "Ġscoop": 4616,
  "Ġsadly": 4617,
  "Ġringing": 4618,
  "Ġreverse": 4619,
  "Ġreaches": 4620,
  "Ġpuzzles": 4621,
  "Ġputting": 4622,
  "Ġpies": 4623,
  "Ġopin": 4624,
  "Ġmixer": 4625,
  "Ġminute": 4626,
  "Ġmeas": 4627,
  "Ġleaned": 4628,
  "Ġluck": 4629,
  "Ġkangaroo": 4630,
  "Ġjazz": 4631,
  "Ġincrease": 4632,
  "Ġimagined": 4633,
  "Ġhoping": 4634,
  "Ġfreeze": 4635,
  "Ġcolourful": 4636,
  "Ġcoats": 4637,
  "Ġcherry": 4638,
  "Ġchamber": 4639,
  "Ġcards": 4640,
  "Ġburned": 4641,
  "Ġbuckle": 4642,
  "Ġbrightly": 4643,
  "Ġbreeze": 4644,
  "Ġbreat": 4645,
  "Ġapplaud": 4646,
  "ĠSofia": 4647,
  "ĠSophie": 4648,
  "ĠSlow": 4649,
  "ĠPapa": 4650,
  "ĠJo": 4651,
  "ĠFo": 4652,
  "ĠBrownie": 4653,
  "ĠAbby": 4654,
  "ĠâĢ": 4655,
  "ythm": 4656,
  "we": 4657,
  "spit": 4658,
  "spital": 4659,
  "place": 4660,
  "ola": 4661,
  "ogn": 4662,
  "nesday": 4663,
  "medi": 4664,
  "mediately": 4665,
  "mare": 4666,
  "liday": 4667,
  "ls": 4668,
  "itation": 4669,
  "ippery": 4670,
  "inking": 4671,
  "icer": 4672,
  "hero": 4673,
  "ednesday": 4674,
  "eer": 4675,
  "azor": 4676,
  "asis": 4677,
  "Mark": 4678,
  "Ella": 4679,
  "Bobby": 4680,
  "Ġtrusted": 4681,
  "Ġtornado": 4682,
  "Ġtongue": 4683,
  "Ġsupply": 4684,
  "Ġsuperhero": 4685,
  "Ġstarts": 4686,
  "Ġstumbled": 4687,
  "Ġsqueeze": 4688,
  "Ġslippery": 4689,
  "Ġskill": 4690,
  "Ġsits": 4691,
  "Ġserved": 4692,
  "Ġscratch": 4693,
  "Ġrespectful": 4694,
  "Ġrecogn": 4695,
  "Ġrained": 4696,
  "Ġrabbits": 4697,
  "Ġrow": 4698,
  "Ġrazor": 4699,
  "Ġpoppy": 4700,
  "Ġpenny": 4701,
  "Ġoranges": 4702,
  "Ġolive": 4703,
  "Ġoasis": 4704,
  "Ġnightmare": 4705,
  "Ġneighb": 4706,
  "Ġmassage": 4707,
  "Ġmarks": 4708,
  "Ġinsisted": 4709,
  "Ġinf": 4710,
  "Ġhospital": 4711,
  "Ġholiday": 4712,
  "Ġhook": 4713,
  "Ġguessed": 4714,
  "Ġfresh": 4715,
  "Ġforgotten": 4716,
  "Ġfloated": 4717,
  "Ġflour": 4718,
  "Ġfeelings": 4719,
  "Ġfallen": 4720,
  "Ġextra": 4721,
  "Ġexcitedly": 4722,
  "Ġencourage": 4723,
  "Ġdeeper": 4724,
  "Ġcutting": 4725,
  "Ġcups": 4726,
  "Ġclimbs": 4727,
  "Ġclaws": 4728,
  "Ġcape": 4729,
  "Ġboots": 4730,
  "Ġbabies": 4731,
  "Ġattached": 4732,
  "Ġagree": 4733,
  "ĠWisdom": 4734,
  "ĠVivi": 4735,
  "ĠUnder": 4736,
  "ĠSqueaky": 4737,
  "ĠSu": 4738,
  "ĠRock": 4739,
  "ĠPinky": 4740,
  "ĠNot": 4741,
  "ĠNext": 4742,
  "ĠMilly": 4743,
  "ĠJake": 4744,
  "ĠDave": 4745,
  "ĠCuddles": 4746,
  "Ġx": 4747,
  "tain": 4748,
  "scope": 4749,
  "redient": 4750,
  "redients": 4751,
  "ops": 4752,
  "nce": 4753,
  "izes": 4754,
  "ites": 4755,
  "irring": 4756,
  "iraffe": 4757,
  "ingredients": 4758,
  "gency": 4759,
  "eal": 4760,
  "ctory": 4761,
  "axi": 4762,
  "atie": 4763,
  "Leo": 4764,
  "Before": 4765,
  "Bella": 4766,
  "Ġwisdom": 4767,
  "Ġtightly": 4768,
  "Ġtaxi": 4769,
  "Ġstirring": 4770,
  "Ġsqueezed": 4771,
  "Ġsisters": 4772,
  "Ġshouldn": 4773,
  "Ġselling": 4774,
  "Ġseats": 4775,
  "Ġscold": 4776,
  "Ġsix": 4777,
  "Ġreceive": 4778,
  "Ġraised": 4779,
  "Ġraise": 4780,
  "Ġprinted": 4781,
  "Ġprize": 4782,
  "Ġpretending": 4783,
  "Ġprepare": 4784,
  "Ġpotatoes": 4785,
  "Ġphot": 4786,
  "Ġpermit": 4787,
  "Ġpaid": 4788,
  "Ġourselves": 4789,
  "Ġmustache": 4790,
  "Ġmoves": 4791,
  "Ġmint": 4792,
  "Ġmummy": 4793,
  "Ġlicks": 4794,
  "Ġlands": 4795,
  "Ġimagination": 4796,
  "Ġimmediately": 4797,
  "Ġhurting": 4798,
  "Ġhung": 4799,
  "Ġhills": 4800,
  "Ġhearts": 4801,
  "Ġgrocer": 4802,
  "Ġgrandpa": 4803,
  "Ġgiven": 4804,
  "Ġfollows": 4805,
  "Ġflood": 4806,
  "Ġflame": 4807,
  "Ġfart": 4808,
  "Ġfamilies": 4809,
  "Ġfactory": 4810,
  "Ġexpect": 4811,
  "Ġener": 4812,
  "Ġeasily": 4813,
  "Ġdresses": 4814,
  "Ġdressed": 4815,
  "Ġdelay": 4816,
  "Ġdared": 4817,
  "Ġcounter": 4818,
  "Ġcollar": 4819,
  "Ġchirp": 4820,
  "Ġchance": 4821,
  "Ġcaptain": 4822,
  "Ġcudd": 4823,
  "Ġblood": 4824,
  "Ġbeans": 4825,
  "Ġbaseball": 4826,
  "Ġbother": 4827,
  "Ġattention": 4828,
  "Ġamazement": 4829,
  "ĠWhenever": 4830,
  "ĠWould": 4831,
  "ĠWednesday": 4832,
  "ĠRover": 4833,
  "ĠRollie": 4834,
  "ĠMittens": 4835,
  "ĠMe": 4836,
  "ĠLee": 4837,
  "ĠHappy": 4838,
  "ĠGiraffe": 4839,
  "ĠFinn": 4840,
  "Ġingredients": 4841,
  "ĠĊ": 4842,
  "zen": 4843,
  "speci": 4844,
  "specially": 4845,
  "noon": 4846,
  "laimed": 4847,
  "indeer": 4848,
  "ince": 4849,
  "ica": 4850,
  "ien": 4851,
  "do": 4852,
  "arnt": 4853,
  "ari": 4854,
  "agull": 4855,
  "Yuck": 4856,
  "Sh": 4857,
  "ĠâĢĵ": 4858,
  "Ġwriting": 4859,
  "Ġworse": 4860,
  "Ġwinning": 4861,
  "Ġunderstanding": 4862,
  "Ġtrade": 4863,
  "Ġtonight": 4864,
  "Ġthread": 4865,
  "Ġteaching": 4866,
  "Ġtug": 4867,
  "Ġstreng": 4868,
  "Ġstops": 4869,
  "Ġsting": 4870,
  "Ġsplashing": 4871,
  "Ġsolved": 4872,
  "Ġsocks": 4873,
  "Ġsoak": 4874,
  "Ġsneezed": 4875,
  "Ġseagull": 4876,
  "Ġscattered": 4877,
  "Ġreindeer": 4878,
  "Ġradish": 4879,
  "Ġquietly": 4880,
  "Ġprune": 4881,
  "Ġpress": 4882,
  "Ġplaytime": 4883,
  "Ġplaced": 4884,
  "Ġpanic": 4885,
  "Ġped": 4886,
  "Ġopinion": 4887,
  "Ġmeeting": 4888,
  "Ġmarriage": 4889,
  "Ġlearnt": 4890,
  "Ġlaid": 4891,
  "Ġlung": 4892,
  "Ġknot": 4893,
  "Ġinfant": 4894,
  "Ġinst": 4895,
  "Ġhopes": 4896,
  "Ġguy": 4897,
  "Ġgazed": 4898,
  "Ġfrozen": 4899,
  "Ġflies": 4900,
  "Ġfireplace": 4901,
  "Ġexplored": 4902,
  "Ġexper": 4903,
  "Ġexclaimed": 4904,
  "Ġenter": 4905,
  "Ġemergency": 4906,
  "Ġespecially": 4907,
  "Ġdear": 4908,
  "Ġdried": 4909,
  "Ġdaisy": 4910,
  "Ġconf": 4911,
  "Ġcollection": 4912,
  "Ġchairs": 4913,
  "Ġcartoon": 4914,
  "Ġcalls": 4915,
  "Ġbreaking": 4916,
  "Ġblowing": 4917,
  "Ġbeat": 4918,
  "Ġbarks": 4919,
  "Ġapart": 4920,
  "Ġafternoon": 4921,
  "Ġadmired": 4922,
  "Ġadded": 4923,
  "ĠTippy": 4924,
  "ĠTeddy": 4925,
  "ĠLola": 4926,
  "ĠJoy": 4927,
  "ĠJames": 4928,
  "ĠHave": 4929,
  "ĠElly": 4930,
  "ĠDino": 4931,
  "ĠDare": 4932,
  "ĠCharlie": 4933,
  "ĠCl": 4934,
  "ĠBow": 4935,
  "urther": 4936,
  "urpr": 4937,
  "umes": 4938,
  "uel": 4939,
  "ube": 4940,
  "roscope": 4941,
  "reen": 4942,
  "pted": 4943,
  "men": 4944,
  "lephant": 4945,
  "izing": 4946,
  "ities": 4947,
  "icing": 4948,
  "iving": 4949,
  "htray": 4950,
  "hood": 4951,
  "happy": 4952,
  "ges": 4953,
  "exture": 4954,
  "elcome": 4955,
  "eath": 4956,
  "aser": 4957,
  "anie": 4958,
  "aded": 4959,
  "Would": 4960,
  "Will": 4961,
  "Fred": 4962,
  "Emma": 4963,
  "Ġzigzag": 4964,
  "Ġwonders": 4965,
  "Ġwatered": 4966,
  "Ġvanished": 4967,
  "Ġtracks": 4968,
  "Ġtoes": 4969,
  "Ġtucked": 4970,
  "Ġtube": 4971,
  "Ġtexture": 4972,
  "Ġsuffer": 4973,
  "Ġstudying": 4974,
  "Ġstealing": 4975,
  "Ġstitch": 4976,
  "Ġskipping": 4977,
  "Ġshone": 4978,
  "Ġreplace": 4979,
  "Ġranch": 4980,
  "Ġrul": 4981,
  "Ġpulls": 4982,
  "Ġphotos": 4983,
  "Ġpassport": 4984,
  "Ġpans": 4985,
  "Ġoffer": 4986,
  "Ġmyself": 4987,
  "Ġmonkeys": 4988,
  "Ġminer": 4989,
  "Ġmicroscope": 4990,
  "Ġmanage": 4991,
  "Ġlives": 4992,
  "Ġlemonade": 4993,
  "Ġlimes": 4994,
  "Ġkindly": 4995,
  "Ġgrant": 4996,
  "Ġflapped": 4997,
  "Ġexperience": 4998,
  "Ġexamine": 4999,
  "Ġembarrass": 5000,
  "Ġdrinks": 5001,
  "Ġdisagreed": 5002,
  "Ġcrawling": 5003,
  "Ġcostumes": 5004,
  "Ġcopper": 5005,
  "Ġbrings": 5006,
  "Ġblueberries": 5007,
  "Ġbeauty": 5008,
  "Ġbaked": 5009,
  "Ġashtray": 5010,
  "Ġaccepted": 5011,
  "ĠStitch": 5012,
  "ĠMay": 5013,
  "ĠMaggie": 5014,
  "ĠJessica": 5015,
  "ĠHo": 5016,
  "ĠGod": 5017,
  "ĠGood": 5018,
  "ĠFrog": 5019,
  "ĠCo": 5020,
  "ĠBlink": 5021,
  "ĠBirdy": 5022,
  "ĠBefore": 5023,
  "ĠBally": 5024,
  "ween": 5025,
  "walk": 5026,
  "urprise": 5027,
  "unately": 5028,
  "uss": 5029,
  "thank": 5030,
  "sed": 5031,
  "raised": 5032,
  "quest": 5033,
  "ouncy": 5034,
  "oby": 5035,
  "laire": 5036,
  "iolet": 5037,
  "icorn": 5038,
  "hter": 5039,
  "etch": 5040,
  "dam": 5041,
  "cuss": 5042,
  "book": 5043,
  "boo": 5044,
  "atched": 5045,
  "Everyone": 5046,
  "Ann": 5047,
  "All": 5048,
  "Ġweather": 5049,
  "Ġveil": 5050,
  "Ġunicorn": 5051,
  "Ġunhappy": 5052,
  "Ġtomatoes": 5053,
  "Ġtore": 5054,
  "Ġteasing": 5055,
  "Ġsurf": 5056,
  "Ġstrength": 5057,
  "Ġsteam": 5058,
  "Ġstair": 5059,
  "Ġsidewalk": 5060,
  "Ġsew": 5061,
  "Ġsince": 5062,
  "Ġrules": 5063,
  "Ġremoved": 5064,
  "Ġracing": 5065,
  "Ġpunished": 5066,
  "Ġpunish": 5067,
  "Ġprett": 5068,
  "Ġplanted": 5069,
  "Ġpatch": 5070,
  "Ġpraised": 5071,
  "Ġnotebook": 5072,
  "Ġnovel": 5073,
  "Ġnames": 5074,
  "Ġmineral": 5075,
  "Ġmaster": 5076,
  "Ġlaughter": 5077,
  "Ġinclude": 5078,
  "Ġhers": 5079,
  "Ġgrocery": 5080,
  "Ġgloves": 5081,
  "Ġfort": 5082,
  "Ġfollowing": 5083,
  "Ġfurther": 5084,
  "Ġenergy": 5085,
  "Ġelephants": 5086,
  "Ġeaten": 5087,
  "Ġdonkey": 5088,
  "Ġdiscuss": 5089,
  "Ġcurled": 5090,
  "Ġcrane": 5091,
  "Ġcomfy": 5092,
  "Ġcollecting": 5093,
  "Ġcelebration": 5094,
  "Ġbuckets": 5095,
  "Ġbetween": 5096,
  "Ġbelt": 5097,
  "Ġbears": 5098,
  "Ġappro": 5099,
  "ĠToby": 5100,
  "ĠSnowman": 5101,
  "ĠRocky": 5102,
  "ĠRemember": 5103,
  "ĠLittle": 5104,
  "ĠKe": 5105,
  "ĠHop": 5106,
  "ĠGrand": 5107,
  "ĠEach": 5108,
  "ĠBug": 5109,
  "ĠBouncy": 5110,
  "ĠBinky": 5111,
  "ĠBessie": 5112,
  "Ġer": 5113,
  "ĠOnce": 5114,
  "uggled": 5115,
  "uggage": 5116,
  "shed": 5117,
  "rect": 5118,
  "raged": 5119,
  "ouch": 5120,
  "mend": 5121,
  "lsa": 5122,
  "looking": 5123,
  "ising": 5124,
  "ipe": 5125,
  "inked": 5126,
  "ids": 5127,
  "ercy": 5128,
  "enge": 5129,
  "commend": 5130,
  "cious": 5131,
  "bert": 5132,
  "azine": 5133,
  "allenge": 5134,
  "aby": 5135,
  "abella": 5136,
  "Welcome": 5137,
  "Today": 5138,
  "These": 5139,
  "Thanks": 5140,
  "Surprise": 5141,
  "Momo": 5142,
  "Bird": 5143,
  "Alice": 5144,
  "\",": 5145,
  "!\",": 5146,
  "Ġzoomed": 5147,
  "Ġyawned": 5148,
  "Ġworth": 5149,
  "Ġwiggle": 5150,
  "Ġwhistled": 5151,
  "Ġwhisper": 5152,
  "Ġwatches": 5153,
  "Ġwaits": 5154,
  "Ġunlocked": 5155,
  "Ġtreasures": 5156,
  "Ġthrowing": 5157,
  "Ġsticking": 5158,
  "Ġstarting": 5159,
  "Ġsneaky": 5160,
  "Ġsnuggled": 5161,
  "Ġsnapped": 5162,
  "Ġsilence": 5163,
  "Ġshoulder": 5164,
  "Ġshined": 5165,
  "Ġsettled": 5166,
  "Ġscolded": 5167,
  "Ġsir": 5168,
  "Ġresp": 5169,
  "Ġrequest": 5170,
  "Ġrecommend": 5171,
  "Ġquite": 5172,
  "Ġpigs": 5173,
  "Ġpeanuts": 5174,
  "Ġpatterns": 5175,
  "Ġopera": 5176,
  "Ġoh": 5177,
  "Ġmeow": 5178,
  "Ġmatches": 5179,
  "Ġmarried": 5180,
  "Ġmagazine": 5181,
  "Ġmister": 5182,
  "Ġlightning": 5183,
  "Ġletting": 5184,
  "Ġluggage": 5185,
  "Ġkeeper": 5186,
  "Ġjogged": 5187,
  "Ġinvitation": 5188,
  "Ġinstr": 5189,
  "Ġinch": 5190,
  "Ġhadn": 5191,
  "Ġhall": 5192,
  "Ġgrin": 5193,
  "Ġfolded": 5194,
  "Ġflat": 5195,
  "Ġfireworks": 5196,
  "Ġfeeding": 5197,
  "Ġfed": 5198,
  "Ġcreatures": 5199,
  "Ġchallenge": 5200,
  "Ġcandles": 5201,
  "Ġbubble": 5202,
  "Ġbravely": 5203,
  "Ġbrain": 5204,
  "Ġblinked": 5205,
  "Ġbeneath": 5206,
  "Ġbend": 5207,
  "Ġbakery": 5208,
  "Ġbadly": 5209,
  "Ġargue": 5210,
  "Ġapproached": 5211,
  "Ġapologized": 5212,
  "Ġactiv": 5213,
  "ĠZigzag": 5214,
  "ĠUn": 5215,
  "ĠSparky": 5216,
  "ĠSharing": 5217,
  "ĠSun": 5218,
  "ĠMo": 5219,
  "ĠKatie": 5220,
  "ĠHopper": 5221,
  "ĠHoot": 5222,
  "ĠGrandpa": 5223,
  "ĠGrace": 5224,
  "ĠElephant": 5225,
  "ĠChick": 5226,
  "ĠAcorn": 5227,
  "ups": 5228,
  "uct": 5229,
  "ssible": 5230,
  "reck": 5231,
  "phone": 5232,
  "omeday": 5233,
  "ky": 5234,
  "kins": 5235,
  "ium": 5236,
  "iers": 5237,
  "go": 5238,
  "fortunately": 5239,
  "ety": 5240,
  "cycle": 5241,
  "cond": 5242,
  "cense": 5243,
  "ayak": 5244,
  "avid": 5245,
  "aped": 5246,
  "adium": 5247,
  "With": 5248,
  "Watch": 5249,
  "True": 5250,
  "Ok": 5251,
  "May": 5252,
  "Eventually": 5253,
  "Buddy": 5254,
  "Ġworker": 5255,
  "Ġwaffles": 5256,
  "Ġwaving": 5257,
  "Ġwreck": 5258,
  "Ġvisited": 5259,
  "Ġvest": 5260,
  "Ġunderground": 5261,
  "Ġtwink": 5262,
  "Ġtrave": 5263,
  "Ġtheirs": 5264,
  "Ġtelephone": 5265,
  "Ġtastes": 5266,
  "Ġstadium": 5267,
  "Ġsprink": 5268,
  "Ġspending": 5269,
  "Ġspit": 5270,
  "Ġsoldiers": 5271,
  "Ġsneak": 5272,
  "Ġslap": 5273,
  "Ġshopping": 5274,
  "Ġseeing": 5275,
  "Ġsecond": 5276,
  "Ġsausages": 5277,
  "Ġsafety": 5278,
  "Ġsomeday": 5279,
  "Ġsizes": 5280,
  "Ġsip": 5281,
  "Ġruler": 5282,
  "Ġrooms": 5283,
  "Ġropes": 5284,
  "Ġrescued": 5285,
  "Ġresult": 5286,
  "Ġremained": 5287,
  "Ġrelaxed": 5288,
  "Ġquack": 5289,
  "Ġpushing": 5290,
  "Ġplanes": 5291,
  "Ġoat": 5292,
  "Ġnapping": 5293,
  "Ġmotorcycle": 5294,
  "Ġmoments": 5295,
  "Ġmama": 5296,
  "Ġlips": 5297,
  "Ġlicense": 5298,
  "Ġleather": 5299,
  "Ġlined": 5300,
  "Ġkayak": 5301,
  "Ġitem": 5302,
  "Ġhappens": 5303,
  "Ġgrowled": 5304,
  "Ġgirls": 5305,
  "Ġgathering": 5306,
  "Ġentered": 5307,
  "Ġencouraged": 5308,
  "Ġeagle": 5309,
  "Ġdownstairs": 5310,
  "Ġduring": 5311,
  "Ġcontest": 5312,
  "Ġclapping": 5313,
  "Ġcelebrated": 5314,
  "Ġbrighter": 5315,
  "Ġbreathe": 5316,
  "Ġbrushed": 5317,
  "Ġbiting": 5318,
  "Ġbites": 5319,
  "Ġbalanced": 5320,
  "Ġashes": 5321,
  "Ġanywhere": 5322,
  "Ġann": 5323,
  "Ġallig": 5324,
  "Ġagreement": 5325,
  "ĠWho": 5326,
  "ĠSee": 5327,
  "ĠRay": 5328,
  "ĠPercy": 5329,
  "ĠMaria": 5330,
  "ĠKate": 5331,
  "ĠJacky": 5332,
  "ĠFox": 5333,
  "ĠCra": 5334,
  "ĠBetsy": 5335,
  "ĠAlice": 5336,
  "zi": 5337,
  "usty": 5338,
  "umber": 5339,
  "uest": 5340,
  "sing": 5341,
  "rian": 5342,
  "rec": 5343,
  "reci": 5344,
  "rs": 5345,
  "rr": 5346,
  "quake": 5347,
  "oys": 5348,
  "orses": 5349,
  "lue": 5350,
  "jo": 5351,
  "ishy": 5352,
  "ishing": 5353,
  "imple": 5354,
  "iggy": 5355,
  "ezi": 5356,
  "eve": 5357,
  "eave": 5358,
  "choo": 5359,
  "angers": 5360,
  "anna": 5361,
  "acked": 5362,
  "Stay": 5363,
  "Sp": 5364,
  "Moral": 5365,
  "Emily": 5366,
  "Dog": 5367,
  "Bu": 5368,
  "Ġzipped": 5369,
  "Ġworkers": 5370,
  "Ġwondering": 5371,
  "Ġwhistles": 5372,
  "Ġwob": 5373,
  "Ġvillag": 5374,
  "Ġvanish": 5375,
  "Ġtwin": 5376,
  "Ġtubes": 5377,
  "Ġtrips": 5378,
  "Ġstripes": 5379,
  "Ġstretching": 5380,
  "Ġstrangers": 5381,
  "Ġsprayed": 5382,
  "Ġspike": 5383,
  "Ġsoared": 5384,
  "Ġsneaked": 5385,
  "Ġsights": 5386,
  "Ġsetting": 5387,
  "Ġscreaming": 5388,
  "Ġsimple": 5389,
  "Ġsigh": 5390,
  "Ġroads": 5391,
  "Ġrhythm": 5392,
  "Ġrang": 5393,
  "Ġprovided": 5394,
  "Ġproject": 5395,
  "Ġpresents": 5396,
  "Ġprecious": 5397,
  "Ġpride": 5398,
  "Ġpoking": 5399,
  "Ġplanned": 5400,
  "Ġpiles": 5401,
  "Ġpencils": 5402,
  "Ġpedals": 5403,
  "Ġparts": 5404,
  "Ġpipe": 5405,
  "Ġoysters": 5406,
  "Ġorganizing": 5407,
  "Ġordered": 5408,
  "Ġonwards": 5409,
  "Ġolives": 5410,
  "Ġnowhere": 5411,
  "Ġnews": 5412,
  "Ġneighbour": 5413,
  "Ġmouths": 5414,
  "Ġmeasured": 5415,
  "Ġmuddy": 5416,
  "Ġmice": 5417,
  "Ġmerry": 5418,
  "Ġloop": 5419,
  "Ġloses": 5420,
  "Ġlaser": 5421,
  "Ġlines": 5422,
  "Ġkneeled": 5423,
  "Ġknelt": 5424,
  "Ġkisses": 5425,
  "Ġkicking": 5426,
  "Ġideas": 5427,
  "Ġhappiest": 5428,
  "Ġhandful": 5429,
  "Ġhorses": 5430,
  "Ġgrinned": 5431,
  "Ġglasses": 5432,
  "Ġgifts": 5433,
  "Ġguest": 5434,
  "Ġgained": 5435,
  "Ġforgets": 5436,
  "Ġfloating": 5437,
  "Ġflap": 5438,
  "Ġfetch": 5439,
  "Ġexit": 5440,
  "Ġearthquake": 5441,
  "Ġdrinking": 5442,
  "Ġdecides": 5443,
  "Ġcushions": 5444,
  "Ġcopy": 5445,
  "Ġcandies": 5446,
  "Ġbuzzing": 5447,
  "Ġbricks": 5448,
  "Ġbouncy": 5449,
  "Ġbouncing": 5450,
  "Ġbloomed": 5451,
  "Ġbang": 5452,
  "Ġappreci": 5453,
  "Ġappear": 5454,
  "Ġalligator": 5455,
  "ĠYesterday": 5456,
  "ĠWiggles": 5457,
  "ĠTara": 5458,
  "ĠStop": 5459,
  "ĠSpin": 5460,
  "ĠSky": 5461,
  "ĠRed": 5462,
  "ĠPizza": 5463,
  "ĠMeg": 5464,
  "ĠMushroom": 5465,
  "ĠJosh": 5466,
  "ĠJanie": 5467,
  "ĠFor": 5468,
  "ĠElsa": 5469,
  "ĠClara": 5470,
  "ĠCow": 5471,
  "ĠBoth": 5472,
  "ĠBarry": 5473,
  "usb": 5474,
  "usband": 5475,
  "unchy": 5476,
  "ulp": 5477,
  "udience": 5478,
  "raight": 5479,
  "ris": 5480,
  "ring": 5481,
  "riger": 5482,
  "rigerator": 5483,
  "quip": 5484,
  "quipment": 5485,
  "plash": 5486,
  "ories": 5487,
  "ored": 5488,
  "lvet": 5489,
  "itches": 5490,
  "hee": 5491,
  "hind": 5492,
  "ha": 5493,
  "erious": 5494,
  "ena": 5495,
  "eds": 5496,
  "bey": 5497,
  "aws": 5498,
  "atty": 5499,
  "Yum": 5500,
  "Whiskers": 5501,
  "Time": 5502,
  "Ruby": 5503,
  "Rob": 5504,
  "Remy": 5505,
  "Qu": 5506,
  "Johnny": 5507,
  "Happy": 5508,
  "Ex": 5509,
  "Dave": 5510,
  "Blue": 5511,
  "====": 5512,
  "'.": 5513,
  "Ġworks": 5514,
  "Ġwooden": 5515,
  "Ġweeping": 5516,
  "Ġwagging": 5517,
  "Ġvelvet": 5518,
  "Ġvines": 5519,
  "Ġtrapped": 5520,
  "Ġtraded": 5521,
  "Ġthreat": 5522,
  "Ġthrill": 5523,
  "Ġstudents": 5524,
  "Ġstrings": 5525,
  "Ġstraight": 5526,
  "Ġstain": 5527,
  "Ġsplashes": 5528,
  "Ġsparkled": 5529,
  "Ġsorts": 5530,
  "Ġsoc": 5531,
  "Ġslapped": 5532,
  "Ġskills": 5533,
  "Ġsailing": 5534,
  "Ġrip": 5535,
  "Ġrevealed": 5536,
  "Ġrefrigerator": 5537,
  "Ġrecording": 5538,
  "Ġrecorded": 5539,
  "Ġrecognize": 5540,
  "Ġreleased": 5541,
  "Ġpulling": 5542,
  "Ġpup": 5543,
  "Ġprettier": 5544,
  "Ġpops": 5545,
  "Ġpoints": 5546,
  "Ġplays": 5547,
  "Ġplanet": 5548,
  "Ġperfectly": 5549,
  "Ġpearl": 5550,
  "Ġpeas": 5551,
  "Ġours": 5552,
  "Ġobserved": 5553,
  "Ġoats": 5554,
  "Ġobey": 5555,
  "Ġnone": 5556,
  "Ġnicer": 5557,
  "Ġmuscles": 5558,
  "Ġmotion": 5559,
  "Ġmixing": 5560,
  "Ġmission": 5561,
  "Ġmelting": 5562,
  "Ġmagnets": 5563,
  "Ġlogs": 5564,
  "Ġlied": 5565,
  "Ġlets": 5566,
  "Ġlaying": 5567,
  "Ġkeeps": 5568,
  "Ġkites": 5569,
  "Ġjogging": 5570,
  "Ġhits": 5571,
  "Ġhes": 5572,
  "Ġhardly": 5573,
  "Ġhusband": 5574,
  "Ġhon": 5575,
  "Ġguys": 5576,
  "Ġgotten": 5577,
  "Ġgolden": 5578,
  "Ġglitter": 5579,
  "Ġfarther": 5580,
  "Ġequipment": 5581,
  "Ġeight": 5582,
  "Ġeff": 5583,
  "Ġeast": 5584,
  "Ġdoggy": 5585,
  "Ġdisturbed": 5586,
  "Ġdifference": 5587,
  "Ġdemanded": 5588,
  "Ġdecorations": 5589,
  "Ġcrashed": 5590,
  "Ġcrash": 5591,
  "Ġcrunchy": 5592,
  "Ġcollected": 5593,
  "Ġchewed": 5594,
  "Ġchef": 5595,
  "Ġcatches": 5596,
  "Ġbye": 5597,
  "Ġbrid": 5598,
  "Ġblankets": 5599,
  "Ġblouse": 5600,
  "Ġbegin": 5601,
  "Ġbeds": 5602,
  "Ġboo": 5603,
  "Ġbones": 5604,
  "Ġargued": 5605,
  "Ġanswers": 5606,
  "Ġago": 5607,
  "Ġactually": 5608,
  "Ġaudience": 5609,
  "ĠTina": 5610,
  "ĠTato": 5611,
  "ĠSuzy": 5612,
  "ĠStay": 5613,
  "ĠSpinny": 5614,
  "ĠPrince": 5615,
  "ĠNavy": 5616,
  "ĠMouse": 5617,
  "ĠLou": 5618,
  "ĠLizzy": 5619,
  "ĠLater": 5620,
  "ĠJessie": 5621,
  "ĠHenny": 5622,
  "ĠEverything": 5623,
  "ĠCoco": 5624,
  "ĠCar": 5625,
  "ĠBirdie": 5626,
  "âĢĿ.": 5627,
  "zie": 5628,
  "ylv": 5629,
  "ylvia": 5630,
  "vest": 5631,
  "vestig": 5632,
  "vestigate": 5633,
  "va": 5634,
  "ubbles": 5635,
  "uke": 5636,
  "tuce": 5637,
  "scaped": 5638,
  "rise": 5639,
  "right": 5640,
  "ounds": 5641,
  "osed": 5642,
  "orge": 5643,
  "mbling": 5644,
  "llen": 5645,
  "liver": 5646,
  "izard": 5647,
  "itched": 5648,
  "ips": 5649,
  "int": 5650,
  "ining": 5651,
  "ighty": 5652,
  "idey": 5653,
  "ived": 5654,
  "ib": 5655,
  "iam": 5656,
  "hello": 5657,
  "father": 5658,
  "edd": 5659,
  "edding": 5660,
  "compl": 5661,
  "chie": 5662,
  "cus": 5663,
  "aterpillar": 5664,
  "antly": 5665,
  "anga": 5666,
  "anes": 5667,
  "aved": 5668,
  "ales": 5669,
  "Un": 5670,
  "Sandy": 5671,
  "Peter": 5672,
  "Jazz": 5673,
  "Fo": 5674,
  "Boo": 5675,
  "Achoo": 5676,
  "Ġzooming": 5677,
  "Ġwhistling": 5678,
  "Ġwelcomed": 5679,
  "Ġwoof": 5680,
  "Ġwizard": 5681,
  "Ġwedding": 5682,
  "Ġvoices": 5683,
  "Ġunited": 5684,
  "Ġtwigs": 5685,
  "Ġtrembling": 5686,
  "Ġthrilled": 5687,
  "Ġteased": 5688,
  "Ġtap": 5689,
  "Ġswims": 5690,
  "Ġsupposed": 5691,
  "Ġsunrise": 5692,
  "Ġsucceeded": 5693,
  "Ġstruggling": 5694,
  "Ġsparkle": 5695,
  "Ġsoccer": 5696,
  "Ġsoil": 5697,
  "Ġsnowball": 5698,
  "Ġslice": 5699,
  "Ġsitu": 5700,
  "Ġshovels": 5701,
  "Ġshoulders": 5702,
  "Ġshadows": 5703,
  "Ġscreams": 5704,
  "Ġscratched": 5705,
  "Ġscattering": 5706,
  "Ġsafari": 5707,
  "Ġsense": 5708,
  "Ġrotting": 5709,
  "Ġroaring": 5710,
  "Ġresting": 5711,
  "Ġreceived": 5712,
  "Ġraining": 5713,
  "Ġquacked": 5714,
  "Ġpurred": 5715,
  "Ġprinter": 5716,
  "Ġpirates": 5717,
  "Ġpinched": 5718,
  "Ġpetted": 5719,
  "Ġpears": 5720,
  "Ġpaying": 5721,
  "Ġpastel": 5722,
  "Ġpaints": 5723,
  "Ġpalm": 5724,
  "Ġoutdo": 5725,
  "Ġornaments": 5726,
  "Ġnails": 5727,
  "Ġmuffins": 5728,
  "Ġmisses": 5729,
  "Ġmentioned": 5730,
  "Ġmelted": 5731,
  "Ġmatched": 5732,
  "Ġmarble": 5733,
  "Ġmane": 5734,
  "Ġlettuce": 5735,
  "Ġlandscape": 5736,
  "Ġlumber": 5737,
  "Ġknocks": 5738,
  "Ġjewels": 5739,
  "Ġinviting": 5740,
  "Ġincreased": 5741,
  "Ġinvestigate": 5742,
  "Ġimportance": 5743,
  "Ġhum": 5744,
  "Ġhi": 5745,
  "Ġgrandfather": 5746,
  "Ġgust": 5747,
  "Ġfolding": 5748,
  "Ġfiremen": 5749,
  "Ġfields": 5750,
  "Ġeraser": 5751,
  "Ġeffort": 5752,
  "Ġeats": 5753,
  "Ġeasier": 5754,
  "Ġescaped": 5755,
  "Ġdraws": 5756,
  "Ġdragged": 5757,
  "Ġdiscovery": 5758,
  "Ġdisagree": 5759,
  "Ġdirect": 5760,
  "Ġdeal": 5761,
  "Ġdied": 5762,
  "Ġcreation": 5763,
  "Ġcreated": 5764,
  "Ġcrabs": 5765,
  "Ġcorners": 5766,
  "Ġcomforted": 5767,
  "Ġclosely": 5768,
  "Ġchirped": 5769,
  "Ġcheeks": 5770,
  "Ġcough": 5771,
  "Ġbridges": 5772,
  "Ġbrus": 5773,
  "Ġblooming": 5774,
  "Ġbehaving": 5775,
  "Ġbehaved": 5776,
  "Ġbeside": 5777,
  "Ġbeard": 5778,
  "Ġbalancing": 5779,
  "Ġbackpack": 5780,
  "Ġbur": 5781,
  "Ġberry": 5782,
  "Ġawe": 5783,
  "Ġaside": 5784,
  "Ġalien": 5785,
  "Ġadmir": 5786,
  "Ġactivities": 5787,
  "Ġaccompl": 5788,
  "ĠZero": 5789,
  "ĠWatch": 5790,
  "ĠViolet": 5791,
  "ĠTweety": 5792,
  "ĠThese": 5793,
  "ĠSofty": 5794,
  "ĠShiny": 5795,
  "ĠSw": 5796,
  "ĠPippy": 5797,
  "ĠOur": 5798,
  "ĠOliver": 5799,
  "ĠNice": 5800,
  "ĠMarie": 5801,
  "ĠMoppy": 5802,
  "ĠMina": 5803,
  "ĠMighty": 5804,
  "ĠMandy": 5805,
  "ĠLove": 5806,
  "ĠLilly": 5807,
  "ĠJackie": 5808,
  "ĠHowever": 5809,
  "ĠHatty": 5810,
  "ĠGet": 5811,
  "ĠDavid": 5812,
  "ĠDan": 5813,
  "ĠBrush": 5814,
  "ĠBeing": 5815,
  "ĠBubbles": 5816,
  "ĠX": 5817,
  "was": 5818,
  "washer": 5819,
  "vroom": 5820,
  "untie": 5821,
  "une": 5822,
  "uments": 5823,
  "reat": 5824,
  "ranny": 5825,
  "oper": 5826,
  "oming": 5827,
  "occo": 5828,
  "no": 5829,
  "nap": 5830,
  "mother": 5831,
  "mm": 5832,
  "lowers": 5833,
  "leed": 5834,
  "issue": 5835,
  "irm": 5836,
  "igging": 5837,
  "ido": 5838,
  "icular": 5839,
  "iar": 5840,
  "ern": 5841,
  "enry": 5842,
  "elle": 5843,
  "eorge": 5844,
  "eff": 5845,
  "cie": 5846,
  "avi": 5847,
  "armony": 5848,
  "arely": 5849,
  "anta": 5850,
  "anted": 5851,
  "amb": 5852,
  "acob": 5853,
  "Sammy": 5854,
  "Sophie": 5855,
  "Ro": 5856,
  "Rex": 5857,
  "Our": 5858,
  "Joey": 5859,
  "Exc": 5860,
  "Benny": 5861,
  "?'": 5862,
  "...\"": 5863,
  "!'": 5864,
  "Ġyawn": 5865,
  "Ġyesterday": 5866,
  "Ġwins": 5867,
  "Ġweeks": 5868,
  "Ġwink": 5869,
  "Ġvillagers": 5870,
  "Ġvalued": 5871,
  "Ġuns": 5872,
  "Ġtwirled": 5873,
  "Ġtrucks": 5874,
  "Ġtractor": 5875,
  "Ġtuna": 5876,
  "Ġtissue": 5877,
  "Ġsweeties": 5878,
  "Ġsweat": 5879,
  "Ġstuffed": 5880,
  "Ġstroll": 5881,
  "Ġsteep": 5882,
  "Ġstamps": 5883,
  "Ġstung": 5884,
  "Ġstern": 5885,
  "Ġsprinkles": 5886,
  "Ġspoons": 5887,
  "Ġspikes": 5888,
  "Ġsore": 5889,
  "Ġsofter": 5890,
  "Ġsingle": 5891,
  "Ġsighs": 5892,
  "Ġshouting": 5893,
  "Ġshed": 5894,
  "Ġshot": 5895,
  "Ġseems": 5896,
  "Ġseven": 5897,
  "Ġscrub": 5898,
  "Ġscooters": 5899,
  "Ġscooped": 5900,
  "Ġscur": 5901,
  "Ġsav": 5902,
  "Ġsings": 5903,
  "Ġrice": 5904,
  "Ġrespon": 5905,
  "Ġrecognized": 5906,
  "Ġreads": 5907,
  "Ġreaching": 5908,
  "Ġranger": 5909,
  "Ġrusty": 5910,
  "Ġprints": 5911,
  "Ġprepared": 5912,
  "Ġproper": 5913,
  "Ġpouring": 5914,
  "Ġpossible": 5915,
  "Ġparties": 5916,
  "Ġparticular": 5917,
  "Ġple": 5918,
  "Ġoutdoors": 5919,
  "Ġofficer": 5920,
  "Ġobjects": 5921,
  "Ġneighborhood": 5922,
  "Ġnine": 5923,
  "Ġnavy": 5924,
  "Ġmonsters": 5925,
  "Ġmemories": 5926,
  "Ġmeasuring": 5927,
  "Ġloving": 5928,
  "Ġlearns": 5929,
  "Ġleaning": 5930,
  "Ġknights": 5931,
  "Ġkicks": 5932,
  "Ġisn": 5933,
  "Ġhissed": 5934,
  "Ġheroes": 5935,
  "Ġhelpers": 5936,
  "Ġheel": 5937,
  "Ġgrowling": 5938,
  "Ġgrey": 5939,
  "Ġgrandmother": 5940,
  "Ġgranted": 5941,
  "Ġgiggling": 5942,
  "Ġforgiving": 5943,
  "Ġflav": 5944,
  "Ġfaced": 5945,
  "Ġexpected": 5946,
  "Ġdishwasher": 5947,
  "Ġdarker": 5948,
  "Ġdigging": 5949,
  "Ġden": 5950,
  "Ġcuts": 5951,
  "Ġcubes": 5952,
  "Ġcreating": 5953,
  "Ġcreek": 5954,
  "Ġcontain": 5955,
  "Ġcompletely": 5956,
  "Ġcolours": 5957,
  "Ġclaps": 5958,
  "Ġchewing": 5959,
  "Ġchoo": 5960,
  "Ġbuzzed": 5961,
  "Ġblocking": 5962,
  "Ġblown": 5963,
  "Ġbehavi": 5964,
  "Ġbegged": 5965,
  "Ġbatteries": 5966,
  "Ġbackward": 5967,
  "Ġbleed": 5968,
  "Ġbarely": 5969,
  "Ġautomobiles": 5970,
  "Ġannoy": 5971,
  "Ġactions": 5972,
  "Ġaccomplish": 5973,
  "Ġacted": 5974,
  "ĠWoof": 5975,
  "ĠSunshine": 5976,
  "ĠSuzie": 5977,
  "ĠSpirit": 5978,
  "ĠSomething": 5979,
  "ĠSlowly": 5980,
  "ĠSunny": 5981,
  "ĠSplash": 5982,
  "ĠSanta": 5983,
  "ĠPrint": 5984,
  "ĠLuke": 5985,
  "ĠKids": 5986,
  "ĠKanga": 5987,
  "ĠJojo": 5988,
  "ĠJumpy": 5989,
  "ĠIts": 5990,
  "ĠHoppy": 5991,
  "ĠGreen": 5992,
  "ĠGray": 5993,
  "ĠGranny": 5994,
  "ĠFrankie": 5995,
  "ĠFlick": 5996,
  "ĠFriend": 5997,
  "ĠEveryday": 5998,
  "ĠDezi": 5999,
  "ĠDanny": 6000,
  "ĠClaire": 6001,
  "ĠCaterpillar": 6002,
  "ĠCarl": 6003,
  "ĠBy": 6004,
  "ĠBop": 6005,
  "ĠBaby": 6006,
  "ĠAnne": 6007,
  "ĠAlways": 6008,
  "ĠArm": 6009,
  "ĠAnt": 6010,
  "ĠAdam": 6011,
  "ĠĊĠ": 6012,
  "zing": 6013,
  "uture": 6014,
  "utter": 6015,
  "urnit": 6016,
  "urniture": 6017,
  "uded": 6018,
  "stri": 6019,
  "strich": 6020,
  "rol": 6021,
  "rup": 6022,
  "rops": 6023,
  "ppers": 6024,
  "osity": 6025,
  "orence": 6026,
  "orman": 6027,
  "ormance": 6028,
  "ookie": 6029,
  "ometimes": 6030,
  "ogo": 6031,
  "ollen": 6032,
  "oid": 6033,
  "njoy": 6034,
  "mies": 6035,
  "lex": 6036,
  "lect": 6037,
  "ler": 6038,
  "isten": 6039,
  "indrops": 6040,
  "inda": 6041,
  "imy": 6042,
  "ifi": 6043,
  "ienna": 6044,
  "hythm": 6045,
  "guing": 6046,
  "guard": 6047,
  "found": 6048,
  "enty": 6049,
  "elix": 6050,
  "even": 6051,
  "ef": 6052,
  "awn": 6053,
  "ases": 6054,
  "ados": 6055,
  "adly": 6056,
  "acy": 6057,
  "acation": 6058,
  "abel": 6059,
  "act": 6060,
  "Whee": 6061,
  "Vroom": 6062,
  "Tweet": 6063,
  "Take": 6064,
  "Sometimes": 6065,
  "Quick": 6066,
  "Pinky": 6067,
  "Out": 6068,
  "Oops": 6069,
  "Maggie": 6070,
  "Lizzy": 6071,
  "Jerry": 6072,
  "Hold": 6073,
  "Have": 6074,
  "Goodbye": 6075,
  "Great": 6076,
  "Follow": 6077,
  "Excuse": 6078,
  "During": 6079,
  "Ducky": 6080,
  "Charlie": 6081,
  "Buzz": 6082,
  "Bear": 6083,
  "Ġyelling": 6084,
  "Ġworrying": 6085,
  "Ġwishing": 6086,
  "Ġwinner": 6087,
  "Ġwherever": 6088,
  "Ġwears": 6089,
  "Ġwarmth": 6090,
  "Ġwarmer": 6091,
  "Ġwaist": 6092,
  "Ġvanilla": 6093,
  "Ġvet": 6094,
  "Ġvent": 6095,
  "Ġvacation": 6096,
  "Ġunsure": 6097,
  "Ġtwists": 6098,
  "Ġtricked": 6099,
  "Ġtravell": 6100,
  "Ġtouching": 6101,
  "Ġthud": 6102,
  "Ġteaches": 6103,
  "Ġtalents": 6104,
  "Ġtalent": 6105,
  "Ġtables": 6106,
  "Ġty": 6107,
  "Ġsweets": 6108,
  "Ġsweaty": 6109,
  "Ġswollen": 6110,
  "Ġsurround": 6111,
  "Ġstroked": 6112,
  "Ġstole": 6113,
  "Ġstartled": 6114,
  "Ġsomebody": 6115,
  "Ġsoaked": 6116,
  "Ġslowed": 6117,
  "Ġslug": 6118,
  "Ġslither": 6119,
  "Ġslimy": 6120,
  "Ġshown": 6121,
  "Ġscrews": 6122,
  "Ġscaring": 6123,
  "Ġscales": 6124,
  "Ġsailors": 6125,
  "Ġsy": 6126,
  "Ġrockets": 6127,
  "Ġrocking": 6128,
  "Ġripped": 6129,
  "Ġrestored": 6130,
  "Ġrefuse": 6131,
  "Ġrealize": 6132,
  "Ġreef": 6133,
  "Ġraindrops": 6134,
  "Ġrumble": 6135,
  "Ġrisk": 6136,
  "Ġrings": 6137,
  "Ġprotecting": 6138,
  "Ġpracticing": 6139,
  "Ġpots": 6140,
  "Ġposts": 6141,
  "Ġplenty": 6142,
  "Ġperformer": 6143,
  "Ġperformance": 6144,
  "Ġperched": 6145,
  "Ġpeel": 6146,
  "Ġpatiently": 6147,
  "Ġpatience": 6148,
  "Ġpad": 6149,
  "Ġowned": 6150,
  "Ġopening": 6151,
  "Ġostrich": 6152,
  "Ġnewfound": 6153,
  "Ġneighbourhood": 6154,
  "Ġmuscle": 6155,
  "Ġmovies": 6156,
  "Ġmountains": 6157,
  "Ġmasks": 6158,
  "Ġmarked": 6159,
  "Ġmailed": 6160,
  "Ġmood": 6161,
  "Ġlifeguard": 6162,
  "Ġlemons": 6163,
  "Ġlap": 6164,
  "Ġlamb": 6165,
  "Ġknown": 6166,
  "Ġjoins": 6167,
  "Ġjoking": 6168,
  "Ġitems": 6169,
  "Ġitchy": 6170,
  "Ġimproved": 6171,
  "Ġhurried": 6172,
  "Ġheaded": 6173,
  "Ġhaw": 6174,
  "Ġhitting": 6175,
  "Ġguests": 6176,
  "Ġghosts": 6177,
  "Ġgardener": 6178,
  "Ġflags": 6179,
  "Ġfits": 6180,
  "Ġfarthest": 6181,
  "Ġfuture": 6182,
  "Ġfurniture": 6183,
  "Ġfirm": 6184,
  "Ġevent": 6185,
  "Ġdrives": 6186,
  "Ġdragons": 6187,
  "Ġdirections": 6188,
  "Ġdestination": 6189,
  "Ġdesert": 6190,
  "Ġdeser": 6191,
  "Ġdelivered": 6192,
  "Ġdecorated": 6193,
  "Ġcuddled": 6194,
  "Ġcrowns": 6195,
  "Ġcrept": 6196,
  "Ġcontinue": 6197,
  "Ġcontrol": 6198,
  "Ġcomplaining": 6199,
  "Ġcomplained": 6200,
  "Ġcombed": 6201,
  "Ġclowns": 6202,
  "Ġclick": 6203,
  "Ġchirping": 6204,
  "Ġchop": 6205,
  "Ġcelebrating": 6206,
  "Ġcamping": 6207,
  "Ġcor": 6208,
  "Ġcash": 6209,
  "Ġbuildings": 6210,
  "Ġbud": 6211,
  "Ġbrushes": 6212,
  "Ġbrand": 6213,
  "Ġblows": 6214,
  "Ġbleeding": 6215,
  "Ġbeginning": 6216,
  "Ġbedtime": 6217,
  "Ġbeamed": 6218,
  "Ġbaker": 6219,
  "Ġbacked": 6220,
  "Ġavocados": 6221,
  "Ġavoid": 6222,
  "Ġarguing": 6223,
  "Ġappreciate": 6224,
  "Ġapplauded": 6225,
  "Ġalley": 6226,
  "Ġalright": 6227,
  "Ġairpl": 6228,
  "Ġadmiring": 6229,
  "ĠWant": 6230,
  "ĠUnfortunately": 6231,
  "ĠSwitch": 6232,
  "ĠSpidey": 6233,
  "ĠRobot": 6234,
  "ĠRabbit": 6235,
  "ĠPrinty": 6236,
  "ĠPip": 6237,
  "ĠPaws": 6238,
  "ĠPam": 6239,
  "ĠOxygen": 6240,
  "ĠOx": 6241,
  "ĠOut": 6242,
  "ĠMissile": 6243,
  "ĠLeave": 6244,
  "ĠKeep": 6245,
  "ĠJolly": 6246,
  "ĠJeff": 6247,
  "ĠIsabella": 6248,
  "ĠIzzy": 6249,
  "ĠHerb": 6250,
  "ĠHippy": 6251,
  "ĠHenry": 6252,
  "ĠHarry": 6253,
  "ĠGracie": 6254,
  "ĠGogo": 6255,
  "ĠGeorge": 6256,
  "ĠFollow": 6257,
  "ĠFlorence": 6258,
  "ĠFifi": 6259,
  "ĠFido": 6260,
  "ĠFelix": 6261,
  "ĠEnjoy": 6262,
  "ĠDodo": 6263,
  "ĠCrabby": 6264,
  "ĠChris": 6265,
  "ĠCable": 6266,
  "ĠBrian": 6267,
  "ĠBones": 6268,
  "ĠBirthday": 6269,
  "ĠAlbert": 6270,
  "ĠAn": 6271,
  "ĠYes": 6272,
  "Ġ1": 6273,
  "xu": 6274,
  "xury": 6275,
  "wh": 6276,
  "unday": 6277,
  "ucks": 6278,
  "uxury": 6279,
  "thur": 6280,
  "tory": 6281,
  "sequ": 6282,
  "sequence": 6283,
  "sequences": 6284,
  "seek": 6285,
  "screen": 6286,
  "scin": 6287,
  "scinated": 6288,
  "river": 6289,
  "rip": 6290,
  "rett": 6291,
  "reeze": 6292,
  "ree": 6293,
  "rap": 6294,
  "rthur": 6295,
  "quid": 6296,
  "peedy": 6297,
  "please": 6298,
  "oula": 6299,
  "otton": 6300,
  "orter": 6301,
  "oldy": 6302,
  "oke": 6303,
  "ody": 6304,
  "ledge": 6305,
  "lection": 6306,
  "lict": 6307,
  "kend": 6308,
  "its": 6309,
  "ishes": 6310,
  "iles": 6311,
  "iggie": 6312,
  "igail": 6313,
  "iece": 6314,
  "iders": 6315,
  "icha": 6316,
  "ichael": 6317,
  "ices": 6318,
  "iven": 6319,
  "hh": 6320,
  "esome": 6321,
  "entist": 6322,
  "enter": 6323,
  "ellyfish": 6324,
  "ealing": 6325,
  "ekend": 6326,
  "ddler": 6327,
  "ddie": 6328,
  "driver": 6329,
  "cter": 6330,
  "bbled": 6331,
  "bing": 6332,
  "bigail": 6333,
  "bie": 6334,
  "ashed": 6335,
  "araway": 6336,
  "aracter": 6337,
  "arter": 6338,
  "arrin": 6339,
  "anging": 6340,
  "aker": 6341,
  "affes": 6342,
  "actly": 6343,
  "achel": 6344,
  "Zoomy": 6345,
  "Uh": 6346,
  "Really": 6347,
  "Prin": 6348,
  "Pete": 6349,
  "Meow": 6350,
  "Milly": 6351,
  "Lina": 6352,
  "Lena": 6353,
  "Jake": 6354,
  "Isabella": 6355,
  "Freddy": 6356,
  "Doggy": 6357,
  "Claire": 6358,
  "Cl": 6359,
  "Big": 6360,
  "Bet": 6361,
  "Bad": 6362,
  "Albert": 6363,
  "Adam": 6364,
  "...": 6365,
  ".'\"": 6366,
  "Ġwobb": 6367,
  "Ġwires": 6368,
  "Ġwipes": 6369,
  "Ġwhatever": 6370,
  "Ġwept": 6371,
  "Ġweighed": 6372,
  "Ġweekend": 6373,
  "Ġwatering": 6374,
  "Ġwarnings": 6375,
  "Ġwakes": 6376,
  "Ġwow": 6377,
  "Ġwounds": 6378,
  "Ġvideos": 6379,
  "Ġvict": 6380,
  "Ġusual": 6381,
  "Ġtwirling": 6382,
  "Ġtwirl": 6383,
  "Ġtwinkling": 6384,
  "Ġturning": 6385,
  "Ġtricky": 6386,
  "Ġtowels": 6387,
  "Ġtoss": 6388,
  "Ġtoddler": 6389,
  "Ġtickle": 6390,
  "Ġtallest": 6391,
  "Ġtalks": 6392,
  "Ġtails": 6393,
  "Ġsyrup": 6394,
  "Ġsweep": 6395,
  "Ġswoop": 6396,
  "Ġswitched": 6397,
  "Ġsupported": 6398,
  "Ġsunscreen": 6399,
  "Ġstruggled": 6400,
  "Ġstruggle": 6401,
  "Ġstopping": 6402,
  "Ġstaying": 6403,
  "Ġstew": 6404,
  "Ġspreading": 6405,
  "Ġspins": 6406,
  "Ġspices": 6407,
  "Ġsmiley": 6408,
  "Ġsmallest": 6409,
  "Ġsmarter": 6410,
  "Ġslips": 6411,
  "Ġsinger": 6412,
  "Ġsigns": 6413,
  "Ġshelves": 6414,
  "Ġshorter": 6415,
  "Ġseasons": 6416,
  "Ġscrubbed": 6417,
  "Ġscrewdriver": 6418,
  "Ġsavanna": 6419,
  "Ġsadness": 6420,
  "Ġsway": 6421,
  "Ġroots": 6422,
  "Ġroses": 6423,
  "Ġrewarded": 6424,
  "Ġrequested": 6425,
  "Ġrepeated": 6426,
  "Ġreflection": 6427,
  "Ġrelease": 6428,
  "Ġrather": 6429,
  "Ġquarreling": 6430,
  "Ġpumpkins": 6431,
  "Ġprotected": 6432,
  "Ġpromises": 6433,
  "Ġpretends": 6434,
  "Ġpractised": 6435,
  "Ġpoliceman": 6436,
  "Ġpointy": 6437,
  "Ġpills": 6438,
  "Ġpeeking": 6439,
  "Ġpeppers": 6440,
  "Ġparked": 6441,
  "Ġpec": 6442,
  "Ġowls": 6443,
  "Ġnoses": 6444,
  "Ġmesses": 6445,
  "Ġmatching": 6446,
  "Ġmiles": 6447,
  "Ġloaded": 6448,
  "Ġliquid": 6449,
  "Ġleading": 6450,
  "Ġluxury": 6451,
  "Ġknowledge": 6452,
  "Ġknees": 6453,
  "Ġjackets": 6454,
  "Ġinstruments": 6455,
  "Ġinsist": 6456,
  "Ġincluded": 6457,
  "Ġhuman": 6458,
  "Ġhorns": 6459,
  "Ġhistory": 6460,
  "Ġhides": 6461,
  "Ġhawk": 6462,
  "Ġhallway": 6463,
  "Ġguesses": 6464,
  "Ġgreet": 6465,
  "Ġgrassy": 6466,
  "Ġgracefully": 6467,
  "Ġgoodnight": 6468,
  "Ġgoals": 6469,
  "Ġgiraffes": 6470,
  "Ġgaze": 6471,
  "Ġfrowning": 6472,
  "Ġfroze": 6473,
  "Ġforgiven": 6474,
  "Ġforehead": 6475,
  "Ġfoods": 6476,
  "Ġfocus": 6477,
  "Ġflutter": 6478,
  "Ġflown": 6479,
  "Ġfilling": 6480,
  "Ġfairies": 6481,
  "Ġfascinated": 6482,
  "Ġfuel": 6483,
  "Ġfaraway": 6484,
  "Ġexactly": 6485,
  "Ġdipped": 6486,
  "Ġdecorating": 6487,
  "Ġdads": 6488,
  "Ġdot": 6489,
  "Ġdie": 6490,
  "Ġdentist": 6491,
  "Ġcurtains": 6492,
  "Ġcracker": 6493,
  "Ġcrow": 6494,
  "Ġcounts": 6495,
  "Ġconflict": 6496,
  "Ġconfident": 6497,
  "Ġconsequences": 6498,
  "Ġconn": 6499,
  "Ġcones": 6500,
  "Ġconcer": 6501,
  "Ġcomputers": 6502,
  "Ġcompleted": 6503,
  "Ġcloses": 6504,
  "Ġchefs": 6505,
  "Ġchases": 6506,
  "Ġcharacter": 6507,
  "Ġchanging": 6508,
  "Ġchanges": 6509,
  "Ġcatching": 6510,
  "Ġcashier": 6511,
  "Ġbringing": 6512,
  "Ġbru": 6513,
  "Ġbehaviour": 6514,
  "Ġbitten": 6515,
  "Ġawesome": 6516,
  "Ġawake": 6517,
  "Ġairplanes": 6518,
  "Ġagrees": 6519,
  "Ġacts": 6520,
  "ĠZiggy": 6521,
  "ĠZane": 6522,
  "ĠYet": 6523,
  "ĠYawn": 6524,
  "ĠWithout": 6525,
  "ĠWater": 6526,
  "ĠWally": 6527,
  "ĠThose": 6528,
  "ĠTuna": 6529,
  "ĠSteve": 6530,
  "ĠStacy": 6531,
  "ĠSomeone": 6532,
  "ĠSunday": 6533,
  "ĠSpeedy": 6534,
  "ĠSorry": 6535,
  "ĠSienna": 6536,
  "ĠRobby": 6537,
  "ĠRocco": 6538,
  "ĠRhythm": 6539,
  "ĠPepper": 6540,
  "ĠPeanut": 6541,
  "ĠPu": 6542,
  "ĠPenny": 6543,
  "ĠOat": 6544,
  "ĠNate": 6545,
  "ĠMon": 6546,
  "ĠLinda": 6547,
  "ĠLina": 6548,
  "ĠLaser": 6549,
  "ĠKeith": 6550,
  "ĠJellyfish": 6551,
  "ĠJacob": 6552,
  "ĠHana": 6553,
  "ĠGina": 6554,
  "ĠFriends": 6555,
  "ĠFishy": 6556,
  "ĠDr": 6557,
  "ĠDina": 6558,
  "ĠCowy": 6559,
  "ĠCookie": 6560,
  "ĠBuggy": 6561,
  "ĠBehind": 6562,
  "ĠBye": 6563,
  "ĠBoo": 6564,
  "ĠBolly": 6565,
  "ĠBo": 6566,
  "ĠBiggie": 6567,
  "ĠAva": 6568,
  "ĠAlex": 6569,
  "Ġouch": 6570,
  "ĠQuick": 6571,
  "Ġ5": 6572,
  "ĠĠ": 6573,
  "utch": 6574,
  "umbling": 6575,
  "ulie": 6576,
  "ulf": 6577,
  "uggles": 6578,
  "uffles": 6579,
  "uctantly": 6580,
  "ucksack": 6581,
  "uckled": 6582,
  "uly": 6583,
  "uess": 6584,
  "ths": 6585,
  "though": 6586,
  "shop": 6587,
  "snap": 6588,
  "sm": 6589,
  "rat": 6590,
  "ratul": 6591,
  "rance": 6592,
  "pring": 6593,
  "pose": 6594,
  "pite": 6595,
  "pit": 6596,
  "per": 6597,
  "osting": 6598,
  "osen": 6599,
  "oring": 6600,
  "ora": 6601,
  "ongratul": 6602,
  "omas": 6603,
  "ohny": 6604,
  "obody": 6605,
  "nk": 6606,
  "ners": 6607,
  "mates": 6608,
  "lya": 6609,
  "leaf": 6610,
  "long": 6611,
  "lier": 6612,
  "izzie": 6613,
  "ition": 6614,
  "isions": 6615,
  "iri": 6616,
  "iney": 6617,
  "icles": 6618,
  "iao": 6619,
  "house": 6620,
  "giving": 6621,
  "form": 6622,
  "fia": 6623,
  "espite": 6624,
  "ently": 6625,
  "elion": 6626,
  "dies": 6627,
  "ded": 6628,
  "cl": 6629,
  "byes": 6630,
  "boom": 6631,
  "ays": 6632,
  "atelyn": 6633,
  "atre": 6634,
  "atches": 6635,
  "asty": 6636,
  "annah": 6637,
  "andelion": 6638,
  "ammed": 6639,
  "almed": 6640,
  "alerious": 6641,
  "aled": 6642,
  "ading": 6643,
  "ah": 6644,
  "Zara": 6645,
  "Yummy": 6646,
  "Violet": 6647,
  "Very": 6648,
  "Uncle": 6649,
  "Teddy": 6650,
  "Steve": 6651,
  "Sofia": 6652,
  "Silly": 6653,
  "Remember": 6654,
  "Paul": 6655,
  "Pat": 6656,
  "Mmm": 6657,
  "Mar": 6658,
  "Luna": 6659,
  "James": 6660,
  "Guess": 6661,
  "Gigi": 6662,
  "Finny": 6663,
  "Frank": 6664,
  "Ew": 6665,
  "Deal": 6666,
  "Baby": 6667,
  "Andy": 6668,
  "Afterwards": 6669,
  "AT": 6670,
  "Ġzips": 6671,
  "Ġyouth": 6672,
  "Ġyells": 6673,
  "Ġworkshop": 6674,
  "Ġwindy": 6675,
  "Ġwiggled": 6676,
  "Ġweren": 6677,
  "Ġweighs": 6678,
  "Ġwasted": 6679,
  "Ġvictory": 6680,
  "Ġvibr": 6681,
  "Ġventured": 6682,
  "Ġtype": 6683,
  "Ġtune": 6684,
  "Ġtravelling": 6685,
  "Ġtraveled": 6686,
  "Ġtruly": 6687,
  "Ġtoad": 6688,
  "Ġtighter": 6689,
  "Ġtickled": 6690,
  "Ġtheatre": 6691,
  "Ġtasting": 6692,
  "Ġtugged": 6693,
  "Ġtipped": 6694,
  "Ġtim": 6695,
  "Ġswimmer": 6696,
  "Ġswitches": 6697,
  "Ġswap": 6698,
  "Ġsuffered": 6699,
  "Ġstrongest": 6700,
  "Ġsternly": 6701,
  "Ġsteady": 6702,
  "Ġstays": 6703,
  "Ġstands": 6704,
  "Ġstool": 6705,
  "Ġstitches": 6706,
  "Ġstare": 6707,
  "Ġsqueaked": 6708,
  "Ġspraying": 6709,
  "Ġsports": 6710,
  "Ġsparkling": 6711,
  "Ġspiders": 6712,
  "Ġspat": 6713,
  "Ġsnowmen": 6714,
  "Ġsnatched": 6715,
  "Ġsmashed": 6716,
  "Ġslipping": 6717,
  "Ġslammed": 6718,
  "Ġsituation": 6719,
  "Ġshrug": 6720,
  "Ġshooting": 6721,
  "Ġshirts": 6722,
  "Ġscurried": 6723,
  "Ġsandpit": 6724,
  "Ġsank": 6725,
  "Ġsides": 6726,
  "Ġruin": 6727,
  "Ġrowing": 6728,
  "Ġrivers": 6729,
  "Ġrisks": 6730,
  "Ġrested": 6731,
  "Ġresponse": 6732,
  "Ġrespond": 6733,
  "Ġrespected": 6734,
  "Ġrepeats": 6735,
  "Ġreminding": 6736,
  "Ġreminder": 6737,
  "Ġrefre": 6738,
  "Ġrealizes": 6739,
  "Ġrainbows": 6740,
  "Ġradishes": 6741,
  "Ġraking": 6742,
  "Ġrucksack": 6743,
  "Ġrising": 6744,
  "Ġpurpose": 6745,
  "Ġpupil": 6746,
  "Ġproperly": 6747,
  "Ġprocess": 6748,
  "Ġprayers": 6749,
  "Ġpostc": 6750,
  "Ġpolishing": 6751,
  "Ġplayers": 6752,
  "Ġplanets": 6753,
  "Ġplates": 6754,
  "Ġpassing": 6755,
  "Ġpackages": 6756,
  "Ġpins": 6757,
  "Ġoutf": 6758,
  "Ġnoticing": 6759,
  "Ġnoon": 6760,
  "Ġneighbors": 6761,
  "Ġneatly": 6762,
  "Ġneither": 6763,
  "Ġnasty": 6764,
  "Ġmommies": 6765,
  "Ġmomma": 6766,
  "Ġmittens": 6767,
  "Ġminds": 6768,
  "Ġminding": 6769,
  "Ġminded": 6770,
  "Ġmeaning": 6771,
  "Ġmatters": 6772,
  "Ġmarching": 6773,
  "Ġmailing": 6774,
  "Ġmachines": 6775,
  "Ġmaker": 6776,
  "Ġloudest": 6777,
  "Ġloose": 6778,
  "Ġlizards": 6779,
  "Ġknots": 6780,
  "Ġknocking": 6781,
  "Ġkeys": 6782,
  "Ġhomework": 6783,
  "Ġhesitation": 6784,
  "Ġhesit": 6785,
  "Ġhealed": 6786,
  "Ġhandsome": 6787,
  "Ġgoodbyes": 6788,
  "Ġglowed": 6789,
  "Ġgrip": 6790,
  "Ġfrosting": 6791,
  "Ġfollowers": 6792,
  "Ġfishing": 6793,
  "Ġfills": 6794,
  "Ġfigures": 6795,
  "Ġfears": 6796,
  "Ġfact": 6797,
  "Ġfu": 6798,
  "Ġexamined": 6799,
  "Ġeverybody": 6800,
  "Ġerase": 6801,
  "Ġentrance": 6802,
  "Ġelbow": 6803,
  "Ġearlier": 6804,
  "Ġdrifted": 6805,
  "Ġdolphins": 6806,
  "Ġdiving": 6807,
  "Ġdelivering": 6808,
  "Ġdecisions": 6809,
  "Ġdecision": 6810,
  "Ġdeed": 6811,
  "Ġdaring": 6812,
  "Ġdar": 6813,
  "Ġdandelion": 6814,
  "Ġcuriously": 6815,
  "Ġcuriosity": 6816,
  "Ġcuddly": 6817,
  "Ġcraft": 6818,
  "Ġcovers": 6819,
  "Ġcomm": 6820,
  "Ġcobra": 6821,
  "Ġclover": 6822,
  "Ġclam": 6823,
  "Ġchoosing": 6824,
  "Ġchuckled": 6825,
  "Ġchosen": 6826,
  "Ġcongratul": 6827,
  "Ġcalmed": 6828,
  "Ġburying": 6829,
  "Ġburning": 6830,
  "Ġbumps": 6831,
  "Ġbubb": 6832,
  "Ġbruises": 6833,
  "Ġbowls": 6834,
  "Ġbowed": 6835,
  "Ġboom": 6836,
  "Ġbodies": 6837,
  "Ġbelieving": 6838,
  "Ġbecoming": 6839,
  "Ġbelly": 6840,
  "Ġbaths": 6841,
  "Ġbasement": 6842,
  "Ġbandages": 6843,
  "Ġbanged": 6844,
  "Ġbackwards": 6845,
  "Ġarea": 6846,
  "Ġannoyed": 6847,
  "Ġamused": 6848,
  "Ġafterwards": 6849,
  "Ġadventurers": 6850,
  "Ġadventurer": 6851,
  "Ġaccomplishment": 6852,
  "Ġabil": 6853,
  "Ġachie": 6854,
  "ĠZara": 6855,
  "ĠXiao": 6856,
  "ĠWor": 6857,
  "ĠUp": 6858,
  "ĠThanks": 6859,
  "ĠTry": 6860,
  "ĠTed": 6861,
  "ĠString": 6862,
  "ĠStella": 6863,
  "ĠStealing": 6864,
  "ĠSqueeze": 6865,
  "ĠSpud": 6866,
  "ĠSnuggles": 6867,
  "ĠSylvia": 6868,
  "ĠSummer": 6869,
  "ĠSeth": 6870,
  "ĠSerious": 6871,
  "ĠSadly": 6872,
  "ĠRuffles": 6873,
  "ĠRiri": 6874,
  "ĠRia": 6875,
  "ĠPuppy": 6876,
  "ĠPrincess": 6877,
  "ĠPippa": 6878,
  "ĠPur": 6879,
  "ĠPl": 6880,
  "ĠPiney": 6881,
  "ĠNothing": 6882,
  "ĠMaya": 6883,
  "ĠMabel": 6884,
  "ĠLiz": 6885,
  "ĠLiam": 6886,
  "ĠLarry": 6887,
  "ĠJune": 6888,
  "ĠJilly": 6889,
  "ĠHung": 6890,
  "ĠHold": 6891,
  "ĠHarmony": 6892,
  "ĠGoodbye": 6893,
  "ĠGulp": 6894,
  "ĠGoldy": 6895,
  "ĠFlora": 6896,
  "ĠFirst": 6897,
  "ĠDogs": 6898,
  "ĠCrab": 6899,
  "ĠCari": 6900,
  "ĠBrad": 6901,
  "ĠBobbie": 6902,
  "ĠBert": 6903,
  "ĠBee": 6904,
  "âĢĶ": 6905,
  "yond": 6906,
  "what": 6907,
  "vin": 6908,
  "utty": 6909,
  "usted": 6910,
  "usic": 6911,
  "unning": 6912,
  "umbs": 6913,
  "umm": 6914,
  "ummaged": 6915,
  "ument": 6916,
  "ulfill": 6917,
  "uits": 6918,
  "ugar": 6919,
  "uctions": 6920,
  "uckily": 6921,
  "ubu": 6922,
  "ues": 6923,
  "ua": 6924,
  "toed": 6925,
  "ther": 6926,
  "the": 6927,
  "step": 6928,
  "ssess": 6929,
  "ship": 6930,
  "reverse": 6931,
  "repe": 6932,
  "repeat": 6933,
  "rust": 6934,
  "ron": 6935,
  "rkins": 6936,
  "rink": 6937,
  "packed": 6938,
  "pare": 6939,
  "ordan": 6940,
  "orse": 6941,
  "oray": 6942,
  "oosh": 6943,
  "onghead": 6944,
  "omp": 6945,
  "obey": 6946,
  "ossible": 6947,
  "ole": 6948,
  "mbers": 6949,
  "mered": 6950,
  "manda": 6951,
  "lders": 6952,
  "lunt": 6953,
  "joyed": 6954,
  "jam": 6955,
  "jamas": 6956,
  "ivity": 6957,
  "itely": 6958,
  "ission": 6959,
  "isty": 6960,
  "iously": 6961,
  "indy": 6962,
  "iky": 6963,
  "igning": 6964,
  "ieve": 6965,
  "idened": 6966,
  "idence": 6967,
  "icking": 6968,
  "ibbit": 6969,
  "hausted": 6970,
  "fficer": 6971,
  "erald": 6972,
  "ept": 6973,
  "elon": 6974,
  "elieve": 6975,
  "ein": 6976,
  "eed": 6977,
  "ean": 6978,
  "dding": 6979,
  "cutter": 6980,
  "ctar": 6981,
  "chievous": 6982,
  "ching": 6983,
  "chieved": 6984,
  "crow": 6985,
  "cc": 6986,
  "ccas": 6987,
  "brush": 6988,
  "bbing": 6989,
  "but": 6990,
  "bles": 6991,
  "bbed": 6992,
  "assport": 6993,
  "applaud": 6994,
  "antha": 6995,
  "andas": 6996,
  "ans": 6997,
  "amie": 6998,
  "amboo": 6999,
  "aloo": 7000,
  "aids": 7001,
  "acing": 7002,
  "Zoom": 7003,
  "Unfortunately": 7004,
  "Tweety": 7005,
  "Toto": 7006,
  "Tiny": 7007,
  "Spike": 7008,
  "Sharing": 7009,
  "Sylvia": 7010,
  "Sun": 7011,
  "Some": 7012,
  "Run": 7013,
  "Ribbit": 7014,
  "Poula": 7015,
  "Poppy": 7016,
  "Pandy": 7017,
  "Pam": 7018,
  "Or": 7019,
  "Ollie": 7020,
  "Mrs": 7021,
  "Meg": 7022,
  "Mittens": 7023,
  "Mine": 7024,
  "Mandy": 7025,
  "Leave": 7026,
  "Kiki": 7027,
  "Katie": 7028,
  "Jacky": 7029,
  "Jump": 7030,
  "Johny": 7031,
  "Jessie": 7032,
  "Janie": 7033,
  "Honey": 7034,
  "Grace": 7035,
  "Fro": 7036,
  "For": 7037,
  "First": 7038,
  "Ellie": 7039,
  "Eat": 7040,
  "Dolly": 7041,
  "Dear": 7042,
  "Cat": 7043,
  "Buzzy": 7044,
  "Betty": 7045,
  "Behind": 7046,
  "Brian": 7047,
  "Br": 7048,
  "Boys": 7049,
  "Bill": 7050,
  "Barry": 7051,
  "Auntie": 7052,
  "========": 7053,
  "!âĢĿ.": 7054,
  "Ġyounger": 7055,
  "Ġwrapping": 7056,
  "Ġwrist": 7057,
  "Ġwoodcutter": 7058,
  "Ġwobbly": 7059,
  "Ġwobbled": 7060,
  "Ġwiser": 7061,
  "Ġwisely": 7062,
  "Ġwhoosh": 7063,
  "Ġwebs": 7064,
  "Ġweeds": 7065,
  "Ġwidened": 7066,
  "Ġvolunt": 7067,
  "Ġvisiting": 7068,
  "Ġvibrant": 7069,
  "Ġusually": 7070,
  "Ġunpacked": 7071,
  "Ġunf": 7072,
  "Ġund": 7073,
  "Ġtwisty": 7074,
  "Ġtroubles": 7075,
  "Ġtreehouse": 7076,
  "Ġtravels": 7077,
  "Ġtowns": 7078,
  "Ġtouches": 7079,
  "Ġtoolbox": 7080,
  "Ġtires": 7081,
  "Ġtimer": 7082,
  "Ġthieves": 7083,
  "Ġtested": 7084,
  "Ġtearing": 7085,
  "Ġteamwork": 7086,
  "Ġteapot": 7087,
  "Ġtasks": 7088,
  "Ġtalented": 7089,
  "Ġtablet": 7090,
  "Ġtapped": 7091,
  "Ġswooped": 7092,
  "Ġswept": 7093,
  "Ġsurroundings": 7094,
  "Ġsurfboard": 7095,
  "Ġsupplies": 7096,
  "Ġstyles": 7097,
  "Ġstreets": 7098,
  "Ġstruck": 7099,
  "Ġstomp": 7100,
  "Ġstaring": 7101,
  "Ġstains": 7102,
  "Ġstacking": 7103,
  "Ġstumble": 7104,
  "Ġstings": 7105,
  "Ġstem": 7106,
  "Ġsqueak": 7107,
  "Ġsquishy": 7108,
  "Ġspits": 7109,
  "Ġspills": 7110,
  "Ġsparkles": 7111,
  "Ġspout": 7112,
  "Ġspiky": 7113,
  "Ġsoaring": 7114,
  "Ġsoaking": 7115,
  "Ġsniffs": 7116,
  "Ġsnug": 7117,
  "Ġsnorted": 7118,
  "Ġsituations": 7119,
  "Ġsickness": 7120,
  "Ġshivered": 7121,
  "Ġshines": 7122,
  "Ġshock": 7123,
  "Ġshady": 7124,
  "Ġsending": 7125,
  "Ġsecrets": 7126,
  "Ġsadder": 7127,
  "Ġsale": 7128,
  "Ġrobin": 7129,
  "Ġreplaced": 7130,
  "Ġremembering": 7131,
  "Ġreluctantly": 7132,
  "Ġrummaged": 7133,
  "Ġrider": 7134,
  "Ġrid": 7135,
  "Ġqueens": 7136,
  "Ġquacking": 7137,
  "Ġpurrs": 7138,
  "Ġpudding": 7139,
  "Ġprettiest": 7140,
  "Ġpresses": 7141,
  "Ġprove": 7142,
  "Ġpowers": 7143,
  "Ġpossess": 7144,
  "Ġpleaded": 7145,
  "Ġplans": 7146,
  "Ġplum": 7147,
  "Ġplain": 7148,
  "Ġpigeons": 7149,
  "Ġpermission": 7150,
  "Ġperforming": 7151,
  "Ġpedal": 7152,
  "Ġpecked": 7153,
  "Ġpearls": 7154,
  "Ġpeered": 7155,
  "Ġpaths": 7156,
  "Ġpatted": 7157,
  "Ġpaintings": 7158,
  "Ġpajamas": 7159,
  "Ġpiled": 7160,
  "Ġpause": 7161,
  "Ġpandas": 7162,
  "Ġowners": 7163,
  "Ġoverjoyed": 7164,
  "Ġoutfits": 7165,
  "Ġoccas": 7166,
  "Ġnodding": 7167,
  "Ġnervously": 7168,
  "Ġnectar": 7169,
  "Ġniece": 7170,
  "Ġmonths": 7171,
  "Ġmischievous": 7172,
  "Ġmessed": 7173,
  "Ġmembers": 7174,
  "Ġmarker": 7175,
  "Ġmoo": 7176,
  "Ġlungs": 7177,
  "Ġlollipops": 7178,
  "Ġlistens": 7179,
  "Ġlessons": 7180,
  "Ġlending": 7181,
  "Ġleast": 7182,
  "Ġleap": 7183,
  "Ġlump": 7184,
  "Ġjoked": 7185,
  "Ġintr": 7186,
  "Ġinstructions": 7187,
  "Ġindeed": 7188,
  "Ġimpossible": 7189,
  "Ġimagining": 7190,
  "Ġhugging": 7191,
  "Ġhotter": 7192,
  "Ġhealth": 7193,
  "Ġheading": 7194,
  "Ġguide": 7195,
  "Ġgrowls": 7196,
  "Ġgroan": 7197,
  "Ġgrandpare": 7198,
  "Ġgears": 7199,
  "Ġgazing": 7200,
  "Ġgasps": 7201,
  "Ġgross": 7202,
  "Ġgoo": 7203,
  "Ġfuzzy": 7204,
  "Ġfreed": 7205,
  "Ġfoxes": 7206,
  "Ġform": 7207,
  "Ġforce": 7208,
  "Ġfoggy": 7209,
  "Ġflowing": 7210,
  "Ġflavors": 7211,
  "Ġflavor": 7212,
  "Ġflip": 7213,
  "Ġflapping": 7214,
  "Ġflames": 7215,
  "Ġfirmly": 7216,
  "Ġfigured": 7217,
  "Ġfamiliar": 7218,
  "Ġfulfill": 7219,
  "Ġexercises": 7220,
  "Ġexhausted": 7221,
  "Ġeveryday": 7222,
  "Ġenjoyable": 7223,
  "Ġemerald": 7224,
  "Ġedges": 7225,
  "Ġelders": 7226,
  "Ġease": 7227,
  "Ġdusty": 7228,
  "Ġdrip": 7229,
  "Ġdod": 7230,
  "Ġdisobey": 7231,
  "Ġdifferently": 7232,
  "Ġdeserve": 7233,
  "Ġdemanding": 7234,
  "Ġdef": 7235,
  "Ġdarkness": 7236,
  "Ġdumb": 7237,
  "Ġditch": 7238,
  "Ġcuddle": 7239,
  "Ġcreativity": 7240,
  "Ġcrafts": 7241,
  "Ġcrackers": 7242,
  "Ġcracked": 7243,
  "Ġcrutch": 7244,
  "Ġcrumbs": 7245,
  "Ġcorrect": 7246,
  "Ġconcerned": 7247,
  "Ġcoloring": 7248,
  "Ġcloudy": 7249,
  "Ġclearing": 7250,
  "Ġclassmates": 7251,
  "Ġclip": 7252,
  "Ġchopped": 7253,
  "Ġcheering": 7254,
  "Ġcharacters": 7255,
  "Ġcartoons": 7256,
  "Ġcenter": 7257,
  "Ġcause": 7258,
  "Ġburst": 7259,
  "Ġbulbs": 7260,
  "Ġbreathing": 7261,
  "Ġbravery": 7262,
  "Ġbottles": 7263,
  "Ġbooth": 7264,
  "Ġblast": 7265,
  "Ġbirdie": 7266,
  "Ġbeloved": 7267,
  "Ġbeyond": 7268,
  "Ġbathing": 7269,
  "Ġbaskets": 7270,
  "Ġbands": 7271,
  "Ġbadge": 7272,
  "Ġbully": 7273,
  "Ġbamboo": 7274,
  "Ġages": 7275,
  "Ġage": 7276,
  "Ġactivity": 7277,
  "Ġacting": 7278,
  "Ġachieve": 7279,
  "Ġachieved": 7280,
  "ĠWhich": 7281,
  "ĠUncle": 7282,
  "ĠUse": 7283,
  "ĠThomas": 7284,
  "ĠTurtle": 7285,
  "ĠToys": 7286,
  "ĠTerry": 7287,
  "ĠSparkle": 7288,
  "ĠShell": 7289,
  "ĠShow": 7290,
  "ĠSamuel": 7291,
  "ĠSugar": 7292,
  "ĠSpring": 7293,
  "ĠSay": 7294,
  "ĠRobert": 7295,
  "ĠRudy": 7296,
  "ĠRich": 7297,
  "ĠPurrkins": 7298,
  "ĠPea": 7299,
  "ĠPut": 7300,
  "ĠPiggy": 7301,
  "ĠPassport": 7302,
  "ĠOlly": 7303,
  "ĠOkay": 7304,
  "ĠOfficer": 7305,
  "ĠNoelle": 7306,
  "ĠNobody": 7307,
  "ĠNick": 7308,
  "ĠMonster": 7309,
  "ĠMole": 7310,
  "ĠMusic": 7311,
  "ĠMoon": 7312,
  "ĠMichael": 7313,
  "ĠLike": 7314,
  "ĠLena": 7315,
  "ĠLand": 7316,
  "ĠKirsty": 7317,
  "ĠKelly": 7318,
  "ĠKatelyn": 7319,
  "ĠIsn": 7320,
  "ĠHelping": 7321,
  "ĠHannah": 7322,
  "ĠGary": 7323,
  "ĠEd": 7324,
  "ĠDeal": 7325,
  "ĠChicky": 7326,
  "ĠCotton": 7327,
  "ĠCally": 7328,
  "ĠBrother": 7329,
  "ĠBubu": 7330,
  "ĠBecause": 7331,
  "ĠBand": 7332,
  "ĠBaloo": 7333,
  "ĠAuntie": 7334,
  "ĠArthur": 7335,
  "ĠAbigail": 7336,
  "ĠQ": 7337,
  "ĠĊĊ": 7338,
  "years": 7339,
  "woof": 7340,
  "versed": 7341,
  "vered": 7342,
  "veral": 7343,
  "vil": 7344,
  "ution": 7345,
  "unged": 7346,
  "umped": 7347,
  "ugging": 7348,
  "ueen": 7349,
  "uri": 7350,
  "te": 7351,
  "sted": 7352,
  "spired": 7353,
  "shall": 7354,
  "seed": 7355,
  "sible": 7356,
  "shing": 7357,
  "rrr": 7358,
  "robes": 7359,
  "rier": 7360,
  "retty": 7361,
  "resser": 7362,
  "raped": 7363,
  "rucky": 7364,
  "rily": 7365,
  "rayon": 7366,
  "rayons": 7367,
  "quirrel": 7368,
  "pple": 7369,
  "ppies": 7370,
  "phan": 7371,
  "phanage": 7372,
  "pen": 7373,
  "ounced": 7374,
  "order": 7375,
  "ooper": 7376,
  "ooks": 7377,
  "onge": 7378,
  "onde": 7379,
  "ompy": 7380,
  "omer": 7381,
  "ments": 7382,
  "moo": 7383,
  "lings": 7384,
  "iversity": 7385,
  "ironment": 7386,
  "irdresser": 7387,
  "ippin": 7388,
  "inkle": 7389,
  "inct": 7390,
  "imply": 7391,
  "ights": 7392,
  "iggly": 7393,
  "iggled": 7394,
  "igued": 7395,
  "ifty": 7396,
  "ief": 7397,
  "ics": 7398,
  "icip": 7399,
  "iblings": 7400,
  "iren": 7401,
  "herry": 7402,
  "hole": 7403,
  "hog": 7404,
  "hive": 7405,
  "hi": 7406,
  "guess": 7407,
  "getic": 7408,
  "gn": 7409,
  "gers": 7410,
  "feated": 7411,
  "exit": 7412,
  "ets": 7413,
  "etail": 7414,
  "etails": 7415,
  "esmer": 7416,
  "ering": 7417,
  "eam": 7418,
  "daughter": 7419,
  "ckless": 7420,
  "cused": 7421,
  "cre": 7422,
  "cake": 7423,
  "bug": 7424,
  "bs": 7425,
  "bric": 7426,
  "attered": 7427,
  "ateri": 7428,
  "atted": 7429,
  "att": 7430,
  "asped": 7431,
  "arney": 7432,
  "arned": 7433,
  "arest": 7434,
  "arty": 7435,
  "arth": 7436,
  "ars": 7437,
  "arf": 7438,
  "ansform": 7439,
  "anet": 7440,
  "amedics": 7441,
  "ambled": 7442,
  "amage": 7443,
  "agle": 7444,
  "ades": 7445,
  "ably": 7446,
  "aven": 7447,
  "Which": 7448,
  "Wiggly": 7449,
  "Want": 7450,
  "Those": 7451,
  "Tina": 7452,
  "Tie": 7453,
  "Ted": 7454,
  "Samuel": 7455,
  "Susie": 7456,
  "Snap": 7457,
  "Slow": 7458,
  "Seven": 7459,
  "Robert": 7460,
  "Roar": 7461,
  "Rose": 7462,
  "Rock": 7463,
  "Rachel": 7464,
  "Quack": 7465,
  "Print": 7466,
  "Put": 7467,
  "Push": 7468,
  "Polly": 7469,
  "Pippin": 7470,
  "Pip": 7471,
  "Pe": 7472,
  "Oxygen": 7473,
  "Oat": 7474,
  "Nothing": 7475,
  "Noelle": 7476,
  "Nick": 7477,
  "Near": 7478,
  "Miss": 7479,
  "Mint": 7480,
  "Mila": 7481,
  "Lulu": 7482,
  "Luckily": 7483,
  "Like": 7484,
  "Kirsty": 7485,
  "Kim": 7486,
  "Ke": 7487,
  "Kate": 7488,
  "Jo": 7489,
  "Jess": 7490,
  "Jen": 7491,
  "However": 7492,
  "Hearing": 7493,
  "Ho": 7494,
  "Harmony": 7495,
  "HAT": 7496,
  "Froggy": 7497,
  "Four": 7498,
  "Fine": 7499,
  "Even": 7500,
  "Eddie": 7501,
  "Davey": 7502,
  "Drink": 7503,
  "Dezi": 7504,
  "David": 7505,
  "Darrin": 7506,
  "Danny": 7507,
  "Clara": 7508,
  "Chris": 7509,
  "Chloe": 7510,
  "Chirpy": 7511,
  "Cindy": 7512,
  "Catch": 7513,
  "Birdy": 7514,
  "By": 7515,
  "Bug": 7516,
  "Bring": 7517,
  "Brett": 7518,
  "Bow": 7519,
  "Bolly": 7520,
  "Binky": 7521,
  "Bally": 7522,
  "Annie": 7523,
  "Alya": 7524,
  "Ahh": 7525,
  "AN": 7526,
  ",'": 7527,
  "Ġzooms": 7528,
  "Ġyawning": 7529,
  "Ġyum": 7530,
  "Ġyelp": 7531,
  "Ġwrites": 7532,
  "Ġwriggled": 7533,
  "Ġworries": 7534,
  "Ġwoken": 7535,
  "Ġwinked": 7536,
  "Ġwilling": 7537,
  "Ġwhose": 7538,
  "Ġwhispers": 7539,
  "Ġwhines": 7540,
  "Ġweed": 7541,
  "Ġwasting": 7542,
  "Ġwaste": 7543,
  "Ġwaded": 7544,
  "Ġwound": 7545,
  "Ġwider": 7546,
  "Ġwicked": 7547,
  "Ġvisitor": 7548,
  "Ġvillager": 7549,
  "Ġurging": 7550,
  "Ġuntw": 7551,
  "Ġuntangle": 7552,
  "Ġunw": 7553,
  "Ġtwinkled": 7554,
  "Ġtwinkle": 7555,
  "Ġtwice": 7556,
  "Ġtunnels": 7557,
  "Ġtrusting": 7558,
  "Ġtrumpets": 7559,
  "Ġtraveling": 7560,
  "Ġtransform": 7561,
  "Ġtrading": 7562,
  "Ġtoward": 7563,
  "Ġtossing": 7564,
  "Ġtops": 7565,
  "Ġtoilets": 7566,
  "Ġtossed": 7567,
  "Ġtiptoed": 7568,
  "Ġthird": 7569,
  "Ġtemper": 7570,
  "Ġteaspoons": 7571,
  "Ġtanks": 7572,
  "Ġtumbling": 7573,
  "Ġtang": 7574,
  "Ġswayed": 7575,
  "Ġsurrounded": 7576,
  "Ġsuperheroes": 7577,
  "Ġsunflowers": 7578,
  "Ġsunlight": 7579,
  "Ġstroller": 7580,
  "Ġstrolled": 7581,
  "Ġstroke": 7582,
  "Ġstomachs": 7583,
  "Ġstepping": 7584,
  "Ġstarfish": 7585,
  "Ġstamped": 7586,
  "Ġstunning": 7587,
  "Ġstall": 7588,
  "Ġsquealed": 7589,
  "Ġsquished": 7590,
  "Ġspringing": 7591,
  "Ġspilling": 7592,
  "Ġspeaking": 7593,
  "Ġspaces": 7594,
  "Ġsponge": 7595,
  "Ġsource": 7596,
  "Ġsolution": 7597,
  "Ġsobbed": 7598,
  "Ġsnuggly": 7599,
  "Ġsnakes": 7600,
  "Ġsnuck": 7601,
  "Ġsmelling": 7602,
  "Ġsmash": 7603,
  "Ġslithered": 7604,
  "Ġslower": 7605,
  "Ġsinks": 7606,
  "Ġsilent": 7607,
  "Ġshrank": 7608,
  "Ġshops": 7609,
  "Ġshinier": 7610,
  "Ġshall": 7611,
  "Ġsewing": 7612,
  "Ġsewed": 7613,
  "Ġseparated": 7614,
  "Ġseesaw": 7615,
  "Ġseeking": 7616,
  "Ġseveral": 7617,
  "Ġscurry": 7618,
  "Ġscratches": 7619,
  "Ġscrambled": 7620,
  "Ġscarecrow": 7621,
  "Ġscarves": 7622,
  "Ġscraped": 7623,
  "Ġsatis": 7624,
  "Ġsalty": 7625,
  "Ġsails": 7626,
  "Ġsafer": 7627,
  "Ġsiren": 7628,
  "Ġsinking": 7629,
  "Ġsimply": 7630,
  "Ġsill": 7631,
  "Ġsiblings": 7632,
  "Ġsens": 7633,
  "Ġruining": 7634,
  "Ġrobber": 7635,
  "Ġroars": 7636,
  "Ġroamed": 7637,
  "Ġribbons": 7638,
  "Ġrib": 7639,
  "Ġreturning": 7640,
  "Ġresponded": 7641,
  "Ġresponsible": 7642,
  "Ġreply": 7643,
  "Ġreminds": 7644,
  "Ġrelief": 7645,
  "Ġregretted": 7646,
  "Ġrefreshed": 7647,
  "Ġrecommended": 7648,
  "Ġrecorder": 7649,
  "Ġrealizing": 7650,
  "Ġreality": 7651,
  "Ġreversed": 7652,
  "Ġreeds": 7653,
  "Ġreckless": 7654,
  "Ġreass": 7655,
  "Ġreapp": 7656,
  "Ġrainy": 7657,
  "Ġrains": 7658,
  "Ġrails": 7659,
  "Ġraces": 7660,
  "Ġraked": 7661,
  "Ġrays": 7662,
  "Ġpurr": 7663,
  "Ġpuppies": 7664,
  "Ġpruning": 7665,
  "Ġprotein": 7666,
  "Ġprobably": 7667,
  "Ġpresented": 7668,
  "Ġpostcards": 7669,
  "Ġpossession": 7670,
  "Ġpopsicles": 7671,
  "Ġpolitely": 7672,
  "Ġpolished": 7673,
  "Ġpokes": 7674,
  "Ġpockets": 7675,
  "Ġpoles": 7676,
  "Ġpleasure": 7677,
  "Ġplucked": 7678,
  "Ġpinching": 7679,
  "Ġpillows": 7680,
  "Ġpicnics": 7681,
  "Ġpetal": 7682,
  "Ġpersistence": 7683,
  "Ġpeaches": 7684,
  "Ġpatches": 7685,
  "Ġparticularly": 7686,
  "Ġparted": 7687,
  "Ġparamedics": 7688,
  "Ġpanicked": 7689,
  "Ġpairs": 7690,
  "Ġpaintbrush": 7691,
  "Ġpadd": 7692,
  "Ġpacket": 7693,
  "Ġpounds": 7694,
  "Ġotters": 7695,
  "Ġorphanage": 7696,
  "Ġopinions": 7697,
  "Ġoffering": 7698,
  "Ġoccasions": 7699,
  "Ġobserving": 7700,
  "Ġnewspapers": 7701,
  "Ġnearly": 7702,
  "Ġnearest": 7703,
  "Ġni": 7704,
  "Ġmustered": 7705,
  "Ġmoonlight": 7706,
  "Ġmodels": 7707,
  "Ġminty": 7708,
  "Ġmeows": 7709,
  "Ġmayor": 7710,
  "Ġmassages": 7711,
  "Ġmunch": 7712,
  "Ġmesmer": 7713,
  "Ġmateri": 7714,
  "Ġmain": 7715,
  "Ġlunchtime": 7716,
  "Ġlowered": 7717,
  "Ġlighter": 7718,
  "Ġlifting": 7719,
  "Ġlicking": 7720,
  "Ġlies": 7721,
  "Ġleader": 7722,
  "Ġlanding": 7723,
  "Ġladybug": 7724,
  "Ġlaunch": 7725,
  "Ġlower": 7726,
  "Ġlent": 7727,
  "Ġkeyhole": 7728,
  "Ġkitty": 7729,
  "Ġjourneys": 7730,
  "Ġjobs": 7731,
  "Ġitches": 7732,
  "Ġinvites": 7733,
  "Ġintrigued": 7734,
  "Ġinterested": 7735,
  "Ġinspired": 7736,
  "Ġhunters": 7737,
  "Ġhowever": 7738,
  "Ġhopeful": 7739,
  "Ġhonesty": 7740,
  "Ġhonor": 7741,
  "Ġhonked": 7742,
  "Ġhonk": 7743,
  "Ġhost": 7744,
  "Ġhissing": 7745,
  "Ġhider": 7746,
  "Ġhesitated": 7747,
  "Ġhelmets": 7748,
  "Ġhelicopters": 7749,
  "Ġhedgehog": 7750,
  "Ġhearing": 7751,
  "Ġheaven": 7752,
  "Ġhamster": 7753,
  "Ġhammered": 7754,
  "Ġhairdresser": 7755,
  "Ġhood": 7756,
  "Ġhint": 7757,
  "Ġguilt": 7758,
  "Ġguided": 7759,
  "Ġgroups": 7760,
  "Ġgroceries": 7761,
  "Ġgroaned": 7762,
  "Ġgrandparent": 7763,
  "Ġgrabbing": 7764,
  "Ġgobbled": 7765,
  "Ġglued": 7766,
  "Ġglim": 7767,
  "Ġglared": 7768,
  "Ġgiants": 7769,
  "Ġgulp": 7770,
  "Ġfriendships": 7771,
  "Ġflips": 7772,
  "Ġfins": 7773,
  "Ġfinishing": 7774,
  "Ġfever": 7775,
  "Ġfault": 7776,
  "Ġfabric": 7777,
  "Ġfired": 7778,
  "Ġfifty": 7779,
  "Ġexplorer": 7780,
  "Ġexperiences": 7781,
  "Ġenvironment": 7782,
  "Ġenthusiasm": 7783,
  "Ġentire": 7784,
  "Ġengineer": 7785,
  "Ġengines": 7786,
  "Ġenergetic": 7787,
  "Ġends": 7788,
  "Ġencouragement": 7789,
  "Ġemerged": 7790,
  "Ġembra": 7791,
  "Ġefforts": 7792,
  "Ġevil": 7793,
  "Ġduckling": 7794,
  "Ġdrying": 7795,
  "Ġdrums": 7796,
  "Ġdropping": 7797,
  "Ġdrivers": 7798,
  "Ġdripping": 7799,
  "Ġdrift": 7800,
  "Ġdries": 7801,
  "Ġdresser": 7802,
  "Ġdodged": 7803,
  "Ġdoomed": 7804,
  "Ġdisplayed": 7805,
  "Ġdiscovering": 7806,
  "Ġdinosaurs": 7807,
  "Ġdived": 7808,
  "Ġdetermination": 7809,
  "Ġdestroying": 7810,
  "Ġdesigned": 7811,
  "Ġdesigning": 7812,
  "Ġdesc": 7813,
  "Ġdefeated": 7814,
  "Ġdarling": 7815,
  "Ġdances": 7816,
  "Ġdangers": 7817,
  "Ġdumped": 7818,
  "Ġdips": 7819,
  "Ġdetails": 7820,
  "Ġdamage": 7821,
  "Ġda": 7822,
  "Ġcurly": 7823,
  "Ġcrossing": 7824,
  "Ġcops": 7825,
  "Ġconnected": 7826,
  "Ġconnect": 7827,
  "Ġconfidence": 7828,
  "Ġconvin": 7829,
  "Ġcompetition": 7830,
  "Ġcompete": 7831,
  "Ġcompany": 7832,
  "Ġcomforting": 7833,
  "Ġcoloured": 7834,
  "Ġcollap": 7835,
  "Ġcoldness": 7836,
  "Ġcleaner": 7837,
  "Ġclasped": 7838,
  "Ġcircus": 7839,
  "Ġchoices": 7840,
  "Ġchewy": 7841,
  "Ġcheckout": 7842,
  "Ġcheat": 7843,
  "Ġcheaper": 7844,
  "Ġchill": 7845,
  "Ġcharge": 7846,
  "Ġcells": 7847,
  "Ġcauliflowers": 7848,
  "Ġcaterpillars": 7849,
  "Ġcooper": 7850,
  "Ġbushy": 7851,
  "Ġburrow": 7852,
  "Ġbubbling": 7853,
  "Ġbrightest": 7854,
  "Ġbreathed": 7855,
  "Ġbracelets": 7856,
  "Ġbraver": 7857,
  "Ġbraid": 7858,
  "Ġbounces": 7859,
  "Ġbothering": 7860,
  "Ġbothered": 7861,
  "Ġbooming": 7862,
  "Ġboiling": 7863,
  "Ġboil": 7864,
  "Ġbobbing": 7865,
  "Ġblonde": 7866,
  "Ġblocked": 7867,
  "Ġblink": 7868,
  "Ġbirdseed": 7869,
  "Ġbellies": 7870,
  "Ġbeehive": 7871,
  "Ġbeautif": 7872,
  "Ġbeast": 7873,
  "Ġbathrobes": 7874,
  "Ġbacks": 7875,
  "Ġbackground": 7876,
  "Ġbunch": 7877,
  "Ġbumpy": 7878,
  "Ġborn": 7879,
  "Ġawful": 7880,
  "Ġarrive": 7881,
  "Ġarf": 7882,
  "Ġapplauding": 7883,
  "Ġapology": 7884,
  "Ġapologize": 7885,
  "Ġapologised": 7886,
  "Ġanticip": 7887,
  "Ġannoying": 7888,
  "Ġannounced": 7889,
  "Ġangrily": 7890,
  "Ġache": 7891,
  "Ġabilities": 7892,
  "Ġast": 7893,
  "Ġaimed": 7894,
  "Ġaim": 7895,
  "Ġaff": 7896,
  "ĠWorking": 7897,
  "ĠWilliam": 7898,
  "ĠWo": 7899,
  "ĠWhee": 7900,
  "ĠWell": 7901,
  "ĠWar": 7902,
  "ĠTodd": 7903,
  "ĠThanksgiving": 7904,
  "ĠTangle": 7905,
  "ĠTake": 7906,
  "ĠSteam": 7907,
  "ĠSquirrel": 7908,
  "ĠSister": 7909,
  "ĠRachel": 7910,
  "ĠQueen": 7911,
  "ĠPlanet": 7912,
  "ĠPoke": 7913,
  "ĠPatch": 7914,
  "ĠParty": 7915,
  "ĠOrange": 7916,
  "ĠOnly": 7917,
  "ĠOuch": 7918,
  "ĠOld": 7919,
  "ĠNutty": 7920,
  "ĠNO": 7921,
  "ĠMarshall": 7922,
  "ĠMila": 7923,
  "ĠMike": 7924,
  "ĠMalerious": 7925,
  "ĠLilah": 7926,
  "ĠLonghead": 7927,
  "ĠLizzie": 7928,
  "ĠListen": 7929,
  "ĠLion": 7930,
  "ĠJulie": 7931,
  "ĠJamie": 7932,
  "ĠInst": 7933,
  "ĠHorse": 7934,
  "ĠHolly": 7935,
  "ĠFun": 7936,
  "ĠEx": 7937,
  "ĠEddie": 7938,
  "ĠEarth": 7939,
  "ĠEagle": 7940,
  "ĠDid": 7941,
  "ĠDespite": 7942,
  "ĠDarrin": 7943,
  "ĠCoal": 7944,
  "ĠClim": 7945,
  "ĠCompy": 7946,
  "ĠCle": 7947,
  "ĠCherry": 7948,
  "ĠBrett": 7949,
  "ĠBark": 7950,
  "ĠAsh": 7951,
  "ĠAnnie": 7952,
  "ĠAlthough": 7953,
  "ĠAlong": 7954,
  "ĠApple": 7955,
  "Ġ''": 7956,
  "Ġicing": 7957,
  "Ġ2": 7958,
  "zzled": 7959,
  "zip": 7960,
  "zily": 7961,
  "ysters": 7962,
  "you": 7963,
  "who": 7964,
  "weed": 7965,
  "winkle": 7966,
  "well": 7967,
  "vers": 7968,
  "vided": 7969,
  "vast": 7970,
  "vastated": 7971,
  "utomobiles": 7972,
  "utiously": 7973,
  "utely": 7974,
  "ustomer": 7975,
  "ushy": 7976,
  "usp": 7977,
  "uspic": 7978,
  "using": 7979,
  "usan": 7980,
  "usages": 7981,
  "urious": 7982,
  "urry": 7983,
  "urrender": 7984,
  "undred": 7985,
  "university": 7986,
  "united": 7987,
  "umpled": 7988,
  "ummies": 7989,
  "umed": 7990,
  "uliar": 7991,
  "uffed": 7992,
  "uction": 7993,
  "uced": 7994,
  "ubbing": 7995,
  "toes": 7996,
  "tery": 7997,
  "ts": 7998,
  "tment": 7999,
  "tle": 8000,
  "then": 8001,
  "tally": 8002,
  "tage": 8003,
  "steps": 8004,
  "strated": 8005,
  "spicy": 8006,
  "sol": 8007,
  "solutely": 8008,
  "shua": 8009,
  "shr": 8010,
  "shrinky": 8011,
  "shoot": 8012,
  "shaped": 8013,
  "shadow": 8014,
  "scre": 8015,
  "screw": 8016,
  "sider": 8017,
  "sers": 8018,
  "send": 8019,
  "saw": 8020,
  "rrrr": 8021,
  "rowave": 8022,
  "ronaut": 8023,
  "romise": 8024,
  "roken": 8025,
  "rocodile": 8026,
  "roccoli": 8027,
  "roat": 8028,
  "rior": 8029,
  "return": 8030,
  "retching": 8031,
  "rent": 8032,
  "reet": 8033,
  "rase": 8034,
  "rabs": 8035,
  "ruits": 8036,
  "rings": 8037,
  "quered": 8038,
  "prom": 8039,
  "promise": 8040,
  "print": 8041,
  "ppos": 8042,
  "pposite": 8043,
  "parable": 8044,
  "put": 8045,
  "pow": 8046,
  "po": 8047,
  "poison": 8048,
  "piece": 8049,
  "phere": 8050,
  "pan": 8051,
  "ownie": 8052,
  "outines": 8053,
  "outed": 8054,
  "ountered": 8055,
  "oughed": 8056,
  "ouches": 8057,
  "ottage": 8058,
  "otion": 8059,
  "othing": 8060,
  "osure": 8061,
  "osphere": 8062,
  "ortunately": 8063,
  "orever": 8064,
  "ords": 8065,
  "orant": 8066,
  "ooves": 8067,
  "onstrated": 8068,
  "onna": 8069,
  "oline": 8070,
  "oever": 8071,
  "oving": 8072,
  "oscope": 8073,
  "opped": 8074,
  "oco": 8075,
  "oah": 8076,
  "ntil": 8077,
  "new": 8078,
  "newed": 8079,
  "neath": 8080,
  "nc": 8081,
  "meal": 8082,
  "mosphere": 8083,
  "melon": 8084,
  "mar": 8085,
  "marriage": 8086,
  "llin": 8087,
  "lee": 8088,
  "losure": 8089,
  "line": 8090,
  "lide": 8091,
  "lay": 8092,
  "lap": 8093,
  "keeping": 8094,
  "ks": 8095,
  "kle": 8096,
  "joiced": 8097,
  "jured": 8098,
  "jest": 8099,
  "izon": 8100,
  "ives": 8101,
  "ively": 8102,
  "ittered": 8103,
  "itted": 8104,
  "itude": 8105,
  "istening": 8106,
  "ists": 8107,
  "istling": 8108,
  "isies": 8109,
  "irce": 8110,
  "irac": 8111,
  "ippers": 8112,
  "ippee": 8113,
  "inema": 8114,
  "inctively": 8115,
  "inner": 8116,
  "inching": 8117,
  "imals": 8118,
  "imits": 8119,
  "ildren": 8120,
  "iliar": 8121,
  "icky": 8122,
  "iciest": 8123,
  "icated": 8124,
  "icate": 8125,
  "ivery": 8126,
  "hings": 8127,
  "hew": 8128,
  "hef": 8129,
  "heap": 8130,
  "hap": 8131,
  "haps": 8132,
  "gnorant": 8133,
  "ggies": 8134,
  "gth": 8135,
  "gic": 8136,
  "feree": 8137,
  "freeze": 8138,
  "fire": 8139,
  "ethoscope": 8140,
  "etops": 8141,
  "etite": 8142,
  "ercise": 8143,
  "erve": 8144,
  "erm": 8145,
  "ergic": 8146,
  "erf": 8147,
  "ending": 8148,
  "endant": 8149,
  "ength": 8150,
  "enery": 8151,
  "emies": 8152,
  "embers": 8153,
  "elax": 8154,
  "ears": 8155,
  "eading": 8156,
  "eers": 8157,
  "eaky": 8158,
  "eah": 8159,
  "eady": 8160,
  "dream": 8161,
  "dink": 8162,
  "date": 8163,
  "creams": 8164,
  "crease": 8165,
  "colored": 8166,
  "covered": 8167,
  "cloud": 8168,
  "ckly": 8169,
  "cidents": 8170,
  "cho": 8171,
  "chard": 8172,
  "ceeded": 8173,
  "cept": 8174,
  "cakes": 8175,
  "cuments": 8176,
  "cled": 8177,
  "cers": 8178,
  "cent": 8179,
  "ccidents": 8180,
  "can": 8181,
  "cal": 8182,
  "bris": 8183,
  "boos": 8184,
  "boards": 8185,
  "beep": 8186,
  "bbers": 8187,
  "broken": 8188,
  "boy": 8189,
  "bird": 8190,
  "bell": 8191,
  "bank": 8192,
  "bang": 8193,
  "bage": 8194,
  "aying": 8195,
  "awked": 8196,
  "auli": 8197,
  "atest": 8198,
  "atform": 8199,
  "arness": 8200,
  "armer": 8201,
  "arlings": 8202,
  "arefully": 8203,
  "arsh": 8204,
  "arity": 8205,
  "arget": 8206,
  "arger": 8207,
  "apple": 8208,
  "antastic": 8209,
  "aning": 8210,
  "ampoline": 8211,
  "amiliar": 8212,
  "allow": 8213,
  "adually": 8214,
  "ads": 8215,
  "achine": 8216,
  "ausages": 8217,
  "aa": 8218,
  "Zip": 8219,
  "Yippee": 8220,
  "Yield": 8221,
  "Yeah": 8222,
  "Wouldn": 8223,
  "Whistling": 8224,
  "Work": 8225,
  "Woah": 8226,
  "Wisdom": 8227,
  "Wake": 8228,
  "Vivi": 8229,
  "Under": 8230,
  "Three": 8231,
  "Though": 8232,
  "Trust": 8233,
  "Toys": 8234,
  "Terry": 8235,
  "Tara": 8236,
  "TH": 8237,
  "Spirit": 8238,
  "Spin": 8239,
  "Spidey": 8240,
  "Slowly": 8241,
  "Shut": 8242,
  "Shh": 8243,
  "Samantha": 8244,
  "Summer": 8245,
  "Su": 8246,
  "Sque": 8247,
  "Splash": 8248,
  "Sn": 8249,
  "Sleep": 8250,
  "Sit": 8251,
  "Seth": 8252,
  "Sean": 8253,
  "Seal": 8254,
  "Sadly": 8255,
  "Rocky": 8256,
  "Rover": 8257,
  "Rollie": 8258,
  "Rug": 8259,
  "Ruff": 8260,
  "Rocco": 8261,
  "Rabbit": 8262,
  "RE": 8263,
  "Princess": 8264,
  "Pepper": 8265,
  "Pop": 8266,
  "Play": 8267,
  "Penny": 8268,
  "Outside": 8269,
  "Only": 8270,
  "Open": 8271,
  "OX": 8272,
  "Nate": 8273,
  "NG": 8274,
  "Maya": 8275,
  "Marie": 8276,
  "Maria": 8277,
  "Michael": 8278,
  "Malerious": 8279,
  "Machine": 8280,
  "Mabel": 8281,
  "Looks": 8282,
  "Love": 8283,
  "Lola": 8284,
  "Lizzie": 8285,
  "Liz": 8286,
  "Listen": 8287,
  "Lilly": 8288,
  "Larry": 8289,
  "LB": 8290,
  "LBOX": 8291,
  "Keep": 8292,
  "Kids": 8293,
  "Kelly": 8294,
  "Joshua": 8295,
  "June": 8296,
  "Julie": 8297,
  "Joy": 8298,
  "Jordan": 8299,
  "Jolly": 8300,
  "Jacob": 8301,
  "Instead": 8302,
  "Ignorant": 8303,
  "ING": 8304,
  "ILBOX": 8305,
  "Hooray": 8306,
  "Hippy": 8307,
  "Herb": 8308,
  "Hair": 8309,
  "Goal": 8310,
  "Got": 8311,
  "Get": 8312,
  "Gather": 8313,
  "Fox": 8314,
  "Finn": 8315,
  "Freeze": 8316,
  "Fix": 8317,
  "Elsa": 8318,
  "Elly": 8319,
  "Elephant": 8320,
  "Ed": 8321,
  "Each": 8322,
  "Duck": 8323,
  "Down": 8324,
  "Dino": 8325,
  "Despite": 8326,
  "Days": 8327,
  "Cs": 8328,
  "Crabs": 8329,
  "Count": 8330,
  "Coco": 8331,
  "Cheap": 8332,
  "Cari": 8333,
  "Car": 8334,
  "Brownie": 8335,
  "Brad": 8336,
  "Betsy": 8337,
  "Beep": 8338,
  "Brrr": 8339,
  "Boy": 8340,
  "Both": 8341,
  "Bop": 8342,
  "Bless": 8343,
  "Believe": 8344,
  "Back": 8345,
  "Baa": 8346,
  "BCs": 8347,
  "Always": 8348,
  "Alright": 8349,
  "ANT": 8350,
  "Arthur": 8351,
  "Ant": 8352,
  "Amanda": 8353,
  "Aid": 8354,
  "Ah": 8355,
  "Abigail": 8356,
  "Abby": 8357,
  "AILBOX": 8358,
  "?âĢĿ.": 8359,
  "?!\"": 8360,
  ".''": 8361,
  "'.\"": 8362,
  "\"!": 8363,
  "ĠâĢĶ": 8364,
  "Ġzebras": 8365,
  "Ġyourselves": 8366,
  "Ġyielding": 8367,
  "Ġyielded": 8368,
  "Ġyelped": 8369,
  "Ġwraps": 8370,
  "Ġwrapper": 8371,
  "Ġworst": 8372,
  "Ġwobbling": 8373,
  "Ġwithin": 8374,
  "Ġwisest": 8375,
  "Ġwinds": 8376,
  "Ġwhoever": 8377,
  "Ġwhiskers": 8378,
  "Ġwhipped": 8379,
  "Ġwhine": 8380,
  "Ġwhales": 8381,
  "Ġweekends": 8382,
  "Ġweapons": 8383,
  "Ġweaker": 8384,
  "Ġwatermelon": 8385,
  "Ġwashes": 8386,
  "Ġwarrior": 8387,
  "Ġwax": 8388,
  "Ġwanna": 8389,
  "Ġwaking": 8390,
  "Ġwadd": 8391,
  "Ġvolunteers": 8392,
  "Ġvolunteer": 8393,
  "Ġvisitors": 8394,
  "Ġvillian": 8395,
  "Ġvial": 8396,
  "Ġventure": 8397,
  "Ġvehicles": 8398,
  "Ġveggies": 8399,
  "Ġuses": 8400,
  "Ġunwrap": 8401,
  "Ġuntwist": 8402,
  "Ġuntie": 8403,
  "Ġunlocks": 8404,
  "Ġunfamiliar": 8405,
  "Ġunderstands": 8406,
  "Ġunderneath": 8407,
  "Ġundo": 8408,
  "Ġunzip": 8409,
  "Ġunscrew": 8410,
  "Ġunless": 8411,
  "Ġunable": 8412,
  "Ġtypes": 8413,
  "Ġtwitched": 8414,
  "Ġtweet": 8415,
  "Ġtreated": 8416,
  "Ġtreetops": 8417,
  "Ġtravelled": 8418,
  "Ġtraveler": 8419,
  "Ġtransformed": 8420,
  "Ġtrampoline": 8421,
  "Ġtongues": 8422,
  "Ġtotally": 8423,
  "Ġtiredness": 8424,
  "Ġtips": 8425,
  "Ġtidied": 8426,
  "Ġtickets": 8427,
  "Ġthoughts": 8428,
  "Ġthinner": 8429,
  "Ġthroat": 8430,
  "Ġtests": 8431,
  "Ġtents": 8432,
  "Ġtemperature": 8433,
  "Ġtesting": 8434,
  "Ġtangled": 8435,
  "Ġtummies": 8436,
  "Ġtumbled": 8437,
  "Ġtugging": 8438,
  "Ġtuck": 8439,
  "Ġtippy": 8440,
  "Ġties": 8441,
  "Ġtarget": 8442,
  "Ġswimsuits": 8443,
  "Ġsweetly": 8444,
  "Ġsweetest": 8445,
  "Ġsweeping": 8446,
  "Ġswaying": 8447,
  "Ġswat": 8448,
  "Ġsurprising": 8449,
  "Ġsurface": 8450,
  "Ġsuits": 8451,
  "Ġsuffering": 8452,
  "Ġsuccesses": 8453,
  "Ġsupper": 8454,
  "Ġstroking": 8455,
  "Ġstretches": 8456,
  "Ġstrengthen": 8457,
  "Ġstrum": 8458,
  "Ġstorekeeper": 8459,
  "Ġstormy": 8460,
  "Ġstored": 8461,
  "Ġstomped": 8462,
  "Ġstinging": 8463,
  "Ġstiff": 8464,
  "Ġstethoscope": 8465,
  "Ġsqueezing": 8466,
  "Ġsquares": 8467,
  "Ġsquawked": 8468,
  "Ġsprinkled": 8469,
  "Ġsprinkle": 8470,
  "Ġsprings": 8471,
  "Ġsprang": 8472,
  "Ġspoonful": 8473,
  "Ġsplasher": 8474,
  "Ġspinach": 8475,
  "Ġspelling": 8476,
  "Ġspeeds": 8477,
  "Ġspeeding": 8478,
  "Ġsparks": 8479,
  "Ġspaceship": 8480,
  "Ġspades": 8481,
  "Ġsolving": 8482,
  "Ġsoftness": 8483,
  "Ġsoftest": 8484,
  "Ġsoothing": 8485,
  "Ġsnowballs": 8486,
  "Ġsniffled": 8487,
  "Ġsniffing": 8488,
  "Ġsneezing": 8489,
  "Ġsnoring": 8490,
  "Ġsnatches": 8491,
  "Ġsnar": 8492,
  "Ġsnapping": 8493,
  "Ġsmoother": 8494,
  "Ġsmartest": 8495,
  "Ġslices": 8496,
  "Ġsleeps": 8497,
  "Ġsleek": 8498,
  "Ġsled": 8499,
  "Ġskirts": 8500,
  "Ġskilled": 8501,
  "Ġsixty": 8502,
  "Ġsincere": 8503,
  "Ġsideways": 8504,
  "Ġshrunk": 8505,
  "Ġshrinking": 8506,
  "Ġshorts": 8507,
  "Ġshoots": 8508,
  "Ġshooter": 8509,
  "Ġsharped": 8510,
  "Ġshaped": 8511,
  "Ġshh": 8512,
  "Ġshame": 8513,
  "Ġsets": 8514,
  "Ġserving": 8515,
  "Ġsensation": 8516,
  "Ġself": 8517,
  "Ġseeker": 8518,
  "Ġsecure": 8519,
  "Ġseagulls": 8520,
  "Ġseaweed": 8521,
  "Ġscurrying": 8522,
  "Ġscratching": 8523,
  "Ġscrubbing": 8524,
  "Ġscooping": 8525,
  "Ġscolds": 8526,
  "Ġscares": 8527,
  "Ġscri": 8528,
  "Ġscra": 8529,
  "Ġscience": 8530,
  "Ġscenery": 8531,
  "Ġsavor": 8532,
  "Ġsatisf": 8533,
  "Ġsalon": 8534,
  "Ġsafekeeping": 8535,
  "Ġsuspic": 8536,
  "Ġsizz": 8537,
  "Ġsipping": 8538,
  "Ġruled": 8539,
  "Ġrubs": 8540,
  "Ġrotten": 8541,
  "Ġroofs": 8542,
  "Ġrolls": 8543,
  "Ġrole": 8544,
  "Ġrocked": 8545,
  "Ġrobbers": 8546,
  "Ġriverbank": 8547,
  "Ġrisky": 8548,
  "Ġribbit": 8549,
  "Ġresults": 8550,
  "Ġrestoring": 8551,
  "Ġresumed": 8552,
  "Ġresisted": 8553,
  "Ġreplacing": 8554,
  "Ġrepairs": 8555,
  "Ġremaining": 8556,
  "Ġremembers": 8557,
  "Ġrefreshing": 8558,
  "Ġrecipe": 8559,
  "Ġreappeared": 8560,
  "Ġreader": 8561,
  "Ġrewards": 8562,
  "Ġreunited": 8563,
  "Ġrenewed": 8564,
  "Ġrely": 8565,
  "Ġrejoiced": 8566,
  "Ġreferee": 8567,
  "Ġreason": 8568,
  "Ġrats": 8569,
  "Ġrags": 8570,
  "Ġracer": 8571,
  "Ġruff": 8572,
  "Ġroutines": 8573,
  "Ġrises": 8574,
  "Ġriddle": 8575,
  "Ġquieter": 8576,
  "Ġquacks": 8577,
  "Ġpurch": 8578,
  "Ġpupils": 8579,
  "Ġpunishment": 8580,
  "Ġprotection": 8581,
  "Ġpromising": 8582,
  "Ġproved": 8583,
  "Ġproceeded": 8584,
  "Ġprincesses": 8585,
  "Ġprices": 8586,
  "Ġprized": 8587,
  "Ġprickly": 8588,
  "Ġprepar": 8589,
  "Ġpraying": 8590,
  "Ġpostcard": 8591,
  "Ġpopsicle": 8592,
  "Ġposter": 8593,
  "Ġpose": 8594,
  "Ġpos": 8595,
  "Ġpollin": 8596,
  "Ġpollen": 8597,
  "Ġplums": 8598,
  "Ġplaydate": 8599,
  "Ġplanting": 8600,
  "Ġplanning": 8601,
  "Ġplunged": 8602,
  "Ġplugged": 8603,
  "Ġplatform": 8604,
  "Ġplacing": 8605,
  "Ġphrase": 8606,
  "Ġpets": 8607,
  "Ġpermitted": 8608,
  "Ġperformed": 8609,
  "Ġperhaps": 8610,
  "Ġpeels": 8611,
  "Ġpedaling": 8612,
  "Ġpeculiar": 8613,
  "Ġpeacefully": 8614,
  "Ġpeck": 8615,
  "Ġpays": 8616,
  "Ġpawed": 8617,
  "Ġpartners": 8618,
  "Ġpanicking": 8619,
  "Ġpancakes": 8620,
  "Ġpaddled": 8621,
  "Ġpaddle": 8622,
  "Ġpacking": 8623,
  "Ġpuck": 8624,
  "Ġpry": 8625,
  "Ġpouted": 8626,
  "Ġpouch": 8627,
  "Ġpoop": 8628,
  "Ġpendant": 8629,
  "Ġpang": 8630,
  "Ġpace": 8631,
  "Ġowns": 8632,
  "Ġovercome": 8633,
  "Ġoutsm": 8634,
  "Ġoutcome": 8635,
  "Ġorders": 8636,
  "Ġorchard": 8637,
  "Ġonward": 8638,
  "Ġobeyed": 8639,
  "Ġoatmeal": 8640,
  "Ġopposite": 8641,
  "Ġnotes": 8642,
  "Ġnightmares": 8643,
  "Ġnights": 8644,
  "Ġnibbled": 8645,
  "Ġnests": 8646,
  "Ġneighbours": 8647,
  "Ġneedles": 8648,
  "Ġnecklaces": 8649,
  "Ġnaps": 8650,
  "Ġnapkins": 8651,
  "Ġnu": 8652,
  "Ġmustn": 8653,
  "Ġmugs": 8654,
  "Ġmooed": 8655,
  "Ġmischievously": 8656,
  "Ġmisty": 8657,
  "Ġmindful": 8658,
  "Ġmicrowave": 8659,
  "Ġmessages": 8660,
  "Ġmesmerised": 8661,
  "Ġmeowing": 8662,
  "Ġmeetings": 8663,
  "Ġmeals": 8664,
  "Ġmattered": 8665,
  "Ġmaterial": 8666,
  "Ġmasterpiece": 8667,
  "Ġmarketplace": 8668,
  "Ġmagician": 8669,
  "Ġmushy": 8670,
  "Ġmow": 8671,
  "Ġmirac": 8672,
  "Ġloops": 8673,
  "Ġloading": 8674,
  "Ġlosing": 8675,
  "Ġlosers": 8676,
  "Ġlocal": 8677,
  "Ġlifts": 8678,
  "Ġlectures": 8679,
  "Ġleaping": 8680,
  "Ġleans": 8681,
  "Ġleaks": 8682,
  "Ġlawyers": 8683,
  "Ġlandslide": 8684,
  "Ġlabels": 8685,
  "Ġlazily": 8686,
  "Ġlength": 8687,
  "Ġlarger": 8688,
  "Ġknives": 8689,
  "Ġknit": 8690,
  "Ġkissing": 8691,
  "Ġkeyboard": 8692,
  "Ġkings": 8693,
  "Ġjustice": 8694,
  "Ġjoyful": 8695,
  "Ġjoining": 8696,
  "Ġjaws": 8697,
  "Ġironing": 8698,
  "Ġintroduced": 8699,
  "Ġintently": 8700,
  "Ġinstrument": 8701,
  "Ġinsists": 8702,
  "Ġinsects": 8703,
  "Ġinseparable": 8704,
  "Ġinches": 8705,
  "Ġinjured": 8706,
  "Ġinched": 8707,
  "Ġimaginations": 8708,
  "Ġhumming": 8709,
  "Ġhorrible": 8710,
  "Ġhorizon": 8711,
  "Ġhooks": 8712,
  "Ġholidays": 8713,
  "Ġhiss": 8714,
  "Ġherbs": 8715,
  "Ġheels": 8716,
  "Ġheadache": 8717,
  "Ġheights": 8718,
  "Ġheav": 8719,
  "Ġheater": 8720,
  "Ġharming": 8721,
  "Ġhated": 8722,
  "Ġhalves": 8723,
  "Ġhundred": 8724,
  "Ġhour": 8725,
  "Ġhooves": 8726,
  "Ġharness": 8727,
  "Ġguessing": 8728,
  "Ġguardian": 8729,
  "Ġgreens": 8730,
  "Ġgreater": 8731,
  "Ġgreed": 8732,
  "Ġgreatest": 8733,
  "Ġgranddaughter": 8734,
  "Ġgrazing": 8735,
  "Ġgracious": 8736,
  "Ġgrumbling": 8737,
  "Ġgrumbled": 8738,
  "Ġgradually": 8739,
  "Ġgoodness": 8740,
  "Ġglimmer": 8741,
  "Ġglistening": 8742,
  "Ġglided": 8743,
  "Ġgiggles": 8744,
  "Ġgenerously": 8745,
  "Ġgems": 8746,
  "Ġgardening": 8747,
  "Ġgarbage": 8748,
  "Ġgroom": 8749,
  "Ġgonna": 8750,
  "Ġglee": 8751,
  "Ġfunn": 8752,
  "Ġfulfilled": 8753,
  "Ġfrowns": 8754,
  "Ġfreedom": 8755,
  "Ġforgives": 8756,
  "Ġfootsteps": 8757,
  "Ġfocused": 8758,
  "Ġfluttering": 8759,
  "Ġfluttered": 8760,
  "Ġfleas": 8761,
  "Ġflashlights": 8762,
  "Ġflaps": 8763,
  "Ġflu": 8764,
  "Ġflipping": 8765,
  "Ġflippers": 8766,
  "Ġflipped": 8767,
  "Ġflick": 8768,
  "Ġflas": 8769,
  "Ġfires": 8770,
  "Ġfilth": 8771,
  "Ġfeast": 8772,
  "Ġfasten": 8773,
  "Ġfarmers": 8774,
  "Ġfairness": 8775,
  "Ġfacts": 8776,
  "Ġfailed": 8777,
  "Ġfail": 8778,
  "Ġfried": 8779,
  "Ġfantastic": 8780,
  "Ġfading": 8781,
  "Ġfade": 8782,
  "Ġexplorers": 8783,
  "Ġexploration": 8784,
  "Ġexplains": 8785,
  "Ġexpert": 8786,
  "Ġexercising": 8787,
  "Ġexamining": 8788,
  "Ġexch": 8789,
  "Ġexcept": 8790,
  "Ġentering": 8791,
  "Ġenjoys": 8792,
  "Ġencourag": 8793,
  "Ġencountered": 8794,
  "Ġenclosure": 8795,
  "Ġenemies": 8796,
  "Ġembraced": 8797,
  "Ġelbows": 8798,
  "Ġearrings": 8799,
  "Ġeagerness": 8800,
  "Ġecho": 8801,
  "Ġearned": 8802,
  "Ġdustpan": 8803,
  "Ġdressing": 8804,
  "Ġdrawn": 8805,
  "Ġdrains": 8806,
  "Ġdrown": 8807,
  "Ġdots": 8808,
  "Ġdoorway": 8809,
  "Ġdoorbell": 8810,
  "Ġdollars": 8811,
  "Ġdocuments": 8812,
  "Ġdisappointment": 8813,
  "Ġdirection": 8814,
  "Ġdinners": 8815,
  "Ġdivided": 8816,
  "Ġdeserved": 8817,
  "Ġdescri": 8818,
  "Ġdemands": 8819,
  "Ġdemonstrated": 8820,
  "Ġdelayed": 8821,
  "Ġdelivery": 8822,
  "Ġdevastated": 8823,
  "Ġdeeds": 8824,
  "Ġdebris": 8825,
  "Ġdeb": 8826,
  "Ġdaydream": 8827,
  "Ġdarted": 8828,
  "Ġdancers": 8829,
  "Ġdaisies": 8830,
  "Ġdu": 8831,
  "Ġdip": 8832,
  "Ġdart": 8833,
  "Ġdarlings": 8834,
  "Ġdamp": 8835,
  "Ġcurrent": 8836,
  "Ġcroak": 8837,
  "Ġcreamy": 8838,
  "Ġcreams": 8839,
  "Ġcrew": 8840,
  "Ġcreations": 8841,
  "Ġcreaked": 8842,
  "Ġcreak": 8843,
  "Ġcracks": 8844,
  "Ġcrumpled": 8845,
  "Ġcruel": 8846,
  "Ġcowboy": 8847,
  "Ġcountryside": 8848,
  "Ġcouple": 8849,
  "Ġcostly": 8850,
  "Ġcorrectly": 8851,
  "Ġcords": 8852,
  "Ġcooperate": 8853,
  "Ġconvincing": 8854,
  "Ġcontentment": 8855,
  "Ġcontents": 8856,
  "Ġcongratulations": 8857,
  "Ġcongratulated": 8858,
  "Ġconcern": 8859,
  "Ġconsider": 8860,
  "Ġconquered": 8861,
  "Ġcompleting": 8862,
  "Ġcomplicated": 8863,
  "Ġcompared": 8864,
  "Ġcommotion": 8865,
  "Ġcommand": 8866,
  "Ġcombined": 8867,
  "Ġcompromise": 8868,
  "Ġcommon": 8869,
  "Ġcollapsed": 8870,
  "Ġcolder": 8871,
  "Ġcobwebs": 8872,
  "Ġcosy": 8873,
  "Ġcloths": 8874,
  "Ġcleans": 8875,
  "Ġcleared": 8876,
  "Ġclasses": 8877,
  "Ġclack": 8878,
  "Ġcircled": 8879,
  "Ġcherished": 8880,
  "Ġchecking": 8881,
  "Ġcheers": 8882,
  "Ġchalks": 8883,
  "Ġchains": 8884,
  "Ġchip": 8885,
  "Ġchilly": 8886,
  "Ġchattered": 8887,
  "Ġchatted": 8888,
  "Ġcharity": 8889,
  "Ġcarpenter": 8890,
  "Ġcares": 8891,
  "Ġcardinal": 8892,
  "Ġcarries": 8893,
  "Ġcapture": 8894,
  "Ġcans": 8895,
  "Ġcanary": 8896,
  "Ġcampfire": 8897,
  "Ġcalming": 8898,
  "Ġcautiously": 8899,
  "Ġcaused": 8900,
  "Ġcustomer": 8901,
  "Ġcoughed": 8902,
  "Ġcotton": 8903,
  "Ġcottage": 8904,
  "Ġcinema": 8905,
  "Ġbuying": 8906,
  "Ġbusiness": 8907,
  "Ġburnt": 8908,
  "Ġbuggy": 8909,
  "Ġbuckles": 8910,
  "Ġbubbly": 8911,
  "Ġbudge": 8912,
  "Ġbrushing": 8913,
  "Ġbreaths": 8914,
  "Ġbride": 8915,
  "Ġbowing": 8916,
  "Ġbond": 8917,
  "Ġboast": 8918,
  "Ġblinks": 8919,
  "Ġblushed": 8920,
  "Ġblinking": 8921,
  "Ġblade": 8922,
  "Ġbits": 8923,
  "Ġbills": 8924,
  "Ġbicycles": 8925,
  "Ġbending": 8926,
  "Ġbenches": 8927,
  "Ġbelts": 8928,
  "Ġbelongings": 8929,
  "Ġbells": 8930,
  "Ġbehavior": 8931,
  "Ġbeeped": 8932,
  "Ġbeautifully": 8933,
  "Ġbeating": 8934,
  "Ġbeam": 8935,
  "Ġbeads": 8936,
  "Ġbattle": 8937,
  "Ġbathed": 8938,
  "Ġbarrels": 8939,
  "Ġbars": 8940,
  "Ġbanging": 8941,
  "Ġballet": 8942,
  "Ġbackpacks": 8943,
  "Ġbackgrounds": 8944,
  "Ġbaa": 8945,
  "Ġbank": 8946,
  "Ġaware": 8947,
  "Ġattaching": 8948,
  "Ġatmosphere": 8949,
  "Ġastronaut": 8950,
  "Ġargument": 8951,
  "Ġaprons": 8952,
  "Ġappreciation": 8953,
  "Ġappl": 8954,
  "Ġappetite": 8955,
  "Ġanytime": 8956,
  "Ġanticipation": 8957,
  "Ġankle": 8958,
  "Ġanger": 8959,
  "Ġamong": 8960,
  "Ġallowing": 8961,
  "Ġallergic": 8962,
  "Ġalthough": 8963,
  "Ġaffect": 8964,
  "Ġadmiration": 8965,
  "Ġaddress": 8966,
  "Ġaddition": 8967,
  "Ġadult": 8968,
  "Ġactive": 8969,
  "Ġaction": 8970,
  "Ġability": 8971,
  "Ġaward": 8972,
  "Ġais": 8973,
  "ĠZog": 8974,
  "ĠYuck": 8975,
  "ĠWorld": 8976,
  "ĠWolf": 8977,
  "ĠWhoever": 8978,
  "ĠWE": 8979,
  "ĠWANT": 8980,
  "ĠUntil": 8981,
  "ĠTuesdays": 8982,
  "ĠTomato": 8983,
  "ĠTime": 8984,
  "ĠThink": 8985,
  "ĠTurkey": 8986,
  "ĠTrust": 8987,
  "ĠTrucky": 8988,
  "ĠToo": 8989,
  "ĠTiger": 8990,
  "ĠTape": 8991,
  "ĠTO": 8992,
  "ĠTHAT": 8993,
  "ĠStore": 8994,
  "ĠSteven": 8995,
  "ĠSneaky": 8996,
  "ĠSmoke": 8997,
  "ĠShould": 8998,
  "ĠShall": 8999,
  "ĠSamantha": 9000,
  "ĠSweet": 9001,
  "ĠSusan": 9002,
  "ĠSure": 9003,
  "ĠSoup": 9004,
  "ĠSit": 9005,
  "ĠSean": 9006,
  "ĠSave": 9007,
  "ĠSausages": 9008,
  "ĠRun": 9009,
  "ĠRiding": 9010,
  "ĠReady": 9011,
  "ĠReading": 9012,
  "ĠPlaying": 9013,
  "ĠPretty": 9014,
  "ĠPoula": 9015,
  "ĠPinching": 9016,
  "ĠPilot": 9017,
  "ĠPaper": 9018,
  "ĠOwn": 9019,
  "ĠOther": 9020,
  "ĠOlive": 9021,
  "ĠOh": 9022,
  "ĠMusician": 9023,
  "ĠMei": 9024,
  "ĠMore": 9025,
  "ĠMine": 9026,
  "ĠMelon": 9027,
  "ĠMan": 9028,
  "ĠMaking": 9029,
  "ĠMake": 9030,
  "ĠMAILBOX": 9031,
  "ĠLife": 9032,
  "ĠJoshua": 9033,
  "ĠJump": 9034,
  "ĠJudge": 9035,
  "ĠJordan": 9036,
  "ĠInstantly": 9037,
  "ĠIce": 9038,
  "ĠHooray": 9039,
  "ĠHiding": 9040,
  "ĠHand": 9041,
  "ĠHa": 9042,
  "ĠGiving": 9043,
  "ĠFriendship": 9044,
  "ĠForgiving": 9045,
  "ĠFreeze": 9046,
  "ĠForever": 9047,
  "ĠFarmer": 9048,
  "ĠEating": 9049,
  "ĠEAT": 9050,
  "ĠDavey": 9051,
  "ĠDusty": 9052,
  "ĠDO": 9053,
  "ĠClimbing": 9054,
  "ĠClear": 9055,
  "ĠCars": 9056,
  "ĠCrocodile": 9057,
  "ĠCrayons": 9058,
  "ĠChef": 9059,
  "ĠCauli": 9060,
  "ĠCarefully": 9061,
  "ĠBlob": 9062,
  "ĠBlack": 9063,
  "ĠBull": 9064,
  "ĠBulb": 9065,
  "ĠBroccoli": 9066,
  "ĠBoy": 9067,
  "ĠBooks": 9068,
  "ĠBelieve": 9069,
  "ĠBarney": 9070,
  "ĠBall": 9071,
  "ĠAnother": 9072,
  "ĠAnimals": 9073,
  "ĠAcorns": 9074,
  "ĠAutomobiles": 9075,
  "ĠAunt": 9076,
  "ĠAmanda": 9077,
  "ĠAlya": 9078,
  "ĠAccidents": 9079,
  "ĠABCs": 9080,
  "Ġ10": 9081,
  "Ġ--": 9082,
  "Ġouches": 9083,
  "Ġill": 9084,
  "Ġ9": 9085,
  "Ġ4": 9086,
  "âĢĿ,": 9087,
  "âĢ¦": 9088,
  "âĢ¦âĢĿ": 9089,
  "zzles": 9090,
  "ziest": 9091,
  "zier": 9092,
  "ythag": 9093,
  "ythagor": 9094,
  "ythagoras": 9095,
  "ymen": 9096,
  "yme": 9097,
  "yers": 9098,
  "xture": 9099,
  "xed": 9100,
  "wells": 9101,
  "weetheart": 9102,
  "wy": 9103,
  "wise": 9104,
  "wing": 9105,
  "welcome": 9106,
  "vrooms": 9107,
  "versation": 9108,
  "verty": 9109,
  "vert": 9110,
  "vertising": 9111,
  "vering": 9112,
  "vented": 9113,
  "vels": 9114,
  "vell": 9115,
  "vellous": 9116,
  "vy": 9117,
  "vix": 9118,
  "vity": 9119,
  "vities": 9120,
  "vince": 9121,
  "vas": 9122,
  "vary": 9123,
  "vacy": 9124,
  "vable": 9125,
  "utching": 9126,
  "utron": 9127,
  "uted": 9128,
  "utched": 9129,
  "utation": 9130,
  "ustling": 9131,
  "usks": 9132,
  "uses": 9133,
  "urthermore": 9134,
  "urprised": 9135,
  "urnament": 9136,
  "uriosity": 9137,
  "uredly": 9138,
  "urs": 9139,
  "urking": 9140,
  "urity": 9141,
  "urf": 9142,
  "urfing": 9143,
  "urance": 9144,
  "urable": 9145,
  "uped": 9146,
  "unting": 9147,
  "until": 9148,
  "unted": 9149,
  "unned": 9150,
  "unken": 9151,
  "unicate": 9152,
  "unge": 9153,
  "unches": 9154,
  "unate": 9155,
  "umph": 9156,
  "umphant": 9157,
  "umbles": 9158,
  "umbers": 9159,
  "uliflower": 9160,
  "ulfed": 9161,
  "ulva": 9162,
  "ulpr": 9163,
  "ulprit": 9164,
  "ulks": 9165,
  "ulip": 9166,
  "ulge": 9167,
  "ulation": 9168,
  "ula": 9169,
  "uge": 9170,
  "uffs": 9171,
  "uffle": 9172,
  "uddies": 9173,
  "uding": 9174,
  "udges": 9175,
  "uder": 9176,
  "ucts": 9177,
  "ucumber": 9178,
  "ucted": 9179,
  "uclid": 9180,
  "ucle": 9181,
  "ucleus": 9182,
  "uise": 9183,
  "uis": 9184,
  "uisher": 9185,
  "uing": 9186,
  "uild": 9187,
  "turned": 9188,
  "tinguisher": 9189,
  "themed": 9190,
  "that": 9191,
  "terus": 9192,
  "ters": 9193,
  "terrup": 9194,
  "terrupted": 9195,
  "tern": 9196,
  "terns": 9197,
  "tter": 9198,
  "toys": 9199,
  "touch": 9200,
  "tled": 9201,
  "there": 9202,
  "tell": 9203,
  "telling": 9204,
  "tear": 9205,
  "taker": 9206,
  "take": 9207,
  "table": 9208,
  "stupid": 9209,
  "storm": 9210,
  "stones": 9211,
  "stir": 9212,
  "stinctively": 9213,
  "stick": 9214,
  "stein": 9215,
  "stand": 9216,
  "stands": 9217,
  "staking": 9218,
  "stakingly": 9219,
  "staff": 9220,
  "stac": 9221,
  "stacle": 9222,
  "ssomed": 9223,
  "spapers": 9224,
  "space": 9225,
  "shadowing": 9226,
  "shadowed": 9227,
  "shm": 9228,
  "shmallow": 9229,
  "shmallows": 9230,
  "shar": 9231,
  "sharp": 9232,
  "shake": 9233,
  "sently": 9234,
  "sey": 9235,
  "severed": 9236,
  "sear": 9237,
  "search": 9238,
  "surprise": 9239,
  "suring": 9240,
  "sue": 9241,
  "ssey": 9242,
  "spect": 9243,
  "sour": 9244,
  "sorry": 9245,
  "sled": 9246,
  "slap": 9247,
  "sk": 9248,
  "skating": 9249,
  "she": 9250,
  "sery": 9251,
  "sence": 9252,
  "sen": 9253,
  "sary": 9254,
  "sa": 9255,
  "sao": 9256,
  "saoged": 9257,
  "rrrrrr": 9258,
  "rotum": 9259,
  "romos": 9260,
  "romosome": 9261,
  "roduce": 9262,
  "roll": 9263,
  "roj": 9264,
  "rojan": 9265,
  "rmchair": 9266,
  "riendly": 9267,
  "rious": 9268,
  "rients": 9269,
  "rib": 9270,
  "ribute": 9271,
  "reth": 9272,
  "rethra": 9273,
  "rete": 9274,
  "ressions": 9275,
  "reetings": 9276,
  "reeny": 9277,
  "reams": 9278,
  "respect": 9279,
  "resently": 9280,
  "request": 9281,
  "rem": 9282,
  "remely": 9283,
  "reated": 9284,
  "rays": 9285,
  "rapher": 9286,
  "ragr": 9287,
  "ragrant": 9288,
  "racts": 9289,
  "rapt": 9290,
  "raptions": 9291,
  "rapped": 9292,
  "rain": 9293,
  "rac": 9294,
  "racted": 9295,
  "rustrated": 9296,
  "ruction": 9297,
  "ror": 9298,
  "rop": 9299,
  "ront": 9300,
  "rimp": 9301,
  "rime": 9302,
  "rid": 9303,
  "ridor": 9304,
  "rates": 9305,
  "rate": 9306,
  "ratefully": 9307,
  "rane": 9308,
  "quired": 9309,
  "quins": 9310,
  "puter": 9311,
  "ptop": 9312,
  "pting": 9313,
  "ptic": 9314,
  "ptical": 9315,
  "prints": 9316,
  "prinkle": 9317,
  "ppling": 9318,
  "pples": 9319,
  "powers": 9320,
  "plexed": 9321,
  "pleased": 9322,
  "pling": 9323,
  "pler": 9324,
  "phones": 9325,
  "perately": 9326,
  "perated": 9327,
  "pecting": 9328,
  "passed": 9329,
  "paired": 9330,
  "pop": 9331,
  "pitched": 9332,
  "pins": 9333,
  "phew": 9334,
  "ped": 9335,
  "pair": 9336,
  "owled": 9337,
  "owy": 9338,
  "owwy": 9339,
  "owsed": 9340,
  "ousins": 9341,
  "ousand": 9342,
  "ounded": 9343,
  "oulding": 9344,
  "ouching": 9345,
  "ouraged": 9346,
  "ourage": 9347,
  "ouched": 9348,
  "otle": 9349,
  "ostate": 9350,
  "orts": 9351,
  "orth": 9352,
  "orseful": 9353,
  "ormation": 9354,
  "orgeous": 9355,
  "oreshadowing": 9356,
  "ordinary": 9357,
  "orking": 9358,
  "oris": 9359,
  "orious": 9360,
  "original": 9361,
  "orget": 9362,
  "orgettable": 9363,
  "organ": 9364,
  "organized": 9365,
  "orched": 9366,
  "opted": 9367,
  "ootball": 9368,
  "ooped": 9369,
  "oons": 9370,
  "oomiest": 9371,
  "ooky": 9372,
  "oofy": 9373,
  "oodling": 9374,
  "oodles": 9375,
  "oodle": 9376,
  "oozy": 9377,
  "oozing": 9378,
  "oooo": 9379,
  "ooking": 9380,
  "ooked": 9381,
  "onus": 9382,
  "onon": 9383,
  "onished": 9384,
  "onies": 9385,
  "ompet": 9386,
  "ompetition": 9387,
  "omets": 9388,
  "olding": 9389,
  "olded": 9390,
  "olite": 9391,
  "olicking": 9392,
  "ogress": 9393,
  "ographer": 9394,
  "oggy": 9395,
  "oga": 9396,
  "ox": 9397,
  "over": 9398,
  "ossomed": 9399,
  "ohed": 9400,
  "off": 9401,
  "oem": 9402,
  "oems": 9403,
  "oard": 9404,
  "nytime": 9405,
  "ntroduce": 9406,
  "nicus": 9407,
  "ngel": 9408,
  "nessed": 9409,
  "nels": 9410,
  "nders": 9411,
  "ndition": 9412,
  "ncouraged": 9413,
  "nae": 9414,
  "normal": 9415,
  "niz": 9416,
  "nings": 9417,
  "nied": 9418,
  "next": 9419,
  "nec": 9420,
  "necked": 9421,
  "mony": 9422,
  "mingly": 9423,
  "mention": 9424,
  "meow": 9425,
  "maids": 9426,
  "munk": 9427,
  "moving": 9428,
  "mmediately": 9429,
  "mine": 9430,
  "mery": 9431,
  "mart": 9432,
  "mag": 9433,
  "magine": 9434,
  "lying": 9435,
  "lowing": 9436,
  "longer": 9437,
  "llent": 9438,
  "lessly": 9439,
  "lendid": 9440,
  "lest": 9441,
  "leen": 9442,
  "lech": 9443,
  "leasing": 9444,
  "lands": 9445,
  "lving": 9446,
  "lts": 9447,
  "lster": 9448,
  "lor": 9449,
  "loin": 9450,
  "lob": 9451,
  "limits": 9452,
  "like": 9453,
  "life": 9454,
  "lers": 9455,
  "len": 9456,
  "keys": 9457,
  "kipping": 9458,
  "jesty": 9459,
  "jestic": 9460,
  "jelly": 9461,
  "jar": 9462,
  "izziness": 9463,
  "izzed": 9464,
  "iversary": 9465,
  "ivore": 9466,
  "ivid": 9467,
  "ivate": 9468,
  "itts": 9469,
  "itties": 9470,
  "itte": 9471,
  "ithered": 9472,
  "itedly": 9473,
  "itcase": 9474,
  "itoris": 9475,
  "itnessed": 9476,
  "itive": 9477,
  "itic": 9478,
  "itician": 9479,
  "iticians": 9480,
  "itated": 9481,
  "istotle": 9482,
  "isputed": 9483,
  "ishments": 9484,
  "isey": 9485,
  "ism": 9486,
  "isible": 9487,
  "isen": 9488,
  "irruped": 9489,
  "irritated": 9490,
  "irted": 9491,
  "irls": 9492,
  "irling": 9493,
  "ircles": 9494,
  "inkly": 9495,
  "inkets": 9496,
  "inker": 9497,
  "ingly": 9498,
  "ingling": 9499,
  "ingled": 9500,
  "inging": 9501,
  "inger": 9502,
  "ingerly": 9503,
  "inged": 9504,
  "indulge": 9505,
  "indness": 9506,
  "indered": 9507,
  "incts": 9508,
  "instein": 9509,
  "innied": 9510,
  "initely": 9511,
  "increase": 9512,
  "incl": 9513,
  "include": 9514,
  "impering": 9515,
  "imped": 9516,
  "imedes": 9517,
  "ims": 9518,
  "immon": 9519,
  "immery": 9520,
  "iment": 9521,
  "imens": 9522,
  "imension": 9523,
  "imb": 9524,
  "ilts": 9525,
  "illed": 9526,
  "illary": 9527,
  "ileo": 9528,
  "ilst": 9529,
  "ili": 9530,
  "iliad": 9531,
  "ightning": 9532,
  "ightly": 9533,
  "ighting": 9534,
  "iggles": 9535,
  "ighing": 9536,
  "igger": 9537,
  "igers": 9538,
  "igeon": 9539,
  "igeons": 9540,
  "ifted": 9541,
  "ificate": 9542,
  "idded": 9543,
  "idance": 9544,
  "ication": 9545,
  "ically": 9546,
  "ibniz": 9547,
  "ibly": 9548,
  "ixture": 9549,
  "ius": 9550,
  "iara": 9551,
  "iance": 9552,
  "herer": 9553,
  "hers": 9554,
  "heets": 9555,
  "haved": 9556,
  "hunting": 9557,
  "hopped": 9558,
  "harsh": 9559,
  "hadow": 9560,
  "gnore": 9561,
  "ggings": 9562,
  "gging": 9563,
  "getting": 9564,
  "genc": 9565,
  "gencies": 9566,
  "gedy": 9567,
  "gesting": 9568,
  "gem": 9569,
  "good": 9570,
  "give": 9571,
  "gas": 9572,
  "gar": 9573,
  "gage": 9574,
  "frained": 9575,
  "fortune": 9576,
  "fortunate": 9577,
  "ferend": 9578,
  "fact": 9579,
  "faction": 9580,
  "full": 9581,
  "friendly": 9582,
  "free": 9583,
  "fly": 9584,
  "flowing": 9585,
  "five": 9586,
  "fired": 9587,
  "filled": 9588,
  "field": 9589,
  "fet": 9590,
  "fetime": 9591,
  "far": 9592,
  "fall": 9593,
  "ewspapers": 9594,
  "etchup": 9595,
  "etwork": 9596,
  "etched": 9597,
  "etah": 9598,
  "etahs": 9599,
  "estured": 9600,
  "ests": 9601,
  "estine": 9602,
  "espect": 9603,
  "esides": 9604,
  "ertificate": 9605,
  "erms": 9606,
  "erfume": 9607,
  "erfect": 9608,
  "ervix": 9609,
  "erves": 9610,
  "ernicus": 9611,
  "ernels": 9612,
  "ermaids": 9613,
  "erk": 9614,
  "erie": 9615,
  "ergency": 9616,
  "eped": 9617,
  "epe": 9618,
  "epeat": 9619,
  "entionally": 9620,
  "entre": 9621,
  "ender": 9622,
  "ended": 9623,
  "ennae": 9624,
  "ening": 9625,
  "emories": 9626,
  "emergency": 9627,
  "emain": 9628,
  "ellishments": 9629,
  "elaxing": 9630,
  "elve": 9631,
  "eluctantly": 9632,
  "eling": 9633,
  "elids": 9634,
  "elace": 9635,
  "effect": 9636,
  "effects": 9637,
  "eeking": 9638,
  "edly": 9639,
  "edication": 9640,
  "ection": 9641,
  "eched": 9642,
  "ecc": 9643,
  "ecca": 9644,
  "ebecca": 9645,
  "ezed": 9646,
  "eves": 9647,
  "either": 9648,
  "eft": 9649,
  "eeling": 9650,
  "ech": 9651,
  "earned": 9652,
  "dyssey": 9653,
  "dders": 9654,
  "ducts": 9655,
  "down": 9656,
  "dest": 9657,
  "dates": 9658,
  "cuts": 9659,
  "ctors": 9660,
  "ctum": 9661,
  "ctron": 9662,
  "ctions": 9663,
  "creas": 9664,
  "computer": 9665,
  "compassed": 9666,
  "coming": 9667,
  "comb": 9668,
  "cover": 9669,
  "cold": 9670,
  "coat": 9671,
  "clouds": 9672,
  "cluded": 9673,
  "clap": 9674,
  "cky": 9675,
  "cks": 9676,
  "ckled": 9677,
  "chanted": 9678,
  "chug": 9679,
  "chimedes": 9680,
  "children": 9681,
  "chairs": 9682,
  "cessories": 9683,
  "centrated": 9684,
  "cellent": 9685,
  "cule": 9686,
  "cuffs": 9687,
  "crime": 9688,
  "crete": 9689,
  "cred": 9690,
  "coon": 9691,
  "cited": 9692,
  "cissors": 9693,
  "cier": 9694,
  "chers": 9695,
  "cat": 9696,
  "car": 9697,
  "came": 9698,
  "bring": 9699,
  "bridge": 9700,
  "boat": 9701,
  "behaved": 9702,
  "beam": 9703,
  "balls": 9704,
  "build": 9705,
  "bsolutely": 9706,
  "bly": 9707,
  "bish": 9708,
  "bber": 9709,
  "bat": 9710,
  "bathe": 9711,
  "azzling": 9712,
  "azy": 9713,
  "aze": 9714,
  "axe": 9715,
  "awyers": 9716,
  "awing": 9717,
  "autiously": 9718,
  "autiful": 9719,
  "atters": 9720,
  "attering": 9721,
  "attractive": 9722,
  "attended": 9723,
  "attach": 9724,
  "aturedly": 9725,
  "ators": 9726,
  "atitude": 9727,
  "atherer": 9728,
  "athed": 9729,
  "astly": 9730,
  "asting": 9731,
  "asta": 9732,
  "asured": 9733,
  "asant": 9734,
  "arts": 9735,
  "artled": 9736,
  "artes": 9737,
  "artbroken": 9738,
  "arning": 9739,
  "arewells": 9740,
  "areful": 9741,
  "ardless": 9742,
  "arted": 9743,
  "appiness": 9744,
  "aple": 9745,
  "antum": 9746,
  "ants": 9747,
  "antically": 9748,
  "anky": 9749,
  "anks": 9750,
  "angrier": 9751,
  "angles": 9752,
  "andles": 9753,
  "ances": 9754,
  "anterns": 9755,
  "anner": 9756,
  "anion": 9757,
  "anced": 9758,
  "ampion": 9759,
  "ampered": 9760,
  "ambling": 9761,
  "ammer": 9762,
  "amine": 9763,
  "alleys": 9764,
  "allowed": 9765,
  "allic": 9766,
  "alks": 9767,
  "aly": 9768,
  "alth": 9769,
  "alizing": 9770,
  "ality": 9771,
  "alities": 9772,
  "alileo": 9773,
  "akers": 9774,
  "aint": 9775,
  "ageways": 9776,
  "ague": 9777,
  "agina": 9778,
  "ager": 9779,
  "adness": 9780,
  "adling": 9781,
  "adled": 9782,
  "ackle": 9783,
  "aces": 9784,
  "acon": 9785,
  "acles": 9786,
  "abby": 9787,
  "abbed": 9788,
  "away": 9789,
  "auliflower": 9790,
  "auge": 9791,
  "aos": 9792,
  "ajesty": 9793,
  "aive": 9794,
  "aisey": 9795,
  "ahed": 9796,
  "afe": 9797,
  "Zips": 9798,
  "Zigzag": 9799,
  "Ziggy": 9800,
  "Yoga": 9801,
  "Yesterday": 9802,
  "Years": 9803,
  "Yawn": 9804,
  "Without": 9805,
  "Wee": 9806,
  "Working": 9807,
  "Wild": 9808,
  "Whew": 9809,
  "Wet": 9810,
  "Wednesday": 9811,
  "Wear": 9812,
  "Wally": 9813,
  "WHAT": 9814,
  "WA": 9815,
  "WAR": 9816,
  "WARN": 9817,
  "WARNING": 9818,
  "Valleys": 9819,
  "Up": 9820,
  "Todd": 9821,
  "Theater": 9822,
  "TheE": 9823,
  "TheEnd": 9824,
  "Thomas": 9825,
  "THY": 9826,
  "Twinkle": 9827,
  "Turtle": 9828,
  "Tuna": 9829,
  "Trucky": 9830,
  "Tree": 9831,
  "Toy": 9832,
  "Tippy": 9833,
  "Things": 9834,
  "Taking": 9835,
  "Table": 9836,
  "Sunshine": 9837,
  "Suzy": 9838,
  "Suzie": 9839,
  "Stupid": 9840,
  "Stretching": 9841,
  "Store": 9842,
  "Stitch": 9843,
  "Stir": 9844,
  "Still": 9845,
  "Steven": 9846,
  "Stella": 9847,
  "Stealing": 9848,
  "Startled": 9849,
  "Stand": 9850,
  "Staff": 9851,
  "Squeeze": 9852,
  "Squeaky": 9853,
  "Spark": 9854,
  "Someone": 9855,
  "Soft": 9856,
  "Snowy": 9857,
  "Snake": 9858,
  "Shrink": 9859,
  "Shrimp": 9860,
  "Show": 9861,
  "Shoo": 9862,
  "Shiny": 9863,
  "Shhh": 9864,
  "Share": 9865,
  "Shall": 9866,
  "Sweetheart": 9867,
  "Surrender": 9868,
  "Surprised": 9869,
  "Sprinkle": 9870,
  "Spring": 9871,
  "Soy": 9872,
  "Sowwy": 9873,
  "Soup": 9874,
  "Smart": 9875,
  "Slap": 9876,
  "Size": 9877,
  "Six": 9878,
  "Since": 9879,
  "Sienna": 9880,
  "Serve": 9881,
  "Send": 9882,
  "SC": 9883,
  "SCRE": 9884,
  "SCREE": 9885,
  "SCREEC": 9886,
  "SCREECH": 9887,
  "Robby": 9888,
  "Roll": 9889,
  "Realizing": 9890,
  "Rrrrrrr": 9891,
  "Rise": 9892,
  "Right": 9893,
  "Ria": 9894,
  "Rhythm": 9895,
  "Remain": 9896,
  "Relax": 9897,
  "Red": 9898,
  "Ray": 9899,
  "Quickly": 9900,
  "Prince": 9901,
  "Popcorn": 9902,
  "People": 9903,
  "Promise": 9904,
  "Pretty": 9905,
  "Presently": 9906,
  "Pigeons": 9907,
  "Piano": 9908,
  "Perfect": 9909,
  "Percy": 9910,
  "Paws": 9911,
  "Patch": 9912,
  "Park": 9913,
  "Paper": 9914,
  "Papa": 9915,
  "PO": 9916,
  "POP": 9917,
  "Ohhh": 9918,
  "OKI": 9919,
  "OKIE": 9920,
  "OKIES": 9921,
  "Oysters": 9922,
  "Other": 9923,
  "Ooh": 9924,
  "OU": 9925,
  "OOKIES": 9926,
  "Nearby": 9927,
  "Nutty": 9928,
  "Nobody": 9929,
  "Nine": 9930,
  "Nice": 9931,
  "Newspapers": 9932,
  "Never": 9933,
  "Navy": 9934,
  "NO": 9935,
  "ND": 9936,
  "NA": 9937,
  "Morals": 9938,
  "Missile": 9939,
  "Marriage": 9940,
  "Mouse": 9941,
  "Mother": 9942,
  "Moppy": 9943,
  "Mo": 9944,
  "Mix": 9945,
  "Mind": 9946,
  "Mina": 9947,
  "Math": 9948,
  "Match": 9949,
  "Marry": 9950,
  "Mail": 9951,
  "Lilah": 9952,
  "Lets": 9953,
  "Lung": 9954,
  "Luke": 9955,
  "Looking": 9956,
  "Longhead": 9957,
  "Lion": 9958,
  "Linda": 9959,
  "Liam": 9960,
  "Lenny": 9961,
  "Left": 9962,
  "Lawyers": 9963,
  "Late": 9964,
  "LTHY": 9965,
  "Keith": 9966,
  "Kiss": 9967,
  "King": 9968,
  "Kick": 9969,
  "Katelyn": 9970,
  "Kanga": 9971,
  "Jumping": 9972,
  "Jojo": 9973,
  "Jessica": 9974,
  "Jumpy": 9975,
  "Js": 9976,
  "Join": 9977,
  "Jilly": 9978,
  "Jamie": 9979,
  "Its": 9980,
  "Isn": 9981,
  "Instinctively": 9982,
  "Increase": 9983,
  "Introduce": 9984,
  "Immediately": 9985,
  "Ice": 9986,
  "ITH": 9987,
  "Hopper": 9988,
  "Hairy": 9989,
  "Haircut": 9990,
  "Haha": 9991,
  "Hurry": 9992,
  "Hoppy": 9993,
  "Hmm": 9994,
  "Hide": 9995,
  "Henry": 9996,
  "Hatty": 9997,
  "Harsh": 9998,
  "Hannah": 9999
}