#version: 0.2
h e
Ġ t
Ġ a
Ġ s
Ġ w
n d
Ġt he
e d
Ġ b
Ġt o
Ġa nd
Ġ h
Ġ f
i n
Ġw a
Ġ T
i t
r e
o u
Ġ l
Ġ d
Ġ c
Ġ p
a y
Ġwa s
e r
Ġ m
o m
Ġ he
ĠT he
i s
Ġ n
o n
a r
i m
Ġs a
l l
i d
Ġh a
Ġ g
Ġ S
a t
in g
o t
e n
a n
l e
o r
i r
Ġ H
a m
e t
Ġ it
Ġt h
i g
ĠThe y
i l
Ġ in
ĠH e
Ġp l
Ġ "
o w
v er
r i
Ġ u
u t
Ġd ay
Ġsa id
it h
p p
Ġpl ay
Ġb e
O n
Ġw ith
Ġ o
Ġ y
Ġhe r
Ġ r
o o
k ed
c e
Ġh is
ĠS he
Ġ I
l d
Ġs t
ĠT im
k e
Ġ e
n t
c k
Ġb ig
ver y
Ġy ou
v e
s t
Ġha pp
Ġ on
e nd
u n
a ll
il y
ri end
Ġf riend
Ġ L
Ġu p
Ġthe y
Ġwa nt
Ġw e
Ġha d
Ġn ot
he r
Ġl i
it t
Ġd o
Ġo f
Ġ B
a d
e s
Ġhapp y
Ġ M
en t
Ġ very
Ġth at
On e
Ġsa w
Ġm om
ou ld
' s
s e
Ġf or
itt le
Ġl ittle
Ġs o
Ġs he
Ġs h
im e
Ġ k
Ġt ime
Ġn e
Ġn am
c h
Ġthe re
. "
ou nd
Ġb o
Ġnam ed
ĠL ily
ir d
Ġs m
Ġwant ed
Ġb ird
ĠT om
v ed
Ġwe re
Ġb ut
T he
Ġfriend s
! "
ou t
h t
e l
a ke
a l
Ġa n
Ġto o
id e
Ġhe l
On ce
Ġw h
Ġhel p
u g
om e
Ġw ent
Ġa ll
ĠI t
Ġ A
Ġl oo
Ġ is
Ġup on
Ġl o
u e
t er
r y
o re
i nd
g et
Ġf un
Ġto y
i ll
a ck
get her
Ġa t
Ġ j
Ġa s
Ġd id
am e
Ġ re
Ġto gether
u r
Ġc at
r a
Ġdo g
Ġs e
l y
Ġt re
oo d
Ġg ir
Ġc an
i c
Ġb all
m y
Ġgir l
Ġc ould
ar d
t ed
Ġh im
Ġthe ir
e c
ar k
Ġr o
w ay
Ġk n
Ġplay ed
? "
he d
Ġf r
a in
he n
Ġl e
Ġ out
u m
' t
a x
Ġg o
Ġthe m
Ġa re
Ġbo y
Ġsa d
u l
ou g
Ġha ve
Ġtre e
Ġc l
Ġlo ved
ot her
Ġb ack
Ġloo ked
Ġs p
Ġf ound
ow n
on e
ĠM ax
Ġm e
Ġs c
Ġm an
a re
Ġst ar
ĠS ue
h ing
s ide
Ġp ark
on g
o p
f ul
Ġbe c
Ġli ke
Ġw ould
Ġli ked
el t
r ound
Ġ One
Ġf elt
ig ht
Ġf a
ĠB en
Ġl a
Ġ W
e ll
Ġm ake
ĠB ut
Y ou
Ġas ked
Ġne w
i ce
il ed
s s
ar ed
a g
ĠS am
oug ht
Ġse e
om et
Ġa l
Ġstar ted
Ġa g
Ġc ame
Ġn o
Ġsm iled
Ġc ar
Ġ other
ri ed
Ġs omet
Ġg ood
Ġs ay
Ġb r
Ġsm all
ad e
p ot
o b
ing s
Ġw or
Ġa way
a b
ou se
Ġf ind
u s
Ġe x
Ġfr om
Ġp ut
t y
Ġth ought
Ġwh at
Ġm ade
en ed
Ġplay ing
i e
Ġh ome
k ing
Ġwa l
a ch
Ġsomet hing
i a
i le
Ġe very
Ġr an
ĠS pot
Ġag ain
Ġ F
Ġc o
a ve
u c
ar n
Ġbo x
Ġd own
d d
Ġtoy s
oo k
Ġ J
Ġp r
Ġtoo k
Ġs w
Ġs ome
i f
Ġla ug
ou d
u st
e w
Ġs un
Ġa round
n y
Ġsc ared
Ġli ved
Ġle arn
Ġw ill
Ġm y
Ġf l
u re
Ġyou r
i ck
re t
e p
Ġh ouse
Ġw hen
Ġ You
Ġth ings
Ġb l
, "
an k
u ck
Ġthe n
pp ed
ĠM ia
is t
T h
Ġb ot
Ġa b
is h
Ġwh o
Ġg et
Ġkn ow
uc y
Ġf e
a s
Ġt ried
Ġg ot
Ġkn ew
it ed
Ġl ot
u ch
Ġsay s
all y
a p
Ġin t
Ġc h
i ve
Ġr ed
T im
nd er
um p
L ily
Ġp ret
ou s
Ġab out
Ġc are
f ter
Ġd ec
ĠS o
Ġo p
f e
Ġloo k
Ġ D
Ġman y
u se
Ġu n
Ġm ore
is e
way s
Ġ E
n n
Ġex c
ĠM om
Ġal ways
Ġp ic
Ġp o
â Ģ
Ġbe st
q u
Ġan y
Ġsh ow
Ġbot h
ĠL ucy
it e
Ġro om
Ġh ug
a ce
er s
a use
Ġint o
Ġwa ter
Ġbec ame
Ġout side
Ġlearn ed
Ġlaug hed
u dd
Ġd ad
id ed
an t
Ġbec ause
Ġon e
Ġg re
Ġp e
Ġdec ided
ĠA nd
p r
Ġexc ited
Ġ v
Y es
Ġn ice
Ġh o
nn a
Ġ ke
Ġe at
Ġs or
Ġth is
ar a
Ġj ump
Ġl ong
Ġfe el
The y
ĠB ob
T om
Ġm o
Ġto ld
Ġr un
u ll
in k
Ġs ur
Ġro ck
Ġin side
Ġpret ty
Ġs l
Ġs k
le w
in y
Ġt ake
Ġa m
Ġg ave
Ġsur pr
Ġfa st
Ġe ach
Ġto w
ou r
es s
r o
v en
g ed
Ġsor ry
Ġne ed
Ġ or
Ġm uch
Ġth an
ur t
Ġh ow
is ed
Ġst r
ab le
Ġu nder
W h
o g
g e
Ġk ind
a nd
Ġg ra
ĠA my
im al
v ing
Ġan imal
f t
Ġt a
B ut
Ġf ood
et ter
C an
Ġwal ked
ĠW e
Ġt r
Ġwa t
Ġha nd
Ġo ld
ĠH is
Ġl ist
Ġh ig
f f
Ġj ust
Ġcl o
Ġfl ow
Ġ en
r om
Ġc le
c hed
Ġdid n
ur n
Ġ ide
ec i
M om
a se
Ġt ry
Ġide a
Ġd an
i on
he re
Ġsk y
Ġit s
eci al
Ġsp ecial
Ġne ar
Ġf lew
Ġu s
ĠA nna
Ġt w
Ġhapp ened
p l
g ry
Ġf o
in e
Ġf i
Ġs n
ĠT h
Th ank
Ġ if
Ġc ake
b er
Ġf ish
Ġanimal s
Ġst or
Ġo ver
Ġb ug
l f
Ġhe ard
at e
Ġcare ful
e x
Ġc om
udd en
r m
Ġb etter
Ġlot s
Ġb y
Ġl et
Ġh ard
Ġw ind
Ġne ver
Ġh urt
Ġbe ar
Ġsh are
op le
ĠE very
Ġd re
udden ly
m ore
Ġany more
Ġe ven
Ġt e
or t
Ġt al
p ec
Ġf ly
ĠS ara
Ġsa fe
Ġlo ve
ad y
Ġb u
Ġe nd
Ġd on
Ġ K
Ġf ore
Ċ Ċ
Ġg ive
Ġpe ople
Ġa fter
Ġcle an
u ff
Ġpr oud
Ġop ened
b ed
' m
Ġhig h
Ġg r
Ġf am
Ġb ad
Ġdo or
Ġsurpr ised
ĠThe n
itt y
a k
Ġt urn
A s
Ġg l
ag e
ĠF rom
um my
oug h
Ġg round
Ġcl im
ĠH er
Ġthan ked
Ġ im
ĠW hen
i z
Ġbl ue
Ġc all
Ġb ook
k ay
ard en
Ġg arden
il d
Ġf ar
Ġm a
Ġe ver
Ġwa y
pec ted
Ġhug ged
Ġc he
Ġsh iny
Ġco l
Ġpic ked
L et
Ġsm ile
Ġm ag
Ġl oud
Ġc u
Ġof f
Ġsh ould
Ġc ome
ĠI n
ex pected
Ġun expected
x t
Ġne xt
Ġst ick
Ġpl ace
Ġwal k
Ġ N
t ure
Ġfam ily
he s
e m
Ġ qu
Ġcol or
b y
Ġ P
Ġst ill
i p
Ġu nt
Ġstr ong
Ġgre at
Ġbo at
Ġa pp
le s
Ġha t
o y
Ġhapp ily
Ġbr o
oo l
Ġunt il
Ġjump ed
Ġtow n
Ġc a
Ġfr og
d y
Ġk id
Ġhelp ed
ĠS ally
Ġfore st
i es
Ġst o
or n
c t
Ġdo ll
a ut
Ġs qu
ar y
ĠK itty
Ġbe aut
Ġlist en
Ġshow ed
Ġm et
Ġn ow
N o
uff y
Ġp ar
Ġmag ic
o on
ra w
Ġwh ile
Ġop en
Ġstor y
i ful
Ġre m
Ġpic ture
le ase
Ġbeaut iful
Ġb ra
t h
b it
Ġso ft
H e
ab bit
Ġst ay
Ġcould n
Ġclo s
o ck
Ġcall ed
us h
an e
Ġy ummy
Ġkid s
p t
I t
Ġr abbit
Ġwat ch
W hen
Ġsl ide
l uffy
Ġevery one
Ġat e
Ġp a
Ġbe ing
Ġwa rm
Ġw o
Ġfa ce
Ġf in
ill y
Ġd e
Ġsto pped
Ġa d
re l
Ġt ra
Ġth re
Ġflow ers
Ġso on
Ġc ry
is s
Ġtw o
v ent
f ore
Ġim p
Ġan gry
Ġke ep
Ġhe ar
un ny
dd ed
Ġst ore
Ġc re
Ġf ell
is hed
Ġlo st
Ġle ave
ir ed
Ġr ain
ĠL et
se lf
Ġp ain
Ġha ving
Th at
Ġfi x
Ġc ook
ĠF luffy
ĠW h
ow l
d ay
Ġno dded
Ġ C
s o
e ar
Ġsa t
Ġbra ve
Ġw here
o h
Ġal so
âĢ Ŀ
Ġy ell
Ġmom my
âĢ ľ
B en
Ġbe fore
oh n
Ġg ame
Ġsa nd
Ġhand s
ĠN ow
Ġt ired
u d
g er
ir st
Ġme an
Ġb re
g an
Wh at
Ġwor k
H i
Ġu se
Ġno ise
Ġhe ad
b e
Ġke pt
Ġfa v
L ook
Ġo kay
b le
Ġp ie
Ġm on
Ġha s
Ġ z
Ġs ing
Ġre al
Ġgre en
Ġe y
Ġc ou
Ġbl ock
Ġwa it
ir rel
Ġ G
Ġth ink
Ġb ed
an ge
The n
Ġsqu irrel
Ġother s
Ġcat ch
Ġ R
em ber
Ġdre ss
j oy
Ġsun ny
Ġsh ared
Ġfun ny
Ġ âĢľ
a z
Ġloo king
Ġd uck
it c
Ġpo nd
Ġd r
at h
Ġm ess
Ġho le
Ġb unny
Ġ own
Ġex pl
Ġbe h
u it
Ġus ed
Ġp ull
Ġth r
ell o
ec t
H ello
Ġgo ing
Ġen joy
ĠM r
Ġ Can
ĠD o
or al
le ep
Ġma king
Ġd if
itc hen
Ġr ight
Ġk itchen
Ġsw ing
Ġfav or
st er
e et
Ġwor ked
Ġt able
Ġrem ember
Ġfavor ite
Ġbird s
Ġ our
Ġmo ve
Ġc on
n g
u b
Ġj o
Ġag re
n ing
Ġtr uck
Ġv o
Ġey es
ĠJ ack
Ġm oral
Ġl ady
Ġcu ri
im es
Ġfl o
Ġc ut
ug ht
Ġs ound
t hing
ll y
W e
A fter
Ġcuri ous
Ġy ard
Ġt all
Ġcl a
m a
ap er
Ġclim b
q ue
Ġimp ort
Ġf irst
Ġ ice
Ġtal k
Ġad vent
i ous
Ġflow er
il a
Ġas k
Ġt ri
Ġpar ty
Ġfor g
Ġb ag
Ġd ir
Ġwat ched
i ed
ay be
Ġimport ant
Ġblock s
Ġb ab
ĠTh is
l ed
Ġdo es
Ġhe re
Ġto p
Ġgra b
Ġco ld
t ing
Ġta il
Ġst e
Ġd is
k en
Ġha ir
Ġbe l
A t
Ġs ong
Ġp ick
z y
Ġyell ow
Ġgra ss
Ġd raw
ll ow
Ġw r
Ġagre ed
Ġh ill
Ġsw eet
Ġm ouse
Ġbr ight
Ġbe gan
ig n
Ġh un
Ġcl oud
fe re
Ġre st
Ġbab y
a f
Ġn ight
ĠF in
D on
Ġta st
Ġdif fere
Ġst op
Ġwal king
W ow
A nna
Ġvo ice
Ġs leep
ĠMom my
us hed
i ent
c ed
Ġlaug h
S ara
Ġsh ar
Ġh op
ĠS uddenly
c ked
Ġto uch
pp y
Ġh id
Ġcl ot
o om
a ched
Ġfo llow
Ġsurpr ise
Ġpie ce
c o
M ax
Ġp lease
Ġfeel ing
Ġdiffere nt
Ġdan ce
Ġan other
Ġleave s
Wh y
Ġpr om
Ġc ried
Ġhun gry
Ġr ace
Ġg one
Ġsh out
Ġneed ed
a ir
Ġfa ir
Ġclos er
Ġb us
âĢ Ļ
Ġth ing
Ġp er
Ġflo or
Ġfar m
Ġc r
Ġtre es
is y
S o
Ġhelp ing
Ġsw im
Ġh ot
Ġbeh ind
Ġt ell
Ġre ad
Ġlist ened
Ġadvent ure
S uddenly
Ġsh o
Ġd ark
b o
Ġwor ry
Ġf ull
Ġclim bed
by e
Ġa c
ĠA s
Ġ ri
ke y
er ed
Ġcou nt
S am
Ġw ood
Ġp aper
ĠTh at
a v
Ġt iny
Ġm ust
Ġpr in
Ġfriend ly
Ġfi re
el y
at er
Ġturn ed
Ġs it
Ġapp le
ĠD ad
Ġre ached
Ġho ld
Ġbro ken
Ġre pl
Ġtre at
w here
Ġp ink
Ġcolor s
Ġsm ell
Ġre ady
ĠA ll
as h
Ġse es
Ġd el
Ġbe en
Ġwo nder
Ġro ll
S he
Ġwa g
Ġon ly
Ġf ight
Ġwind ow
Ġf all
Ġca st
ĠEvery one
r ed
Ġgood bye
Ġ owl
ic ed
S ue
Ġtry ing
Ġh ide
Ġp ushed
Ġd in
Ġ O
Ġlook s
Ġb it
ow er
' re
Ġtra in
Ġper f
Ġmom ent
Ġd ri
Ġcre am
Ġcar s
s h
Ġa r
Ġw ise
Ġrun ning
Ġgl ad
Ġdo ing
Ġsl ow
Ġre ach
Ġd one
Ġb ar
Ġwe ar
Ġpret end
Ġl ess
Ġw et
Ġrepl ied
Ġl ight
Ġdre am
Ġst uck
Ġp u
Ġp ot
Ġexpl ore
m an
Ġsc ary
at her
nt s
av y
Ġnam e
I n
Ġclo se
Ġball oon
Ġli on
ĠJ ane
Ġbu ild
Ġpain t
Ġne st
Ġd ro
Ġbot t
Ġam az
Ġbu y
and y
Ġwa ll
Ġr a
Ġc ool
Ġs ure
Ġm um
ie ld
u p
Ġs et
Ġbut ter
O h
Ġm iss
ĠTim my
or m
Ġbro ke
ĠA fter
i ke
M ia
one y
o e
at ter
Ġshout ed
Ġsomet imes
Ġfr uit
Ġcom ing
H er
Ġthre w
Ġsw am
Ġsn ow
Ġcla pped
Ġa ir
iz ed
Ġj ob
Ġcon t
ĠBob o
udd y
am es
a isy
Ġunder st
Ġturn s
Ġth ank
Ġb lew
out h
Ġsp l
Ġremember ed
Ġm outh
Ġhe avy
ar t
Ġla nd
Ġdir ty
d er
as k
Ġgrab bed
Ġbook s
uck y
at ion
Ġle ft
ĠJ ohn
nd ma
Ġthr ough
Ġjo in
ĠL ila
g g
Ġpull ed
Ġnot iced
Ġfo x
ro om
o lly
Ġpl an
Ġp en
Ġenjoy ed
p e
Ġwor ld
Ġthre e
Ġm us
Ġclot hes
Ġch ild
n er
is ter
" .
Ġwh y
Ġstay ed
Ġm ight
Ġless on
Ġg ent
Ġde ep
Ġcook ies
ap e
B ob
Ġwh ite
Ġw in
Ġwa ved
Ġp ig
Ġho pped
Ġg if
Ġfin ished
Ġf ill
Ġbutter f
O kay
Ġpicture s
Ġle af
Ġbr other
Ġsp ot
Ġsh op
Ġsc re
Ġgr ow
Ġcast le
Th is
Ġcolor ful
L ucy
Ġwood s
Ġqu ick
Ġke y
J ohn
ull y
as ure
Ġr ound
Ġevery where
ĠThe re
i et
Ġforg ot
Ġa rm
p le
an g
a c
Ġqu iet
th y
Ġw ished
Ġp are
Ġbr an
Ġany thing
z z
ss ed
l c
im i
ic y
f ully
Ġg u
Ġdin ner
le ss
Ġhim self
ĠB uddy
ĠB illy
d s
Ġmus ic
Ġhe ld
Ġal one
Ġs ister
Ġr ide
Ġmon ster
Ġg ames
Ġwr ong
Ġwa ited
Ġe m
u ed
in s
i x
Ġse a
ĠSara h
ra g
Ġse en
Ġbre ak
Ġbr ought
t on
Ġsn ack
Ġre l
Ġmon key
r ot
a ss
Ġwe ll
Ġpl ant
Ġbutterf ly
itt en
c le
Ġlike s
Ġj u
ĠWh at
Ġe gg
Ġdan ced
Ġd ry
Ġbott le
Ġ que
Ġy ear
Ġwant s
Ġbe ach
ce ss
Ġfair y
r ow
A my
Ġmake s
Ġcu p
Ġbe e
Ġat t
ĠD aisy
s c
Ġprom ised
Ġ ve
p h
Ġfollow ed
Ġcare fully
ri es
e e
Ġquick ly
Ġf ield
ĠIn side
Ġto day
ĠT o
ĠE m
Ġtow er
Ġpare nts
Ġc ra
Ġbig ger
Ġ Z
S pot
F rom
Ġg i
Ġc e
o ve
e y
ard s
Ġn ap
Ġgif t
Ġdan ger
on ely
Ġs illy
Ġs ign
Ġl onely
Ġf re
it ch
. âĢĿ
Ġre ally
Ġor ange
Ġk ite
Ġfast er
ĠSo on
Ġsome one
Ġsm art
ĠM imi
o s
c y
Ġwith out
Ġt ight
Ġsp r
Ġsh in
Ġpo l
Ġp re
Ġm ar
Ġbr own
Ġd i
Ġwag ged
Ġw on
Ġtal ked
Ġpiece s
Ġh it
Ġen ough
Ġdr ink
at ed
Ġma il
Ġf ur
Ġeat ing
Ġc ro
Ġb ath
re n
ig g
a ught
D o
Ġtal king
Ġperf ect
Ġp ur
Ġl ake
ell a
Ġshar ing
pp er
f ish
en ce
Ġunderst and
Ġro ad
Ġm ix
Ġcont in
Ġbran ch
ou p
Ġbel ie
itt ing
am ed
Ġw ish
Ġp et
H is
Ġreal ized
Ġk ing
Ġa nt
Ġrock s
Ġpo in
Ġli ving
Ġe ar
Ġchild ren
orn ing
i ver
Ġwe lc
Ġm orning
Ġj ar
ou n
ar m
an ce
Ġy es
Ġst one
Ġs ide
Ġn um
Ġfly ing
Ġfill ed
Ġdoll s
Ġdel ic
Ġc ow
z e
Ġwor ried
Ġthr ow
Ġp at
Ġown er
Ġju ice
Ġcontin ued
Ġb uck
Ġb ike
ra ct
pp ing
Ġsmile s
Ġp h
Ġfin ally
Ġcom p
Ġcar rot
ĠTom my
or d
ll a
e o
am p
al thy
Ġst re
Ġapp les
b r
Ġwor ds
Ġsa il
Ġri ver
f ort
a st
Ġs itting
Ġcry ing
Ġbut ton
Ġbar ked
ĠB l
ĠA t
Mom my
Ġsa ng
Ġhig her
Ġb owl
us ed
un ch
i ch
e ad
Ġwh ist
Ġtast y
Ġshar p
Ġp udd
Ġfre e
Ġbl ank
Ġball s
ĠJ oe
Ġwelc ome
Ġp ill
Ġm at
Ġle g
Ġl etter
Ġask s
ve l
ld er
en ny
J ust
Ġshin ing
Ġrun s
Ġm ine
Ġhapp en
Ġclos ed
Ġblank et
st ead
ck et
Ġv is
Ġlaug hing
Ġevery thing
Ġca ught
Ġc andy
ve s
at o
Ġroll ed
Ġm other
Ġf an
Ġe l
Ġb or
Ġ -
Ġco at
ĠG ra
Ċ Ġ
ir t
Ġst and
Ġse c
Ġhear t
Ġdanger ous
Ġd rag
Ġb one
s w
Ġmo ved
Ġan sw
s et
m e
is es
a il
M aybe
Ġw he
Ġe le
Ġstr ange
Ġstar t
Ġsec ret
Ġf it
Ġel se
un g
ot h
ll ie
Ġch air
Ġb oun
ct or
Ġw ore
Ġtr ou
Ġpa w
is k
Ġsing ing
Ġro pe
Ġp ers
Ġb and
id ge
am a
Ġtre asure
Ġsa me
Ġp ower
Ġm ud
Ġm ad
ĠL eo
is a
bo ard
Wh ile
J ack
F in
Ġgent le
Ġc orn
ud e
Ġwo ke
Ġvis it
Ġher self
u nt
n ey
i re
Ġsh y
Ġse ar
Ġdro pped
Ġbuck et
Ġbelie ve
ĠTh ank
s p
P lease
Ġsp oon
Ġno se
Ġdrag on
ĠBl ue
o st
iz z
Ġthink s
Ġcook ie
isk ers
g y
Ġsw ings
Ġp ush
Ġl unch
Ġget ting
Ġbel ong
as ed
Ġto uc
Ġsh ook
Ġcut e
Ġc ard
Ġbl ack
Ġb ite
urt le
ph ant
o l
g ly
! âĢĿ
Ġse at
Ġs oup
Ġrock et
Ġli ve
Ġk itten
Ġc raw
Ġslow ly
Ġsh r
Ġb en
ĠB ella
c ing
c er
ask et
Ġta king
Ġm ark
Ġj our
Ġhop ed
Ġhold ing
Ġe as
Ġbo ss
Ġb asket
ĠF red
m ed
i ble
Ġw ild
Ġv ill
Ġu gly
Ġtreat s
Ġtouc hed
Ġm oney
Ġj oy
Ġday s
ĠM aybe
th day
our se
ir thday
ch ool
L ila
Ġyear s
Ġs chool
Ġin c
Ġfore ver
Ġdir t
Ġdelic ious
Ġc ourse
Ġar ri
Ġtw ins
Ġt urtle
Ġstr ing
Ġsp o
Ġk iss
Ġgr ay
ĠS p
izz a
a pp
Ġte ac
Ġsh ake
Ġpu ppy
Ġj e
Ġfeel s
re ss
il ing
e st
Ġw ra
Ġshe ll
Ġl ate
Ġfarm er
Ġche es
Ġcar ry
Ġb ush
Ġarri ved
st ing
o se
in ed
e re
ay on
' ll
Ġto m
Ġstor m
Ġsho es
Ġpudd le
Ġpu zz
Ġm ed
Ġint ere
Ġfix ed
Ġf ew
Ġchees e
l ower
f used
Ġp op
Ġm ist
Ġgre w
Ġd ist
Ġbus y
ump y
ig h
i er
ed dy
Ġsnow man
Ġsand w
Ġpr ob
Ġhid ing
Ġamaz ing
ĠWh iskers
b b
Ġwor m
Ġwas h
Ġr ude
Ġque en
Ġprom ise
Ġintere sting
Ġhe althy
Ġcr ayon
Ġb irthday
l ing
He y
Ġyou ng
Ġwonder ful
Ġwhist le
Ġshe lf
Ġpl ane
Ġpill ow
Ġpat ient
Ġp ile
Ġgi ant
ĠC h
Ġ ign
le m
Ġwa r
Ġteac her
Ġprob lem
Ġn ut
Ġmo on
Ġli fe
Ġin v
Ġcra b
Ġb ow
ĠD ucky
ou nt
e ared
Ġte ach
Ġsh irt
Ġre s
Ġprin cess
Ġpar t
Ġpa st
Ġne ck
Ġtow ards
Ġsn ake
Ġl ay
Ġele phant
ĠL isa
ro ss
oo f
il k
i pped
Ġw ings
Ġvill age
Ġsm o
Ġse ed
Ġs er
Ġpo cket
Ġm ilk
Ġland ed
Ġdo ctor
Ġdis app
Ġcre at
Ġben ch
Ġamaz ed
Ġab le
ĠEm ma
or s
om an
le br
ir r
fort able
ell y
Ġw oman
Ġs uddenly
Ġr ub
Ġp izza
Ġdro ve
Ġco ll
Ġche ered
Ġch ick
Ġce lebr
Ġbre ad
ri ll
id er
S t
Ġste pped
Ġfo ot
Ġdri ver
u ally
ount ain
o nd
aught y
O K
G ood
Ġstre et
Ġstor ies
Ġsa ve
Ġn aughty
Ġla w
Ġhug s
Ġh oney
Ġcar t
ĠGra ndma
s y
ig er
i an
e k
L ater
K itty
Ġz oom
Ġso ck
Ġsl id
Ġp ath
Ġdad dy
Ġc ave
Ġb ought
Ġac ross
ĠA nn
if e
c hes
Fin ally
Ġup set
Ġth in
Ġmo st
Ġfight ing
Ġduck s
Ġbr ing
ĠD og
er t
Ġro b
Ġco ver
Ġbe ak
et er
ep end
en s
B e
Ġz oo
Ġpur ple
Ġpower ful
Ġpe ace
Ġnum ber
Ġm ind
Ġgr umpy
ĠM olly
ul ar
t urn
oo p
b ow
Ġth ough
Ġsp in
Ġs uc
Ġlove ly
Ġfor get
Ġbe ll
ĠMom o
ĠFin ally
oo se
iz zy
er ry
Ġwhe el
Ġwas n
Ġtri p
Ġsh ap
Ġsa l
Ġre turn
Ġp our
Ġno ises
Ġa ct
up id
n ot
Ġspl ash
Ġsmell y
Ġsee k
Ġsa ved
Ġsa ck
Ġp ool
Ġjour ney
Ġfan cy
Ġbug s
Ġboss y
Ġb at
it y
O f
Ġsp ider
Ġshap es
Ġpuzz le
Ġn et
Ġforg ive
Ġf ence
Ġd ish
Ġcloud s
Ġcan not
w ard
op h
T o
Ġwor king
Ġst upid
Ġsound s
Ġmess y
Ġme et
Ġeas y
Ġc ap
Ġbr ush
y m
ll o
e on
N ow
Ġv al
Ġste al
Ġrob ot
Ġmiss ed
Ġm in
Ġgra ndma
Ġfin ish
Ġdri ve
Ġd es
Ġb an
Ġb a
Ġany one
ĠT iny
o cked
k in
S ure
? âĢĿ
Ġt ie
Ġsp ark
Ġpig eon
Ġor gan
Ġj elly
Ġhelp ful
Ġgl ass
Ġclot h
t o
oom y
m on
er y
bed ient
am ond
al m
Ġun k
Ġt eddy
Ġro d
Ġrain bow
Ġput s
Ġpo or
Ġo bedient
Ġnot e
Ġmist ake
Ġh or
Ġf ake
Ġdi amond
Ġunk n
Ġtow el
Ġt iger
Ġo b
Ġmagic al
Ġli ft
Ġhug e
Ġgr ate
Ġgl ow
Ġex p
Ġcla ss
Ġc ir
Ġal ong
ĠTo gether
ĠJ ill
get able
b led
Ġwho le
Ġve getable
Ġunkn own
Ġtake s
Ġs ug
Ġph one
Ġp ack
Ġl ater
Ġhop e
Ġgrate ful
Ġadventure s
ĠM ark
Ġ On
lder ly
iz e
c om
Ġwonder ed
Ġwatch ing
Ġtast e
Ġspl as
Ġs el
Ġro se
Ġpers on
Ġp an
Ġo ven
Ġlo ck
Ġf ing
Ġem b
Ġe lderly
Ġban an
vent ually
ion s
as p
Ġsong s
Ġs u
Ġpot ato
Ġp ract
Ġle mon
Ġjump ing
Ġign or
Ġarm s
u ce
irr or
a ur
Ġsel fish
Ġsc ar
Ġpoin ted
Ġp in
Ġm irror
Ġlong er
Ġl ine
Ġhor se
Ġc oo
Ġb ark
Ġa v
sc ape
or k
ic ine
co l
S ally
D ad
Ġz ip
Ġw is
Ġshe ep
Ġsee med
Ġr ough
Ġon to
Ġmed icine
Ġdr ank
Ġcou ch
Ġcom es
ĠJ ust
ew el
e ver
ar ra
Ġwra p
Ġsu pp
Ġs uch
Ġs ick
Ġleg s
Ġj ewel
Ġin stead
Ġhe llo
Ġface s
Ġf il
Ġemb arra
Ġcon fused
Ġboun ce
ĠB ear
w ork
un a
p ty
p ill
pill ar
e my
d ile
co dile
Ġw ide
Ġst ep
Ġsor t
Ġmy ster
Ġla st
Ġgent ly
Ġem pty
Ġe ag
Ġdan cing
Ġch o
Ġcar ried
ĠS t
ĠB u
m ent
b all
air s
S oon
Ġwo lf
Ġwa ve
Ġtri es
Ġnear by
Ġm aybe
Ġhat s
Ġgive s
Ġfe ed
Ġc alm
Ġb al
y ard
pec t
i pp
el p
az z
ad ow
Ġt ent
Ġsp e
Ġsmo oth
Ġjo ke
Ġg ather
Ġcro codile
Ġch ange
Ġback yard
ĠM ary
ĠJ enny
ĠH ow
ĠDog gy
um e
u dy
Ġtoo l
Ġstar s
Ġst raw
Ġsp icy
Ġso ap
Ġsandw ich
Ġr ad
Ġpretend ed
Ġpr ot
Ġgu ess
Ġf at
Ġdog s
Ġd izzy
Ġcle ver
Ġbuild ing
Ġas h
ĠC ome
orm ous
ber ry
Ġtrou ble
Ġstick s
Ġspr ing
Ġsleep y
Ġher o
Ġfe ather
Ġf le
Ġen ormous
Ġb arn
Ġb ake
ul t
n ess
if f
d en
H elp
Ġwait ing
Ġscre amed
Ġs uit
Ġri ch
Ġr at
Ġplant s
Ġl ucky
Ġd ug
Ġco st
Ġansw er
r ated
on t
o ppy
A nd
Ġwe ak
Ġsnack s
Ġsear ch
Ġsa us
Ġque st
Ġhid den
Ġgo ld
Ġfe ar
Ġche w
Ġc ri
Ġbr idge
ĠE lla
ĠB r
ut e
ar ge
St op
M y
C ome
Ġte st
Ġst udy
Ġprin t
Ġpick s
Ġpeace ful
Ġm atter
Ġkn ocked
Ġj ug
Ġfr ont
Ġe scape
Ġdec or
Ġchick en
ĠW ith
un k
sh ine
or row
one st
m er
it ing
ie ved
bo x
Ġtri ck
Ġtom orrow
Ġste ak
Ġspr ay
Ġsmell ed
Ġscar f
Ġre c
Ġplace s
Ġk ick
Ġim ag
Ġh onest
Ġcr own
Ġ ent
ust rated
m b
i v
i o
h ost
er pillar
al k
ain ed
ad der
Ġse ll
Ġre g
Ġh ay
Ġh ar
Ġcoll ect
Ġco zy
Ġch ased
Ġcat erpillar
ĠThe ir
ĠP lease
ĠJ im
Ġ '
um ble
uit ar
m ing
in o
ight ened
A re
Ġte ar
Ġsw an
Ġsqu are
Ġso l
Ġsm iling
Ġse al
Ġl arge
Ġl adder
Ġg uitar
Ġg host
Ġfr ustrated
Ġfr ightened
Ġclo ck
Ġcle ar
Ġch ase
Ġapp eared
ĠM y
ĠEm ily
on es
o ld
ic ked
bb les
al ous
Ġyell ed
Ġvegetable s
Ġun cle
Ġst ret
Ġp ay
Ġor d
Ġnot hing
Ġnew sp
Ġme asure
Ġkn ee
Ġje alous
Ġdre w
Ġdr um
Ġbe an
ĠR emy
ĠM ama
ĠDad dy
ung le
ot o
ir p
ge st
ens ive
ach t
Ġyour self
Ġy acht
Ġwear ing
Ġv an
Ġrel ieved
Ġpe ar
Ġno isy
Ġmo d
Ġlove s
Ġli z
Ġj ungle
Ġexpl or
Ġexp ensive
Ġeag er
Ġde st
Ġche st
Ġcelebr ate
Ġbo dy
ĠB unny
t en
op ard
e b
Ġw ip
Ġswim ming
Ġst ir
Ġst amp
Ġsc are
Ġs our
Ġprot ect
Ġpol ice
Ġpl ate
Ġpe pper
Ġle opard
Ġjelly fish
Ġj og
Ġfur ry
Ġfo ld
Ġfe et
Ġdraw ing
Ġco in
Ġcat s
Ġash amed
Ġa nts
ĠT V
ĠC at
ract ive
orm al
n ic
n ed
ir it
d om
b or
Ġwa ke
Ġtr ust
Ġthought ful
Ġr u
Ġnewsp aper
Ġm ountain
Ġhair y
Ġh arm
Ġgo es
Ġgl ue
Ġg igg
Ġg en
Ġembarra ssed
Ġdis co
Ġc age
Ġas king
Ġac orn
ĠS omet
Ġ 3
r ue
l a
im p
fe e
f fee
el ery
Tom my
Ġy og
Ġw itch
Ġto ug
Ġso ld
Ġr ug
Ġpic nic
Ġpa ss
Ġn ormal
Ġla b
Ġfl ag
Ġd ig
Ġc elery
Ġatt ractive
ĠWh y
ut om
utom ob
utomob ile
u al
le t
ke ep
iss ors
i que
c orn
c ient
Ġwa ff
Ġun ique
Ġtoug h
Ġsp ill
Ġsa f
Ġrem ind
Ġr ing
Ġprin ce
Ġpr un
Ġmo ving
Ġmight y
Ġla zy
Ġinc red
Ġha ng
Ġh oop
Ġgen er
Ġfruit s
Ġfing er
Ġco ffee
Ġche er
Ġcare less
Ġbec ome
Ġan cient
ĠG o
ĠBen ny
ub b
rill i
r ob
j ect
Ġwr ite
Ġunderst ood
Ġt id
Ġsw ord
Ġsun shine
Ġsun f
Ġst ood
Ġsc issors
Ġr h
Ġr are
Ġpol ite
Ġp it
Ġliz ard
Ġincred ible
Ġh ur
Ġgener ous
Ġend ing
Ġclean ed
Ġb rilli
Ġar row
ĠR ex
ĠO llie
ĠI f
ĠE ven
ĠBob by
keep er
ill a
g en
f ra
a king
Ġtr ue
Ġtast ed
Ġsuc cess
Ġst ri
Ġsqu ash
Ġsaus age
Ġpr o
Ġp ow
Ġmat ch
Ġmark et
Ġk icked
Ġh unt
Ġbrilli ant
Ġa utomobile
ug g
t ress
l ves
fra id
aught er
ang le
H ow
Ġtid y
Ġte a
Ġst uff
Ġsal ad
Ġpr ay
Ġmat tress
Ġknow ing
Ġg un
Ġg ate
Ġde ad
Ġcrayon s
Ġcover ed
Ġc ush
Ġbl ow
Ġbl oom
Ġadvent ur
Ġa fraid
ĠP e
ĠJ erry
ĠD on
v ous
ush room
rob e
ro y
ic t
ab in
M olly
He re
Ġwould n
Ġwe ird
Ġthe se
Ġsunf lower
Ġshell s
Ġne igh
Ġm ic
Ġdis g
Ġdest roy
Ġcraw l
Ġcount ed
Ġcom b
Ġcl ay
Ġcl ap
Ġcir cle
Ġcarrot s
Ġc abin
Ġbeh ave
Ġbath room
Ġadventur ous
ĠL una
ĠIn stead
ust ing
ul if
ud ge
op e
l and
in al
com fortable
b ers
Ġun comfortable
Ġth ie
Ġres pect
Ġrel ax
Ġperf orm
Ġmo le
Ġignor ant
Ġh umble
Ġfr ame
Ġfo lder
Ġdisg usting
ĠJ en
Ġ ind
us ual
re lla
p es
n et
mb rella
is p
in ary
id ent
ic ult
i able
f icult
er a
ag es
a le
M um
Ġw ing
Ġus ing
Ġun usual
Ġu mbrella
Ġshr imp
Ġrel iable
Ġpaw s
Ġmyster ious
Ġmag net
Ġm ask
Ġho se
Ġgl ove
Ġfr idge
Ġen g
Ġdif ficult
Ġd aughter
Ġcro ss
Ġca ulif
Ġc and
Ġbor ing
Ġballoon s
Ġbal ance
Ġas leep
Ġad m
ĠSomet imes
ĠB e
u le
os aur
o ot
ig inal
ig hed
et h
To gether
Sara h
Ġyour s
Ġwh isp
Ġun l
Ġtw ist
Ġt ape
Ġsto ve
Ġsplas hed
Ġs que
Ġpow der
Ġon es
Ġo y
Ġn er
Ġmom s
Ġj udge
Ġh orn
Ġfam ous
Ġf is
Ġdist ur
Ġdisco ver
Ġdin osaur
Ġbe es
ĠDo lly
t t
tt i
s ent
irst y
he tti
f ted
er ries
c il
ag hetti
af fe
a w
In side
Ġwag on
Ġtra vel
Ġspo iled
Ġsp irit
Ġsp aghetti
Ġsh ip
Ġrad io
Ġr oof
Ġpour ed
Ġpen cil
Ġord inary
Ġor iginal
Ġnum bers
Ġner vous
Ġmo v
Ġm ule
Ġm ach
Ġkn ight
Ġis land
Ġho pping
Ġharm less
Ġgu il
Ġfr own
Ġegg s
Ġd ough
Ġcr ack
Ġcorn er
Ġclos et
Ġch alk
Ġbre ath
Ġbanan a
Ġb erries
Ġan g
ĠSam my
ĠS ome
ow ed
or illa
in a
epend ent
e ze
der n
B illy
Ġtrou bled
Ġtri angle
Ġthie f
Ġth ick
Ġsug ar
Ġst age
Ġsear ched
Ġsail or
Ġs ink
Ġre sc
Ġqu it
Ġpre sent
Ġp al
Ġmo dern
Ġlo g
Ġle ad
Ġind ependent
Ġcreat ive
Ġco al
Ġcaulif lower
Ġc op
Ġbar ber
Ġb ull
Ġb in
ĠWh ile
ĠBr own
Ġ icy
re ad
itt er
b ble
at or
an y
Tim my
Ġun iver
Ġta ken
Ġsp read
Ġsa iled
Ġpain ted
Ġp ri
Ġjo lly
Ġinv ited
Ġhear s
Ġgl oomy
Ġg ym
Ġg orilla
Ġfor k
Ġeng ine
Ġd ive
Ġcomp ut
Ġansw ered
x ious
x e
it her
in ess
g u
g round
er c
d le
col ate
at ch
arm ing
ad o
a ff
G o
E very
Ġwh ip
Ġstraw berry
Ġstand ing
Ġsp ent
Ġsh ape
Ġscre am
Ġsa uce
Ġp ant
Ġm op
Ġlo se
Ġkn ife
Ġh ive
Ġguil ty
Ġfl ute
Ġclean ing
Ġcho colate
Ġch arming
Ġc her
Ġbo ard
Ġb atter
Ġan xious
Ġa xe
ĠT rue
ĠS n
ubb orn
se lves
s er
ra ge
op l
om es
her man
er opl
c ident
atter n
al s
a ving
M ama
Ġwh ich
Ġwas hed
Ġwaff le
Ġuse ful
Ġt ied
Ġst ubborn
Ġsmall er
Ġseed s
Ġreturn ed
Ġpal ace
Ġp attern
Ġob ject
Ġim pr
Ġhelp s
Ġfis herman
Ġfil thy
Ġf ine
Ġdec ide
Ġd ull
Ġcost ume
Ġc ries
Ġc one
Ġboy s
Ġb urn
Ġang el
Ġa eropl
z zy
ul b
m ost
irp y
ino cer
inocer os
il t
am ent
J ane
Ġval u
Ġta ught
Ġt un
Ġt imes
Ġt ank
Ġsl ipped
Ġser ious
Ġs ighed
Ġrh inoceros
Ġra ft
Ġpant s
Ġp ump
Ġnap kin
Ġmach ine
Ġli fted
Ġlearn ing
Ġlaugh s
Ġh omes
Ġex erc
Ġcre ate
Ġcast les
Ġbor ed
Ġaeropl ane
Ġa unt
ĠP oppy
ĠM any
rag ile
or ry
o c
n ament
is ted
ink y
id dle
es day
an ged
ag ed
Ġwis hes
Ġvalu able
Ġthank ful
Ġspill ed
Ġsho ot
Ġsh ore
Ġsc r
Ġpo em
Ġpast a
Ġor nament
Ġmake up
Ġloud ly
Ġlot ion
Ġhunt er
Ġgra nd
Ġg oose
Ġg ar
Ġfor ward
Ġfear ful
Ġf ool
Ġexplor ing
Ġdr op
Ġcush ion
Ġcraw led
Ġcount ing
Ġcom ple
Ġch oose
Ġal most
Ġac cident
ĠN o
ĠBu zz
use um
r in
op ter
ic opter
i pper
a ppy
G ive
F luffy
Ġwa nd
Ġw ool
Ġu r
Ġth irsty
Ġt ire
Ġst ones
Ġspot ted
Ġsp ace
Ġsol ve
Ġshow ing
Ġsc atter
Ġpop corn
Ġplay ful
Ġmov ie
Ġme adow
Ġm ushroom
Ġm useum
Ġlo cked
Ġje ep
Ġimp ress
Ġhel icopter
Ġfool ish
Ġf ragile
Ġdo ve
Ġdi ary
Ġdecor ate
Ġcomp et
Ġcom fortable
Ġch anged
Ġbu ilt
Ġbott om
Ġb ulb
Ġatt ic
ĠSp ike
ĠJ azz
ĠB ird
Ġ U
y al
w eet
ri ble
pr on
p ort
p ack
ion ary
ict ionary
I f
Ġw ife
Ġv ide
Ġte eth
Ġt er
Ġswing ing
Ġs le
Ġs il
Ġro ar
Ġrec ord
Ġpers ist
Ġm iddle
Ġm el
Ġm ap
Ġlo yal
Ġli cked
Ġl ow
Ġkiss ed
Ġjoin ed
Ġhapp iness
Ġg asp
Ġfor th
Ġfind ing
Ġdel ight
Ġd ictionary
Ġcomput er
Ġcomp ass
Ġc ase
Ġbu bbles
Ġbelong ed
Ġa pron
ĠCh irpy
ĠAnd y
um sy
r ay
ex t
ent ion
ce let
c ut
Ġsun g
Ġstrong er
Ġsh iver
Ġrub ber
Ġra ven
Ġpop ular
Ġpain ter
Ġpack age
Ġmix ed
Ġmar ch
Ġm ug
Ġlive ly
Ġlaw n
Ġlab el
Ġimpress ive
Ġhar sh
Ġglow ing
Ġgi ving
Ġgar age
Ġf og
Ġf ig
Ġe ventually
Ġdistur b
Ġd epend
Ġcompass ion
Ġcl umsy
Ġbra celet
ĠTo day
ĠB ill
y ing
op us
n el
l ass
lass es
ie w
ct us
ct opus
a pped
Ġy arn
Ġv iew
Ġter rible
Ġte le
Ġt ick
Ġsung lasses
Ġst ack
Ġspe ed
Ġsp end
Ġsn ee
Ġsk ip
Ġreg ular
Ġra ced
Ġo ctopus
Ġmod el
Ġmar ry
Ġman aged
Ġle ash
Ġknow s
Ġha lf
Ġfall s
Ġexc iting
Ġexc ite
Ġdel iver
Ġde af
Ġca ctus
Ġba ld
Ġa dd
ĠJ ess
ĠE llie
ĠA l
ut h
lc an
l ight
et le
Ġvo lcan
Ġtun nel
Ġtr uth
Ġtom ato
Ġst at
Ġst aff
Ġsle pt
Ġsk in
Ġsh ark
Ġquest ion
Ġprun es
Ġoy ster
Ġno d
Ġm is
Ġm ill
Ġhurt s
Ġfl ash
Ġf our
Ġexerc ise
Ġcoo ked
Ġche ap
Ġbe etle
Ġa p
ĠSn ow
ĠO K
y gen
x ygen
ur key
ri ck
r n
our s
ist ol
at ely
Wh o
Ġwe igh
Ġvolcan o
Ġtow ers
Ġto rn
Ġte m
Ġt ip
Ġt ask
Ġsw e
Ġsupp ort
Ġstret ch
Ġstat ue
Ġsp ear
Ġsleep ing
Ġscre w
Ġpump kin
Ġph oto
Ġpersist ent
Ġp istol
Ġorgan ized
Ġo k
Ġme ant
Ġl ying
Ġj unk
Ġimpr ove
Ġhand le
Ġgo at
Ġflo at
Ġf ather
Ġen v
Ġcompet it
Ġcompassion ate
Ġce iling
Ġbox es
Ġb rick
Ġad or
Ġac ce
ĠW igg
ĠM um
x ible
r oph
roph one
ll ip
llip op
le nd
l ace
ipp o
i k
er ce
ang u
S orry
M ummy
Ġyog urt
Ġwor d
Ġwheel s
Ġwall s
Ġwa ves
Ġwa nder
Ġv i
Ġunl ock
Ġtw ig
Ġsuccess ful
Ġst ation
Ġst airs
Ġso ar
Ġsn iff
Ġset t
Ġr ake
Ġpa ssed
Ġnut s
Ġno ds
Ġneck lace
Ġmic rophone
Ġm ath
Ġloud er
Ġlo llipop
Ġle an
Ġl it
Ġl angu
Ġh ippo
Ġg um
Ġfle xible
Ġfig ure
Ġfi erce
Ġdepend able
Ġcom pl
Ġcl own
Ġb ump
Ġb itter
Ġador able
ĠZ oom
ĠPe ople
ĠM ummy
z ed
vel ope
ub by
p a
ore s
bo dy
ber ries
as ing
W here
Ġwhe at
Ġwe althy
Ġway s
Ġwalk s
Ġvide o
Ġtrain s
Ġtall er
Ġt urkey
Ġsn e
Ġshow s
Ġsh ut
Ġsh ine
Ġru ined
Ġrod e
Ġro ot
Ġresc ue
Ġpract iced
Ġno sy
Ġnet work
Ġneigh bor
Ġneed le
Ġmiss ile
Ġmail box
Ġlangu age
Ġkn ob
Ġhelp less
Ġhe al
Ġhard er
Ġgu ard
Ġg as
Ġex am
Ġen velope
Ġen c
Ġde er
Ġcreat ure
Ġcoo king
Ġcomple t
Ġch ubby
Ġbran ches
Ġbar rel
Ġb ill
Ġav oc
Ġal ert
ĠO w
ĠMr s
ĠHe re
ĠG ive
ĠF ro
ym bo
ymbo l
u nd
re am
lend ar
l ph
ile t
ig i
i ppy
eb ra
c les
ar rel
an ut
am era
ak y
a id
J im
Ġz ebra
Ġy et
Ġwhisp ered
Ġto oth
Ġto ilet
Ġthin king
Ġt en
Ġstar ed
Ġspl it
Ġsk ull
Ġsh ort
Ġsh ade
Ġsc oot
Ġs ymbol
Ġs ight
Ġreal ised
Ġqu arrel
Ġpur se
Ġpain ting
Ġopen s
Ġme at
Ġm ot
Ġle aving
Ġhair cut
Ġha m
Ġgif ted
Ġgasp ed
Ġfl uffy
Ġexpl ained
Ġexcite ment
Ġear s
Ġdream s
Ġdo lph
Ġcompetit ive
Ġcar p
Ġcabin et
Ġca lendar
Ġc amera
ĠS andy
ĠR ose
ĠR o
ĠFred dy
ĠB et
ub way
u by
t ime
ot e
o in
in es
il ot
i ence
ht ub
ce ed
ar l
ail able
I s
Ġwhen ever
Ġv ase
Ġtra sh
Ġtem ple
Ġte ase
Ġt ag
Ġsun set
Ġsho e
Ġscre en
Ġsay ing
Ġsaf ely
Ġs ubway
Ġs on
Ġr ushed
Ġpro v
Ġp us
Ġorgan ize
Ġob ser
Ġher b
Ġfeather s
Ġey e
Ġenv ious
Ġenjoy ing
Ġd eter
Ġcri cket
Ġcri b
Ġch ores
Ġch ain
Ġc ob
Ġc ell
Ġbu ry
Ġbath robe
Ġbat htub
Ġav ailable
ĠYou r
Ġ ed
um b
st airs
or y
l oo
is ion
ik i
id ing
ian o
he ad
asp oon
The re
M r
M e
L ittle
Bob o
Ġwr ote
Ġun pack
Ġtra p
Ġtr ay
Ġte aspoon
Ġsw itch
Ġstick ers
Ġslid es
Ġshop keeper
Ġshe et
Ġre pe
Ġre p
Ġpoin ting
Ġpar rot
Ġnot ice
Ġneed s
Ġn ail
Ġmean s
Ġm ild
Ġl ed
Ġkn ock
Ġkind ness
Ġhappen ing
Ġgir affe
Ġflash light
Ġfall ing
Ġf ountain
Ġe ither
Ġdraw er
Ġdisapp eared
Ġdeter m
Ġdes ign
Ġd are
Ġche ss
Ġcarp et
Ġc ord
Ġbor row
Ġbill board
ĠSp ark
y e
ic hes
ess ert
er able
ce an
Ġwip ed
Ġwe ek
Ġun ite
Ġtrick s
Ġto e
Ġsuc ceed
Ġst able
Ġsold ier
Ġsho cked
Ġsandw iches
Ġs ke
Ġr ise
Ġplay ground
Ġpe bble
Ġpa le
Ġp ilot
Ġo cean
Ġmis erable
Ġmel on
Ġm ay
Ġl end
Ġj et
Ġg em
Ġenc ou
Ġear th
Ġdisapp oin
Ġdisapp ear
Ġdelic ate
Ġdan cer
Ġd essert
Ġc able
Ġbus hes
Ġbike s
Ġbig gest
ĠT weet
ĠM iss
Ġ ow
us ie
ur ing
our ite
ot ter
le ton
l ow
h ip
c ream
ap on
and a
The ir
?" .
Ġwe apon
Ġval ue
Ġtr ack
Ġt ummy
Ġsw ung
Ġst ud
Ġspo ke
Ġsp un
Ġske leton
Ġsho vel
Ġpo ke
Ġp iano
Ġof ten
Ġnice ly
Ġmusic ian
Ġm uff
Ġit self
Ġh ut
Ġfriends hip
Ġfle a
Ġfav ourite
Ġfast est
Ġcl ub
Ġc ity
Ġbatter y
Ġbag s
Ġb ent
ĠS h
ĠP rin
ĠK im
Ġ otter
w ards
ut es
um mer
s ity
rm omet
rmomet er
le ased
im ney
gu in
er o
em ent
ch an
ch air
c key
ar ry
a it
Ġvi ol
Ġtra il
Ġthe rmometer
Ġtell s
Ġtear s
Ġte am
Ġsug gest
Ġspark ly
Ġsk ipped
Ġser ve
Ġremind ed
Ġre f
Ġr ag
Ġpen guin
Ġp ir
Ġmin utes
Ġme m
Ġm itten
Ġlo ad
Ġjump s
Ġju icy
Ġho ckey
Ġhe at
Ġgr own
Ġgr oup
Ġgigg led
Ġg ear
Ġfind s
Ġed ge
Ġdolph in
Ġdisappoin ted
Ġdeterm ined
Ġcu be
Ġclimb ing
Ġcl iff
Ġch imney
Ġblack board
ĠW ill
ĠJim my
ĠG igi
ĠBu zzy
ĠA re
z ag
us ia
ul ance
re ssed
on y
ig zag
h usia
f a
ent s
co a
chan ic
c ast
b ulance
ap ers
W ait
O uch
' d
Ġviol in
Ġtri pped
Ġt ub
Ġsk irt
Ġsearch ing
Ġsand cast
Ġre ward
Ġre fused
Ġquest ions
Ġqu iz
Ġpract ice
Ġpo pped
Ġpe e
Ġpe anut
Ġpe ach
Ġp un
Ġor der
Ġne at
Ġme chanic
Ġm elt
Ġli p
Ġj am
Ġhelp er
Ġhat e
Ġhapp ier
Ġhang ing
Ġgra ce
Ġeven ing
Ġent husia
Ġdream ing
Ġdraw ings
Ġdes k
Ġcra zy
Ġcow s
Ġcheer ful
Ġcard board
Ġbat he
Ġbanan as
Ġavoc ado
Ġam bulance
ĠO r
ĠK iki
v ision
re nder
p ar
n ger
m et
g ing
d ge
b by
at ure
an a
a ul
You r
Ġy ield
Ġw ire
Ġw ine
Ġtele vision
Ġt ide
Ġstre am
Ġst y
Ġspe ak
Ġsp ort
Ġso fa
Ġsandcast le
Ġsal t
Ġs end
Ġrub bed
Ġroll ing
Ġpre ssed
Ġpick ing
Ġon ion
Ġon ce
Ġo xygen
Ġmistake s
Ġmiss ing
Ġmess age
Ġmed al
Ġlight s
Ġli br
Ġlaw y
Ġinc re
Ġimp ressed
Ġhel met
Ġh ours
Ġgr owl
Ġg rill
Ġg az
Ġfire work
Ġf ile
Ġear ly
Ġdist ant
Ġcomplet e
Ġcompl ain
Ġco coa
Ġcand le
Ġc amp
Ġbo ot
Ġbed room
Ġb icy
Ġarm chair
Ġab ove
Ġa w
ĠZ oomy
ĠZ ip
ĠSo f
ĠS usie
ĠP ipp
ĠP eter
v ator
urt ain
und ry
ul u
s es
ri c
ous es
oph ie
in ation
he st
col i
c coli
a ked
R e
O w
G ra
Ġuniver sity
Ġtick et
Ġthem selves
Ġth ose
Ġtell ing
Ġste el
Ġst om
Ġspin ning
Ġsp ade
Ġshr ink
Ġscoot er
Ġsa ving
Ġrepe at
Ġrep air
Ġproblem s
Ġpoin t
Ġpo st
Ġpin ch
Ġpast ry
Ġp anda
Ġo il
Ġme al
Ġma ze
Ġm en
Ġlibr ary
Ġli e
Ġla undry
Ġl id
Ġkn e
Ġit ch
Ġhot el
Ġh ouses
Ġgo lf
Ġget s
Ġfil m
Ġf ought
Ġele vator
Ġdri ving
Ġdis hes
Ġcou rage
Ġcont ent
Ġc urtain
Ġatt ach
Ġar t
Ġadm ire
ĠWigg ly
ĠR ob
ĠI s
Ġ Y
Ġ V
ur ed
ug ged
u nder
u esday
st ic
r ank
ir on
ig ent
f ast
et e
ell igent
ed y
ec ause
aur ant
all ey
M imi
E m
B ye
A l
Ġwindow s
Ġwin ter
Ġwh ale
Ġwe ight
Ġth under
Ġsur render
Ġsquirrel s
Ġsound ed
Ġsh aking
Ġsee m
Ġsc ale
Ġrest less
Ġrest aurant
Ġread ing
Ġre ce
Ġr ot
Ġr iding
Ġpri ce
Ġpo ked
Ġold er
Ġo ak
Ġn ur
Ġlion s
Ġlawy er
Ġinv ite
Ġint elligent
Ġhur ry
Ġho les
Ġhead s
Ġhe n
Ġhand ed
Ġgra pes
Ġgather ed
Ġg ain
Ġforg ave
Ġenthusia stic
Ġdoor s
Ġcom fort
Ġcher ries
Ġcall ing
Ġbreak fast
Ġboun ced
Ġbicy cle
Ġband age
ĠT uesday
w eb
st iv
stiv al
om ed
o ved
l ies
i pping
c age
at ient
ar ing
ag re
ack et
ac he
Jim my
J ill
Ġwra pped
Ġwar n
Ġv alley
Ġtool s
Ġspo il
Ġsn ail
Ġsl ip
Ġsil ver
Ġsh adow
Ġro ared
Ġrem ove
Ġpudd les
Ġpre p
Ġpo le
Ġpar ade
Ġpa ir
Ġp apers
Ġp age
Ġnur se
Ġn ature
Ġn ation
Ġletter s
Ġimp atient
Ġimag ine
Ġhe dge
Ġgrab s
Ġfe stival
Ġdiscover ed
Ġdis agre
Ġd ra
Ġcob web
Ġco ins
Ġche ck
Ġce re
Ġcarry ing
Ġbro ccoli
Ġbreak s
Ġbird cage
Ġar g
Ġall owed
Ġagain st
ĠZ oe
ĠP olly
ĠM ar
ĠFin ny
ĠEvery where
ĠE ventually
up er
ro d
nd or
n al
is on
ic le
gg y
at ing
at es
ang es
W oof
J oe
Dad dy
Ġz ipper
Ġy aw
Ġve ndor
Ġv ine
Ġthrow s
Ġswe ater
Ġsty le
Ġstick y
Ġsor ting
Ġse par
Ġsand box
Ġs uper
Ġs ize
Ġpoem s
Ġperf ume
Ġp ort
Ġp ine
Ġmot or
Ġkind s
Ġjour nal
Ġj ail
Ġj acket
Ġin s
Ġhur ric
Ġhar bor
Ġham mer
Ġha nger
Ġfrown ed
Ġfrog s
Ġf ive
Ġexpl ain
Ġdream ed
Ġd em
Ġcol our
Ġche ek
Ġch ose
Ġcar ing
Ġcan e
Ġal arm
ĠR uby
ĠOw l
ĠL ulu
y ear
ver se
ump et
um bled
re ady
ol og
n ight
la ud
l p
l oe
he lf
he art
ff ic
ch or
ast ic
arl ie
D id
, âĢĿ
' ve
Ġwe ep
Ġwall et
Ġtr unk
Ġtr umpet
Ġto ast
Ġstret ched
Ġstom ach
Ġstir red
Ġshake s
Ġsett le
Ġs ummer
Ġs udden
Ġrem ain
Ġra il
Ġpray ed
Ġper m
Ġpare nt
Ġmet al
Ġmar ched
Ġmail man
Ġm ention
Ġlisten ing
Ġking dom
Ġint rod
Ġin se
Ġin k
Ġignor ed
Ġhurric ane
Ġhold s
Ġgrace ful
Ġgra pe
Ġfire man
Ġdist ance
Ġcool er
Ġcom f
Ġchick ens
Ġche cked
Ġcere al
Ġc ur
Ġbooks helf
Ġblue berry
Ġbasket ball
Ġb ase
Ġap olog
Ġany way
Ġan chor
Ġal ready
Ġal ive
Ġair port
Ġaccident ally
Ġacce pt
Ġa head
ĠS que
ĠS m
ĠPipp in
ĠP andy
ĠHe lp
ĠBet ty
Ġ iron
st ers
l ter
g ie
bb on
amp oo
ag gie
ac hes
N ext
L isa
D aisy
B ecause
= =
Ġyog a
Ġwip e
Ġwag s
Ġve h
Ġtw isted
Ġto ur
Ġsweet ie
Ġsweet heart
Ġswam p
Ġstri ke
Ġspot s
Ġsnee ze
Ġsn ap
Ġsmo ke
Ġsh ampoo
Ġs ent
Ġri bbon
Ġrest ore
Ġres ist
Ġreg ret
Ġpus hes
Ġprov ide
Ġproud ly
Ġpee ked
Ġpa cked
Ġp itch
Ġoff ice
Ġoff ered
Ġno body
Ġmyster y
Ġmuff in
Ġmod est
Ġmem ory
Ġm all
Ġli ck
Ġle ak
Ġl ime
Ġkeep ing
Ġjewel ry
Ġign ore
Ġfree z
Ġfr o
Ġfix ing
Ġdra in
Ġdestroy ed
Ġdem and
Ġdelight ed
Ġcu b
Ġcro ssed
Ġcount ry
Ġclass room
Ġcir cles
Ġc omet
Ġbutton s
Ġbu zz
Ġbro om
Ġbelong s
Ġbelie ved
ĠL enny
ĠJohn ny
ĠE nd
v ice
ut or
ur ch
uc et
st al
sh ion
s qu
squ it
squit o
or ch
oph y
n a
itten s
im ed
ie st
er ation
en se
ec ture
c ase
as on
Y ay
W ell
N ot
M ary
Gra ndma
!" .
Ġz ero
Ġv room
Ġup stairs
Ġuniver se
Ġtr ophy
Ġthe ater
Ġthank s
Ġt utor
Ġstri p
Ġstraw berries
Ġstr ugg
Ġstep s
Ġsome where
Ġsniff ed
Ġslid ing
Ġshout s
Ġshe lter
Ġsepar ate
Ġr ush
Ġpre vent
Ġpol ish
Ġpo ison
Ġpl astic
Ġpir ate
Ġpet als
Ġp orch
Ġp ony
Ġp ages
Ġop eration
Ġobser ve
Ġmo squito
Ġma ss
Ġl ecture
Ġl amp
Ġkne el
Ġinse ct
Ġinc l
Ġim age
Ġgrow ing
Ġg ro
Ġfreez er
Ġfing ers
Ġfam il
Ġfa ucet
Ġfa shion
Ġdoes n
Ġcry stal
Ġch urch
Ġcake s
Ġbutterf lies
Ġbump ed
Ġbu ried
Ġbrother s
Ġbel ow
Ġbe g
Ġbark ing
Ġbal an
Ġb et
Ġall ow
Ġad vice
ĠW here
ĠSnow y
ĠSm ith
ĠP aul
ĠN ana
ĠJoe y
ĠFro ggy
ĠF rank
ve al
ster day
pl ay
m ble
l ive
iv i
is dom
ig loo
if orm
e sterday
d robe
ar ian
ap a
an ger
a ced
S ee
Re ady
C h
. .
. '
Ġzoo keeper
Ġy ucky
Ġworm s
Ġwe b
Ġwas hing
Ġwar drobe
Ġveh icle
Ġur ge
Ġun iform
Ġtw ir
Ġtre mble
Ġto ng
Ġsurpr ises
Ġsuggest ed
Ġst ro
Ġsp ell
Ġsor ted
Ġsmell s
Ġs uff
Ġre veal
Ġplay er
Ġpe ek
Ġpe bbles
Ġpa used
Ġp leased
Ġmen u
Ġme owed
Ġl ily
Ġjoke s
Ġintrod uce
Ġhig hest
Ġgre edy
Ġgo al
Ġgigg le
Ġfoot ball
Ġex t
Ġend ed
Ġem er
Ġeager ly
Ġdrop s
Ġdis play
Ġd ust
Ġcup board
Ġcla w
Ġcho ice
Ġch asing
Ġc ared
Ġbook case
Ġboat s
Ġbe ep
Ġba king
Ġb ak
Ġacorn s
ĠT oto
ĠP ete
ĠP at
ĠL ook
ĠF l
ĠCh loe
ĠB ig
Ġ igloo
y th
udd les
uc ture
uc ked
ri age
or ted
l v
l id
in arian
id es
eter inarian
ess ie
em ember
ec ted
c ome
ation s
ar oo
ang aroo
an ny
am ber
a pping
J enny
H a
Ġwe st
Ġwar ning
Ġwar ned
Ġwander ed
Ġw igg
Ġv eterinarian
Ġur ged
Ġtra ffic
Ġth umb
Ġstud ied
Ġstr ucture
Ġstr anger
Ġstick er
Ġsque e
Ġsoft ly
Ġshr ugged
Ġshow er
Ġshiver ing
Ġsh ield
Ġse ason
Ġsc ore
Ġsc oop
Ġsad ly
Ġring ing
Ġre verse
Ġre aches
Ġpuzz les
Ġput ting
Ġp ies
Ġop in
Ġmix er
Ġmin ute
Ġme as
Ġlean ed
Ġl uck
Ġk angaroo
Ġj azz
Ġincre ase
Ġimag ined
Ġhop ing
Ġfree ze
Ġcolour ful
Ġcoat s
Ġcher ry
Ġch amber
Ġc ards
Ġburn ed
Ġbuck le
Ġbright ly
Ġbre eze
Ġbre at
Ġapp laud
ĠSof ia
ĠS ophie
ĠS low
ĠP apa
ĠJ o
ĠF o
ĠBrown ie
ĠA bby
Ġ âĢ
yth m
w e
sp it
spit al
pl ace
ol a
og n
n esday
med i
medi ately
m are
lid ay
l s
it ation
ipper y
in king
ic er
her o
ed nesday
e er
az or
as is
M ark
E lla
Bob by
Ġtrust ed
Ġtorn ado
Ġtong ue
Ġsupp ly
Ġsuper hero
Ġstart s
Ġst umbled
Ġsque eze
Ġsl ippery
Ġsk ill
Ġsit s
Ġser ved
Ġscr atch
Ġrespect ful
Ġrec ogn
Ġrain ed
Ġrabbit s
Ġr ow
Ġr azor
Ġpo ppy
Ġpen ny
Ġor anges
Ġo live
Ġo asis
Ġnight mare
Ġneigh b
Ġmass age
Ġmark s
Ġins isted
Ġin f
Ġho spital
Ġho liday
Ġh ook
Ġguess ed
Ġfre sh
Ġforgot ten
Ġflo ated
Ġfl our
Ġfeel ings
Ġfall en
Ġext ra
Ġexcited ly
Ġencou rage
Ġdeep er
Ġcut ting
Ġcup s
Ġclimb s
Ġclaw s
Ġc ape
Ġboot s
Ġbab ies
Ġatt ached
Ġagre e
ĠW isdom
ĠV ivi
ĠU nder
ĠSque aky
ĠS u
ĠR ock
ĠP inky
ĠN ot
ĠN ext
ĠM illy
ĠJ ake
ĠD ave
ĠC uddles
Ġ x
t ain
sc ope
red ient
redient s
op s
n ce
iz es
it es
irr ing
ir affe
ing redients
gen cy
e al
ctor y
ax i
at ie
L eo
Be fore
B ella
Ġwis dom
Ġtight ly
Ġt axi
Ġst irring
Ġsquee zed
Ġsister s
Ġshould n
Ġsell ing
Ġseat s
Ġsc old
Ġs ix
Ġrece ive
Ġra ised
Ġra ise
Ġprin ted
Ġpri ze
Ġpretend ing
Ġprep are
Ġpotato es
Ġph ot
Ġperm it
Ġpa id
Ġour selves
Ġmust ache
Ġmove s
Ġmin t
Ġm ummy
Ġlick s
Ġland s
Ġimag ination
Ġim mediately
Ġhurt ing
Ġhun g
Ġhill s
Ġheart s
Ġgro cer
Ġgrand pa
Ġgi ven
Ġfollow s
Ġfl ood
Ġfl ame
Ġfar t
Ġfamil ies
Ġfa ctory
Ġex pect
Ġen er
Ġeas ily
Ġdress es
Ġdress ed
Ġdel ay
Ġd ared
Ġcount er
Ġcoll ar
Ġch irp
Ġch ance
Ġcap tain
Ġc udd
Ġbl ood
Ġbean s
Ġbase ball
Ġb other
Ġatt ention
Ġamaz ement
ĠWhen ever
ĠW ould
ĠW ednesday
ĠRo ver
ĠRo llie
ĠM ittens
ĠM e
ĠL ee
ĠH appy
ĠG iraffe
ĠFin n
Ġ ingredients
Ġ Ċ
z en
sp eci
speci ally
n oon
la imed
ind eer
in ce
ic a
i en
d o
ar nt
ar i
ag ull
Y uck
S h
ĠâĢ ĵ
Ġwr iting
Ġwor se
Ġwin ning
Ġunderstand ing
Ġtr ade
Ġto night
Ġthre ad
Ġteach ing
Ġt ug
Ġstre ng
Ġstop s
Ġst ing
Ġsplas hing
Ġsol ved
Ġsock s
Ġso ak
Ġsnee zed
Ġse agull
Ġscatter ed
Ġre indeer
Ġrad ish
Ġquiet ly
Ġprun e
Ġpre ss
Ġplay time
Ġpl aced
Ġpan ic
Ġp ed
Ġopin ion
Ġmeet ing
Ġmar riage
Ġle arnt
Ġla id
Ġl ung
Ġkn ot
Ġinf ant
Ġin st
Ġhop es
Ġgu y
Ġgaz ed
Ġfro zen
Ġfl ies
Ġfire place
Ġexplor ed
Ġexp er
Ġexc laimed
Ġent er
Ġemer gency
Ġe specially
Ġde ar
Ġd ried
Ġd aisy
Ġcon f
Ġcollect ion
Ġchair s
Ġcart oon
Ġcall s
Ġbre aking
Ġblow ing
Ġbe at
Ġbark s
Ġap art
Ġafter noon
Ġadm ired
Ġa dded
ĠT ippy
ĠT eddy
ĠL ola
ĠJ oy
ĠJ ames
ĠH ave
ĠE lly
ĠD ino
ĠD are
ĠCh arlie
ĠC l
ĠB ow
urt her
ur pr
um es
u el
u be
ro scope
re en
p ted
m en
le phant
iz ing
it ies
ic ing
i ving
ht ray
h ood
h appy
g es
ex ture
el come
e ath
as er
an ie
ad ed
W ould
W ill
F red
Em ma
Ġz igzag
Ġwonder s
Ġwater ed
Ġvan ished
Ġtrack s
Ġto es
Ġt ucked
Ġt ube
Ġt exture
Ġsuff er
Ġstudy ing
Ġsteal ing
Ġst itch
Ġsk ipping
Ġsh one
Ġrepl ace
Ġran ch
Ġr ul
Ġpull s
Ġphot os
Ġpass port
Ġpan s
Ġoff er
Ġmy self
Ġmonkey s
Ġmin er
Ġmic roscope
Ġman age
Ġli ves
Ġlemon ade
Ġl imes
Ġkind ly
Ġgr ant
Ġfl apped
Ġexper ience
Ġexam ine
Ġembarra ss
Ġdrink s
Ġdisagre ed
Ġcraw ling
Ġcost umes
Ġco pper
Ġbr ings
Ġblue berries
Ġbeaut y
Ġba ked
Ġas htray
Ġacce pted
ĠSt itch
ĠM ay
ĠM aggie
ĠJess ica
ĠH o
ĠGo d
ĠG ood
ĠFro g
ĠC o
ĠBl ink
ĠBird y
ĠBe fore
ĠB ally
we en
w alk
urpr ise
un ately
u ss
th ank
s ed
ra ised
que st
oun cy
ob y
la ire
io let
ic orn
ht er
et ch
d am
c uss
b ook
b oo
at ched
Every one
A nn
A ll
Ġwe ather
Ġve il
Ġun icorn
Ġun happy
Ġtomato es
Ġto re
Ġte asing
Ġsur f
Ġstreng th
Ġste am
Ġst air
Ġside walk
Ġse w
Ġs ince
Ġru les
Ġrem oved
Ġra cing
Ġpun ished
Ġpun ish
Ġpret t
Ġplan ted
Ġpat ch
Ġp raised
Ġnote book
Ġno vel
Ġnam es
Ġminer al
Ġma ster
Ġlaug hter
Ġincl ude
Ġher s
Ġgrocer y
Ġglove s
Ġfor t
Ġfollow ing
Ġf urther
Ġener gy
Ġelephant s
Ġeat en
Ġdon key
Ġdis cuss
Ġcur led
Ġcr ane
Ġcomf y
Ġcollect ing
Ġcelebr ation
Ġbucket s
Ġbet ween
Ġbel t
Ġbear s
Ġapp ro
ĠT oby
ĠSnow man
ĠRock y
ĠR emember
ĠL ittle
ĠK e
ĠH op
ĠGra nd
ĠE ach
ĠB ug
ĠB ouncy
ĠB inky
ĠB essie
Ġ er
Ġ Once
ugg led
ugg age
s hed
re ct
ra ged
ou ch
m end
ls a
loo king
is ing
ip e
in ked
id s
er cy
en ge
com mend
c ious
ber t
az ine
all enge
ab y
ab ella
W elcome
To day
The se
Thank s
S urprise
Mom o
B ird
Al ice
" ,
!" ,
Ġzoom ed
Ġyaw ned
Ġwor th
Ġwigg le
Ġwhist led
Ġwhisp er
Ġwat ches
Ġwait s
Ġunl ocked
Ġtreasure s
Ġthrow ing
Ġstick ing
Ġstar ting
Ġsne aky
Ġsn uggled
Ġsn apped
Ġsil ence
Ġshould er
Ġshin ed
Ġsett led
Ġscold ed
Ġs ir
Ġre sp
Ġre quest
Ġre commend
Ġqu ite
Ġpig s
Ġpeanut s
Ġpattern s
Ġop era
Ġo h
Ġme ow
Ġmat ches
Ġmar ried
Ġmag azine
Ġm ister
Ġlight ning
Ġlet ting
Ġl uggage
Ġkeep er
Ġjog ged
Ġinv itation
Ġinst r
Ġin ch
Ġhad n
Ġha ll
Ġgr in
Ġfold ed
Ġfl at
Ġfirework s
Ġfeed ing
Ġf ed
Ġcreature s
Ġch allenge
Ġcand les
Ġbu bble
Ġbrave ly
Ġbra in
Ġbl inked
Ġben eath
Ġbe nd
Ġbak ery
Ġbad ly
Ġarg ue
Ġappro ached
Ġapolog ized
Ġact iv
ĠZ igzag
ĠU n
ĠSpark y
ĠSh aring
ĠS un
ĠM o
ĠK atie
ĠHo pper
ĠH oot
ĠGrand pa
ĠGra ce
ĠE lephant
ĠCh ick
ĠA corn
up s
uc t
ss ible
re ck
ph one
omed ay
k y
k ins
i um
i ers
g o
fort unately
et y
cy cle
co nd
c ense
ay ak
av id
ap ed
ad ium
W ith
W atch
T rue
O k
M ay
E ventually
B uddy
Ġwork er
Ġwaff les
Ġwa ving
Ġw reck
Ġvis ited
Ġve st
Ġunder ground
Ġtw ink
Ġtra ve
Ġtheir s
Ġtele phone
Ġtast es
Ġst adium
Ġspr ink
Ġspend ing
Ġsp it
Ġsold iers
Ġsne ak
Ġsl ap
Ġsho pping
Ġsee ing
Ġse cond
Ġsaus ages
Ġsaf ety
Ġs omeday
Ġs izes
Ġs ip
Ġrul er
Ġroom s
Ġro pes
Ġresc ued
Ġres ult
Ġrem ained
Ġrelax ed
Ġqu ack
Ġpus hing
Ġplan es
Ġo at
Ġn apping
Ġmotor cycle
Ġmoment s
Ġm ama
Ġlip s
Ġli cense
Ġle ather
Ġl ined
Ġk ayak
Ġit em
Ġhappen s
Ġgrowl ed
Ġgirl s
Ġgather ing
Ġent ered
Ġencou raged
Ġeag le
Ġdown stairs
Ġd uring
Ġcont est
Ġcla pping
Ġcelebr ated
Ġbright er
Ġbreat he
Ġbr ushed
Ġbit ing
Ġbit es
Ġbalan ced
Ġas hes
Ġany where
Ġan n
Ġall ig
Ġagre ement
ĠWh o
ĠS ee
ĠR ay
ĠP ercy
ĠMar ia
ĠK ate
ĠJack y
ĠFo x
ĠC ra
ĠBet sy
ĠAl ice
z i
ust y
um ber
ue st
s ing
ri an
re c
rec i
r s
r r
qu ake
oy s
ors es
l ue
j o
ish y
is hing
im ple
igg y
e zi
e ve
e ave
ch oo
ang ers
an na
a cked
St ay
S p
M oral
Em ily
D og
B u
Ġz ipped
Ġwork ers
Ġwonder ing
Ġwhist les
Ġw ob
Ġvill ag
Ġvan ish
Ġtw in
Ġtub es
Ġtrip s
Ġstri pes
Ġstretch ing
Ġstr angers
Ġspray ed
Ġsp ike
Ġso ared
Ġsne aked
Ġsight s
Ġset ting
Ġscream ing
Ġs imple
Ġs igh
Ġroad s
Ġrh ythm
Ġran g
Ġprov ided
Ġpro ject
Ġpresent s
Ġpre cious
Ġpr ide
Ġpo king
Ġplan ned
Ġpile s
Ġpencil s
Ġped als
Ġpart s
Ġp ipe
Ġoy sters
Ġorgan izing
Ġord ered
Ġon wards
Ġolive s
Ġnow here
Ġnew s
Ġneighb our
Ġmouth s
Ġmeas ured
Ġm uddy
Ġm ice
Ġm erry
Ġloo p
Ġlo ses
Ġla ser
Ġl ines
Ġkneel ed
Ġkn elt
Ġkiss es
Ġkick ing
Ġide as
Ġhapp iest
Ġhand ful
Ġh orses
Ġgrin ned
Ġglass es
Ġgift s
Ġg uest
Ġg ained
Ġforget s
Ġfloat ing
Ġfl ap
Ġf etch
Ġex it
Ġearth quake
Ġdr inking
Ġdec ides
Ġcush ions
Ġcop y
Ġcand ies
Ġbuzz ing
Ġbrick s
Ġboun cy
Ġboun cing
Ġbloom ed
Ġb ang
Ġapp reci
Ġapp ear
Ġallig ator
ĠY esterday
ĠWigg les
ĠT ara
ĠSt op
ĠSp in
ĠS ky
ĠR ed
ĠP izza
ĠMe g
ĠM ushroom
ĠJo sh
ĠJ anie
ĠF or
ĠE lsa
ĠCl ara
ĠC ow
ĠB oth
ĠB arry
us b
usb and
unch y
ul p
ud ience
ra ight
r is
r ing
r iger
riger ator
qu ip
quip ment
pl ash
or ies
or ed
lv et
itc hes
he e
h ind
h a
er ious
en a
ed s
be y
aw s
at ty
Y um
Wh iskers
T ime
R uby
R ob
R emy
Q u
John ny
H appy
E x
D ave
B lue
== ==
' .
Ġwork s
Ġwood en
Ġweep ing
Ġwag ging
Ġve lvet
Ġv ines
Ġtra pped
Ġtr aded
Ġthre at
Ġth rill
Ġstud ents
Ġstr ings
Ġst raight
Ġst ain
Ġsplas hes
Ġspark led
Ġsort s
Ġso c
Ġsl apped
Ġskill s
Ġsail ing
Ġri p
Ġreveal ed
Ġref rigerator
Ġrecord ing
Ġrecord ed
Ġrecogn ize
Ġre leased
Ġpull ing
Ġpu p
Ġprett ier
Ġpop s
Ġpoint s
Ġplay s
Ġplan et
Ġperfect ly
Ġpear l
Ġpe as
Ġour s
Ġobser ved
Ġoat s
Ġo bey
Ġn one
Ġn icer
Ġmus cles
Ġmot ion
Ġmix ing
Ġmiss ion
Ġmelt ing
Ġmagnet s
Ġlog s
Ġli ed
Ġlet s
Ġlay ing
Ġkeep s
Ġk ites
Ġjog ging
Ġhit s
Ġhe s
Ġhard ly
Ġh usband
Ġh on
Ġguy s
Ġgot ten
Ġgold en
Ġgl itter
Ġfart her
Ġe quipment
Ġe ight
Ġe ff
Ġe ast
Ġdog gy
Ġdistur bed
Ġdiffere nce
Ġdemand ed
Ġdecor ations
Ġcra shed
Ġcra sh
Ġcr unchy
Ġcoll ected
Ġchew ed
Ġche f
Ġcat ches
Ġby e
Ġbr id
Ġblanket s
Ġbl ouse
Ġbeg in
Ġbed s
Ġb oo
Ġb ones
Ġarg ued
Ġansw ers
Ġag o
Ġact ually
Ġa udience
ĠT ina
ĠT ato
ĠSu zy
ĠSt ay
ĠSpin ny
ĠPrin ce
ĠN avy
ĠM ouse
ĠL ou
ĠL izzy
ĠL ater
ĠJess ie
ĠH enny
ĠEvery thing
ĠCo co
ĠC ar
ĠBird ie
âĢĿ .
z ie
y lv
ylv ia
ve st
vest ig
vestig ate
v a
ubb les
u ke
t uce
sc aped
r ise
r ight
ound s
os ed
or ge
mb ling
ll en
l iver
iz ard
it ched
ip s
in t
in ing
ight y
ide y
i ved
i b
i am
he llo
f ather
ed d
edd ing
com pl
ch ie
c us
ater pillar
ant ly
ang a
an es
a ved
a les
U n
S andy
P eter
J azz
F o
B oo
A choo
Ġzoom ing
Ġwhist ling
Ġwelc omed
Ġw oof
Ġw izard
Ġw edding
Ġvoice s
Ġun ited
Ġtwig s
Ġtre mbling
Ġthrill ed
Ġte ased
Ġt ap
Ġswim s
Ġsupp osed
Ġsun rise
Ġsucceed ed
Ġstrugg ling
Ġspark le
Ġsoc cer
Ġso il
Ġsnow ball
Ġsl ice
Ġsit u
Ġshovel s
Ġshould ers
Ġshadow s
Ġscream s
Ġscr atched
Ġscatter ing
Ġsaf ari
Ġs ense
Ġrot ting
Ġroar ing
Ġrest ing
Ġrece ived
Ġrain ing
Ġqu acked
Ġpur red
Ġprin ter
Ġpir ates
Ġpin ched
Ġpet ted
Ġpear s
Ġpay ing
Ġpast el
Ġpaint s
Ġp alm
Ġout do
Ġornament s
Ġnail s
Ġmuff ins
Ġmiss es
Ġmention ed
Ġmel ted
Ġmat ched
Ġmar ble
Ġman e
Ġlet tuce
Ġland scape
Ġl umber
Ġknock s
Ġjewel s
Ġinv iting
Ġincre ased
Ġin vestigate
Ġimport ance
Ġh um
Ġh i
Ġgrand father
Ġg ust
Ġfold ing
Ġfire men
Ġfield s
Ġer aser
Ġeff ort
Ġeat s
Ġeas ier
Ġe scaped
Ġdraw s
Ġdrag ged
Ġdisco very
Ġdisagre e
Ġdi rect
Ġde al
Ġd ied
Ġcre ation
Ġcre ated
Ġcrab s
Ġcorn ers
Ġcomf orted
Ġclose ly
Ġchirp ed
Ġcheek s
Ġc ough
Ġbrid ges
Ġbr us
Ġbloom ing
Ġbeh aving
Ġbeh aved
Ġbe side
Ġbe ard
Ġbalan cing
Ġback pack
Ġb ur
Ġb erry
Ġaw e
Ġas ide
Ġal ien
Ġadm ir
Ġactiv ities
Ġac compl
ĠZ ero
ĠW atch
ĠV iolet
ĠTweet y
ĠThe se
ĠSof ty
ĠSh iny
ĠS w
ĠP ippy
ĠO ur
ĠO liver
ĠN ice
ĠMar ie
ĠM oppy
ĠM ina
ĠM ighty
ĠM andy
ĠL ove
ĠL illy
ĠJack ie
ĠHow ever
ĠH atty
ĠG et
ĠD avid
ĠD an
ĠBr ush
ĠBe ing
ĠB ubbles
Ġ X
w as
was her
v room
unt ie
un e
um ents
re at
r anny
op er
om ing
oc co
n o
n ap
m other
m m
low ers
le ed
iss ue
ir m
igg ing
id o
ic ular
i ar
er n
en ry
ell e
e orge
e ff
c ie
av i
arm ony
are ly
ant a
an ted
am b
ac ob
Sam my
S ophie
R o
R ex
O ur
Joe y
Ex c
Ben ny
? '
.. ."
! '
Ġyaw n
Ġy esterday
Ġwin s
Ġweek s
Ġw ink
Ġvillag ers
Ġval ued
Ġun s
Ġtwir led
Ġtruck s
Ġtra ctor
Ġt una
Ġt issue
Ġsweet ies
Ġswe at
Ġstuff ed
Ġstro ll
Ġste ep
Ġstamp s
Ġst ung
Ġst ern
Ġsprink les
Ġspoon s
Ġspike s
Ġso re
Ġso fter
Ġsing le
Ġsigh s
Ġshout ing
Ġshe d
Ġsh ot
Ġseem s
Ġse ven
Ġscr ub
Ġscoot ers
Ġscoop ed
Ġsc ur
Ġsa v
Ġs ings
Ġri ce
Ġresp on
Ġrecogn ized
Ġread s
Ġreach ing
Ġran ger
Ġr usty
Ġprint s
Ġprep ared
Ġpr oper
Ġpour ing
Ġpo ssible
Ġpart ies
Ġpart icular
Ġp le
Ġoutdo ors
Ġoff icer
Ġobject s
Ġneighbor hood
Ġn ine
Ġn avy
Ġmon sters
Ġmem ories
Ġmeas uring
Ġlo ving
Ġlearn s
Ġlean ing
Ġknight s
Ġkick s
Ġis n
Ġhis sed
Ġhero es
Ġhelp ers
Ġhe el
Ġgrowl ing
Ġgre y
Ġgrand mother
Ġgr anted
Ġgigg ling
Ġforg iving
Ġfl av
Ġfa ced
Ġex pected
Ġdish washer
Ġdark er
Ġd igging
Ġd en
Ġcut s
Ġcub es
Ġcreat ing
Ġcre ek
Ġcont ain
Ġcomplet ely
Ġcol ours
Ġclap s
Ġchew ing
Ġch oo
Ġbuzz ed
Ġblock ing
Ġbl own
Ġbeh avi
Ġbeg ged
Ġbatter ies
Ġback ward
Ġb leed
Ġb arely
Ġautomobile s
Ġann oy
Ġact ions
Ġaccompl ish
Ġac ted
ĠW oof
ĠSun shine
ĠSu zie
ĠSp irit
ĠSomet hing
ĠSlow ly
ĠS unny
ĠS plash
ĠS anta
ĠPrin t
ĠL uke
ĠK ids
ĠK anga
ĠJo jo
ĠJ umpy
ĠIt s
ĠH oppy
ĠG reen
ĠG ray
ĠG ranny
ĠFrank ie
ĠFl ick
ĠF riend
ĠEvery day
ĠD ezi
ĠD anny
ĠC laire
ĠC aterpillar
ĠC arl
ĠB y
ĠB op
ĠB aby
ĠAnn e
ĠAl ways
ĠA rm
ĠA nt
ĠA dam
Ġ ĊĠ
z ing
ut ure
ut ter
urn it
urnit ure
ud ed
st ri
stri ch
ro l
r up
r ops
pp ers
os ity
ore nce
or man
orman ce
ook ie
omet imes
og o
o llen
o id
n joy
m ies
le x
le ct
l er
ist en
ind rops
ind a
im y
if i
ien na
h ythm
gu ing
gu ard
f ound
ent y
el ix
e ven
e f
aw n
as es
ad os
ad ly
ac y
ac ation
ab el
a ct
W hee
V room
T weet
T ake
S ometimes
Qu ick
P inky
O ut
O ops
M aggie
L izzy
J erry
H old
H ave
Good bye
G reat
Fo llow
Exc use
D uring
D ucky
Ch arlie
Bu zz
B ear
Ġyell ing
Ġworry ing
Ġwis hing
Ġwin ner
Ġwhere ver
Ġwear s
Ġwarm th
Ġwarm er
Ġwa ist
Ġvan illa
Ġv et
Ġv ent
Ġv acation
Ġuns ure
Ġtwist s
Ġtri cked
Ġtrave ll
Ġtouch ing
Ġth ud
Ġteac hes
Ġtal ents
Ġtal ent
Ġtable s
Ġt y
Ġsweet s
Ġsweat y
Ġsw ollen
Ġsur round
Ġstro ked
Ġsto le
Ġstart led
Ġsome body
Ġso aked
Ġslow ed
Ġsl ug
Ġsl ither
Ġsl imy
Ġsh own
Ġscrew s
Ġscar ing
Ġsc ales
Ġsail ors
Ġs y
Ġrocket s
Ġrock ing
Ġri pped
Ġrest ored
Ġref use
Ġreal ize
Ġre ef
Ġra indrops
Ġr umble
Ġr isk
Ġr ings
Ġprotect ing
Ġpract icing
Ġpot s
Ġpost s
Ġpl enty
Ġperform er
Ġperf ormance
Ġper ched
Ġpe el
Ġpatient ly
Ġpat ience
Ġp ad
Ġown ed
Ġopen ing
Ġo strich
Ġnew found
Ġneighbour hood
Ġmus cle
Ġmov ies
Ġmountain s
Ġmask s
Ġmar ked
Ġma iled
Ġm ood
Ġlife guard
Ġlemon s
Ġla p
Ġl amb
Ġkn own
Ġjoin s
Ġjo king
Ġitem s
Ġitch y
Ġimpr oved
Ġhur ried
Ġhead ed
Ġha w
Ġh itting
Ġguest s
Ġghost s
Ġgarden er
Ġflag s
Ġfit s
Ġfart hest
Ġf uture
Ġf urniture
Ġf irm
Ġe vent
Ġdri ves
Ġdragon s
Ġdirect ions
Ġdest ination
Ġdes ert
Ġdes er
Ġdeliver ed
Ġdecor ated
Ġcudd led
Ġcrown s
Ġcre pt
Ġcontin ue
Ġcont rol
Ġcomplain ing
Ġcompl ained
Ġcom bed
Ġclown s
Ġcl ick
Ġchirp ing
Ġch op
Ġcelebr ating
Ġcamp ing
Ġc or
Ġc ash
Ġbuild ings
Ġbu d
Ġbrus hes
Ġbra nd
Ġblow s
Ġbleed ing
Ġbegin ning
Ġbed time
Ġbe amed
Ġbak er
Ġba cked
Ġavoc ados
Ġav oid
Ġar guing
Ġappreci ate
Ġapplaud ed
Ġall ey
Ġal right
Ġair pl
Ġadmir ing
ĠW ant
ĠUn fortunately
ĠSw itch
ĠSp idey
ĠRob ot
ĠR abbit
ĠPrin ty
ĠP ip
ĠP aws
ĠP am
ĠO xygen
ĠO x
ĠO ut
ĠMiss ile
ĠL eave
ĠKe ep
ĠJ olly
ĠJ eff
ĠIs abella
ĠI zzy
ĠHer b
ĠH ippy
ĠH enry
ĠH arry
ĠGra cie
ĠG ogo
ĠG eorge
ĠFo llow
ĠFl orence
ĠF ifi
ĠF ido
ĠF elix
ĠE njoy
ĠDo do
ĠCra bby
ĠCh ris
ĠC able
ĠB rian
ĠB ones
ĠB irthday
ĠAl bert
ĠA n
Ġ Yes
Ġ 1
x u
xu ry
w h
und ay
uck s
u xury
th ur
t ory
se qu
sequ ence
sequence s
se ek
sc reen
sc in
scin ated
ri ver
ri p
ret t
re eze
re e
ra p
r thur
qu id
pe edy
p lease
ou la
ot ton
or ter
old y
o ke
o dy
led ge
lect ion
l ict
ke nd
it s
is hes
ile s
igg ie
ig ail
ie ce
id ers
ich a
icha el
ice s
i ven
h h
es ome
ent ist
ent er
elly fish
eal ing
e kend
dd ler
dd ie
d river
c ter
bb led
b ing
b igail
b ie
as hed
ara way
ara cter
ar ter
ar rin
ang ing
ak er
aff es
act ly
ache l
Z oomy
U h
Re ally
P rin
P ete
Me ow
M illy
L ina
L ena
J ake
Is abella
Fred dy
Dog gy
C laire
C l
B ig
B et
B ad
Al bert
A dam
.. .
.' "
Ġwob b
Ġwire s
Ġwip es
Ġwhat ever
Ġwe pt
Ġwe ighed
Ġwe ekend
Ġwater ing
Ġwarn ings
Ġwake s
Ġw ow
Ġw ounds
Ġvide os
Ġv ict
Ġus ual
Ġtwir ling
Ġtwir l
Ġtwink ling
Ġturn ing
Ġtrick y
Ġtowel s
Ġto ss
Ġto ddler
Ġtick le
Ġtall est
Ġtalk s
Ġtail s
Ġsy rup
Ġswe ep
Ġsw oop
Ġsw itched
Ġsupp orted
Ġsun screen
Ġstrugg led
Ġstrugg le
Ġsto pping
Ġstay ing
Ġst ew
Ġspread ing
Ġsp ins
Ġsp ices
Ġsmile y
Ġsmall est
Ġsm arter
Ġslip s
Ġsing er
Ġsign s
Ġshe lves
Ġsh orter
Ġseason s
Ġscrub bed
Ġscrew driver
Ġsav anna
Ġsad ness
Ġs way
Ġroot s
Ġro ses
Ġreward ed
Ġrequest ed
Ġrepe ated
Ġref lection
Ġre lease
Ġr ather
Ġquarrel ing
Ġpump kins
Ġprot ected
Ġprom ises
Ġpretend s
Ġpract ised
Ġpolice man
Ġpoin ty
Ġpill s
Ġpee king
Ġpe ppers
Ġpar ked
Ġp ec
Ġowl s
Ġno ses
Ġmess es
Ġmatch ing
Ġm iles
Ġload ed
Ġli quid
Ġlead ing
Ġl uxury
Ġknow ledge
Ġkne es
Ġjacket s
Ġinstr uments
Ġins ist
Ġincl uded
Ġhum an
Ġhorn s
Ġhis tory
Ġhid es
Ġhaw k
Ġhall way
Ġguess es
Ġgre et
Ġgrass y
Ġgrace fully
Ġgood night
Ġgo als
Ġgir affes
Ġgaz e
Ġfrown ing
Ġfro ze
Ġforg iven
Ġfore head
Ġfood s
Ġfo cus
Ġfl utter
Ġfl own
Ġfill ing
Ġfair ies
Ġfa scinated
Ġf uel
Ġf araway
Ġex actly
Ġdi pped
Ġdecor ating
Ġdad s
Ġd ot
Ġd ie
Ġd entist
Ġcurtain s
Ġcrack er
Ġcr ow
Ġcount s
Ġconf lict
Ġconf ident
Ġcon sequences
Ġcon n
Ġcon es
Ġcon cer
Ġcomput ers
Ġcomple ted
Ġclos es
Ġchef s
Ġch ases
Ġch aracter
Ġch anging
Ġch anges
Ġcatch ing
Ġcash ier
Ġbring ing
Ġbr u
Ġbehavi our
Ġb itten
Ġaw esome
Ġaw ake
Ġairpl anes
Ġagre es
Ġact s
ĠZ iggy
ĠZ ane
ĠY et
ĠY awn
ĠWith out
ĠW ater
ĠW ally
ĠTh ose
ĠT una
ĠSt eve
ĠSt acy
ĠSome one
ĠS unday
ĠS peedy
ĠS orry
ĠS ienna
ĠRob by
ĠR occo
ĠR hythm
ĠPe pper
ĠPe anut
ĠP u
ĠP enny
ĠO at
ĠN ate
ĠM on
ĠL inda
ĠL ina
ĠL aser
ĠKe ith
ĠJ ellyfish
ĠJ acob
ĠH ana
ĠG ina
ĠFriend s
ĠF ishy
ĠD r
ĠD ina
ĠCow y
ĠC ookie
ĠBug gy
ĠBe hind
ĠB ye
ĠB oo
ĠB olly
ĠB o
ĠB iggie
ĠA va
ĠA lex
Ġ ouch
Ġ Quick
Ġ 5
Ġ Ġ
ut ch
umb ling
ul ie
ul f
ugg les
uff les
uct antly
ucks ack
uck led
u ly
u ess
th s
th ough
sh op
s nap
s m
r at
rat ul
r ance
pr ing
p ose
p ite
p it
p er
ost ing
os en
or ing
or a
ong ratul
om as
oh ny
ob ody
n k
n ers
m ates
ly a
le af
l ong
l ier
izz ie
it ion
is ions
ir i
ine y
ic les
ia o
h ouse
g iving
f orm
f ia
es pite
ent ly
el ion
d ies
d ed
c l
by es
b oom
ay s
ately n
at re
at ches
ast y
anna h
and elion
am med
al med
al erious
al ed
ad ing
a h
Z ara
Y ummy
V iolet
V ery
Un cle
T eddy
St eve
So fia
S illy
R emember
P aul
P at
M mm
M ar
L una
J ames
G uess
G igi
Fin ny
F rank
E w
D eal
B aby
And y
After wards
A T
Ġzip s
Ġyou th
Ġyell s
Ġwork shop
Ġwind y
Ġwigg led
Ġwere n
Ġweigh s
Ġwas ted
Ġvict ory
Ġvi br
Ġvent ured
Ġty pe
Ġtun e
Ġtravell ing
Ġtrave led
Ġtr uly
Ġto ad
Ġtight er
Ġtick led
Ġthe atre
Ġtast ing
Ġt ugged
Ġt ipped
Ġt im
Ġswim mer
Ġsw itches
Ġsw ap
Ġsuff ered
Ġstrong est
Ġstern ly
Ġste ady
Ġstay s
Ġstand s
Ġst ool
Ġst itches
Ġst are
Ġsque aked
Ġspray ing
Ġsport s
Ġspark ling
Ġsp iders
Ġsp at
Ġsnow men
Ġsn atched
Ġsm ashed
Ġsl ipping
Ġsl ammed
Ġsitu ation
Ġshr ug
Ġshoot ing
Ġshirt s
Ġscur ried
Ġsand pit
Ġsa nk
Ġs ides
Ġru in
Ġrow ing
Ġriver s
Ġrisk s
Ġrest ed
Ġrespon se
Ġresp ond
Ġres pected
Ġrepeat s
Ġremind ing
Ġremind er
Ġref re
Ġreal izes
Ġrainbow s
Ġrad ishes
Ġra king
Ġr ucksack
Ġr ising
Ġpur pose
Ġpup il
Ġproper ly
Ġpro cess
Ġpray ers
Ġpost c
Ġpol ishing
Ġplay ers
Ġplanet s
Ġpl ates
Ġpass ing
Ġpack ages
Ġp ins
Ġout f
Ġnot icing
Ġno on
Ġneighb ors
Ġneat ly
Ġne ither
Ġn asty
Ġmom mies
Ġmom ma
Ġmitten s
Ġmind s
Ġmind ing
Ġmind ed
Ġmean ing
Ġmatter s
Ġmarch ing
Ġmail ing
Ġmach ines
Ġm aker
Ġloud est
Ġloo se
Ġliz ards
Ġknot s
Ġknock ing
Ġkey s
Ġhome work
Ġhes itation
Ġhes it
Ġheal ed
Ġhands ome
Ġgood byes
Ġglow ed
Ġg rip
Ġfr osting
Ġfollow ers
Ġfis hing
Ġfill s
Ġfigure s
Ġfear s
Ġfa ct
Ġf u
Ġexam ined
Ġevery body
Ġer ase
Ġent rance
Ġel bow
Ġear lier
Ġdri fted
Ġdolph ins
Ġdi ving
Ġdeliver ing
Ġdec isions
Ġdec ision
Ġde ed
Ġd aring
Ġd ar
Ġd andelion
Ġcurious ly
Ġcuri osity
Ġcudd ly
Ġcra ft
Ġcover s
Ġcom m
Ġcob ra
Ġclo ver
Ġcl am
Ġchoo sing
Ġch uckled
Ġch osen
Ġc ongratul
Ġc almed
Ġbury ing
Ġburn ing
Ġbump s
Ġbu bb
Ġbru ises
Ġbowl s
Ġbow ed
Ġbo om
Ġbo dies
Ġbelie ving
Ġbec oming
Ġbe lly
Ġbath s
Ġbase ment
Ġband ages
Ġban ged
Ġback wards
Ġare a
Ġannoy ed
Ġam used
Ġafter wards
Ġadventure rs
Ġadventure r
Ġaccomplish ment
Ġab il
Ġa chie
ĠZ ara
ĠX iao
ĠW or
ĠU p
ĠThank s
ĠT ry
ĠT ed
ĠSt ring
ĠSt ella
ĠSt ealing
ĠSque eze
ĠSp ud
ĠSn uggles
ĠS ylvia
ĠS ummer
ĠS eth
ĠS erious
ĠS adly
ĠR uffles
ĠR iri
ĠR ia
ĠPu ppy
ĠPrin cess
ĠPipp a
ĠP ur
ĠP l
ĠP iney
ĠNot hing
ĠMay a
ĠM abel
ĠL iz
ĠL iam
ĠL arry
ĠJ une
ĠJ illy
ĠH ung
ĠH old
ĠH armony
ĠGood bye
ĠG ulp
ĠG oldy
ĠFl ora
ĠF irst
ĠDog s
ĠCra b
ĠC ari
ĠBr ad
ĠBob bie
ĠB ert
ĠB ee
âĢ Ķ
y ond
wh at
v in
ut ty
ust ed
us ic
un ning
umb s
um m
umm aged
um ent
ulf ill
uit s
ug ar
uct ions
uck ily
ub u
u es
u a
to ed
t her
t he
st ep
ss ess
sh ip
re verse
re pe
repe at
r ust
r on
r kins
r ink
pa cked
p are
ord an
or se
or ay
oo sh
ong head
om p
ob ey
o ssible
o le
mb ers
m ered
m anda
ld ers
l unt
joy ed
j am
jam as
iv ity
it ely
iss ion
is ty
ious ly
ind y
ik y
ig ning
ie ve
id ened
id ence
ick ing
ib bit
ha usted
ffic er
era ld
ep t
el on
el ieve
e in
e ed
e an
dd ing
cut ter
ct ar
chie vous
ch ing
ch ieved
c row
c c
cc as
br ush
bb ing
b ut
b les
b bed
ass port
app laud
ant ha
and as
an s
am ie
am boo
al oo
aid s
ac ing
Z oom
Un fortunately
Tweet y
T oto
T iny
Sp ike
Sh aring
S ylvia
S un
S ome
R un
R ibbit
P oula
P oppy
P andy
P am
O r
O llie
Mr s
Me g
M ittens
M ine
M andy
L eave
K iki
K atie
Jack y
J ump
J ohny
J essie
J anie
H oney
Gra ce
F ro
F or
F irst
E llie
E at
D olly
D ear
C at
Bu zzy
Bet ty
Be hind
B rian
B r
B oys
B ill
B arry
A untie
==== ====
!âĢĿ .
Ġyou nger
Ġwra pping
Ġwr ist
Ġwood cutter
Ġwobb ly
Ġwob bled
Ġwis er
Ġwis ely
Ġwh oosh
Ġweb s
Ġwe eds
Ġw idened
Ġvo lunt
Ġvisit ing
Ġvibr ant
Ġus ually
Ġun packed
Ġun f
Ġu nd
Ġtw isty
Ġtrou bles
Ġtree house
Ġtravel s
Ġtown s
Ġtouc hes
Ġtool box
Ġtire s
Ġtim er
Ġthie ves
Ġtest ed
Ġtear ing
Ġteam work
Ġtea pot
Ġtask s
Ġtalent ed
Ġtable t
Ġta pped
Ġswoop ed
Ġsw ept
Ġsurround ings
Ġsurf board
Ġsupp lies
Ġsty les
Ġstreet s
Ġstr uck
Ġstom p
Ġstar ing
Ġstain s
Ġstack ing
Ġst umble
Ġst ings
Ġst em
Ġsque ak
Ġsqu ishy
Ġspit s
Ġspill s
Ġspark les
Ġsp out
Ġsp iky
Ġsoar ing
Ġso aking
Ġsniff s
Ġsn ug
Ġsn orted
Ġsitu ations
Ġsick ness
Ġshiver ed
Ġshin es
Ġsh ock
Ġsh ady
Ġsend ing
Ġsecret s
Ġsad der
Ġsa le
Ġrob in
Ġrepl aced
Ġremember ing
Ġrel uctantly
Ġr ummaged
Ġr ider
Ġr id
Ġqueen s
Ġquack ing
Ġpur rs
Ġpudd ing
Ġprett iest
Ġpress es
Ġpr ove
Ġpow ers
Ġpo ssess
Ġple aded
Ġplan s
Ġpl um
Ġpl ain
Ġpigeon s
Ġperm ission
Ġperform ing
Ġped al
Ġpec ked
Ġpear ls
Ġpe ered
Ġpath s
Ġpat ted
Ġpaint ings
Ġpa jamas
Ġp iled
Ġp ause
Ġp andas
Ġown ers
Ġover joyed
Ġoutf its
Ġo ccas
Ġno dding
Ġnervous ly
Ġne ctar
Ġn iece
Ġmon ths
Ġmis chievous
Ġmess ed
Ġme mbers
Ġmark er
Ġm oo
Ġlung s
Ġlollipop s
Ġlisten s
Ġlesson s
Ġlend ing
Ġle ast
Ġle ap
Ġl ump
Ġjo ked
Ġint r
Ġinstr uctions
Ġind eed
Ġimp ossible
Ġimag ining
Ġhug ging
Ġhot ter
Ġheal th
Ġhead ing
Ġgu ide
Ġgrowl s
Ġgro an
Ġgrand pare
Ġgear s
Ġgaz ing
Ġgasp s
Ġg ross
Ġg oo
Ġfu zzy
Ġfre ed
Ġfox es
Ġfor m
Ġfor ce
Ġfog gy
Ġflow ing
Ġflav ors
Ġflav or
Ġfl ip
Ġfl apping
Ġfl ames
Ġfirm ly
Ġfig ured
Ġfamil iar
Ġf ulfill
Ġexerc ises
Ġex hausted
Ġevery day
Ġenjoy able
Ġem erald
Ġed ges
Ġe lders
Ġe ase
Ġdust y
Ġdri p
Ġdo d
Ġdis obey
Ġdifferent ly
Ġdeser ve
Ġdemand ing
Ġde f
Ġdark ness
Ġd umb
Ġd itch
Ġcudd le
Ġcreat ivity
Ġcraft s
Ġcrack ers
Ġcra cked
Ġcr utch
Ġcr umbs
Ġcor rect
Ġconcer ned
Ġcolor ing
Ġcloud y
Ġclear ing
Ġclass mates
Ġcl ip
Ġcho pped
Ġcheer ing
Ġcharacter s
Ġcartoon s
Ġc enter
Ġc ause
Ġbur st
Ġbulb s
Ġbreat hing
Ġbra very
Ġbott les
Ġbo oth
Ġbl ast
Ġbird ie
Ġbel oved
Ġbe yond
Ġbat hing
Ġbasket s
Ġband s
Ġbad ge
Ġb ully
Ġb amboo
Ġag es
Ġag e
Ġactiv ity
Ġact ing
Ġachie ve
Ġa chieved
ĠWh ich
ĠUn cle
ĠU se
ĠTh omas
ĠT urtle
ĠT oys
ĠT erry
ĠSpark le
ĠShe ll
ĠSh ow
ĠSam uel
ĠS ugar
ĠS pring
ĠS ay
ĠRob ert
ĠR udy
ĠR ich
ĠPur rkins
ĠPe a
ĠP ut
ĠP iggy
ĠP assport
ĠO lly
ĠO kay
ĠO fficer
ĠNo elle
ĠN obody
ĠN ick
ĠMon ster
ĠMo le
ĠM usic
ĠM oon
ĠM ichael
ĠL ike
ĠL ena
ĠL and
ĠK irsty
ĠK elly
ĠK atelyn
ĠIs n
ĠHelp ing
ĠH annah
ĠG ary
ĠE d
ĠD eal
ĠChick y
ĠC otton
ĠC ally
ĠBr other
ĠB ubu
ĠB ecause
ĠB and
ĠB aloo
ĠA untie
ĠA rthur
ĠA bigail
Ġ Q
Ġ ĊĊ
year s
w oof
ver sed
ver ed
ver al
v il
ut ion
un ged
ump ed
ugg ing
ue en
u ri
t e
st ed
sp ired
sh all
se ed
s ible
s hing
rr r
rob es
ri er
ret ty
ress er
rap ed
r ucky
r ily
r ayon
rayon s
qu irrel
pp le
pp ies
ph an
phan age
p en
oun ced
or der
oop er
ook s
ong e
ond e
omp y
om er
ment s
m oo
l ings
iver sity
iron ment
ird resser
ipp in
ink le
in ct
imp ly
ight s
igg ly
igg led
ig ued
if ty
ie f
ic s
ic ip
ib lings
i ren
her ry
h ole
h og
h ive
h i
gu ess
get ic
g n
g ers
fe ated
ex it
et s
et ail
etail s
es mer
er ing
e am
d aughter
ck less
c used
c re
c ake
b ug
b s
b ric
atter ed
ater i
at ted
at t
asp ed
arn ey
arn ed
are st
ar ty
ar th
ar s
ar f
ans form
an et
amed ics
am bled
am age
ag le
ad es
ab ly
a ven
Wh ich
W iggly
W ant
Th ose
T ina
T ie
T ed
Sam uel
S usie
S nap
S low
S even
Rob ert
Ro ar
R ose
R ock
R achel
Qu ack
Prin t
P ut
P ush
P olly
P ippin
P ip
P e
O xygen
O at
Not hing
No elle
N ick
N ear
M iss
M int
M ila
L ulu
L uckily
L ike
K irsty
K im
K e
K ate
J o
J ess
J en
How ever
He aring
H o
H armony
H AT
Fro ggy
F our
F ine
E ven
E ddie
Dave y
D rink
D ezi
D avid
D arrin
D anny
Cl ara
Ch ris
Ch loe
Ch irpy
C indy
C atch
Bird y
B y
B ug
B ring
B rett
B ow
B olly
B inky
B ally
Ann ie
A lya
A hh
A N
, '
Ġzoom s
Ġyaw ning
Ġy um
Ġy elp
Ġwr ites
Ġwr iggled
Ġwor ries
Ġwo ken
Ġwin ked
Ġwill ing
Ġwho se
Ġwhisp ers
Ġwh ines
Ġwe ed
Ġwas ting
Ġwas te
Ġwa ded
Ġw ound
Ġw ider
Ġw icked
Ġvisit or
Ġvillag er
Ġur ging
Ġunt w
Ġunt angle
Ġun w
Ġtwink led
Ġtwink le
Ġtw ice
Ġtunnel s
Ġtrust ing
Ġtrumpet s
Ġtravel ing
Ġtr ansform
Ġtr ading
Ġtow ard
Ġtoss ing
Ġtop s
Ġtoilet s
Ġto ssed
Ġtip toed
Ġth ird
Ġtem per
Ġteaspoon s
Ġtank s
Ġt umbling
Ġt ang
Ġsway ed
Ġsurround ed
Ġsuperhero es
Ġsunf lowers
Ġsun light
Ġstroll er
Ġstroll ed
Ġstro ke
Ġstomach s
Ġste pping
Ġstar fish
Ġstamp ed
Ġst unning
Ġst all
Ġsque aled
Ġsqu ished
Ġspring ing
Ġspill ing
Ġspe aking
Ġspace s
Ġsp onge
Ġsour ce
Ġsol ution
Ġso bbed
Ġsnug gly
Ġsnake s
Ġsn uck
Ġsmell ing
Ġsm ash
Ġslither ed
Ġsl ower
Ġsink s
Ġsil ent
Ġshr ank
Ġshop s
Ġshin ier
Ġsh all
Ġsew ing
Ġsew ed
Ġsepar ated
Ġsees aw
Ġsee king
Ġse veral
Ġscur ry
Ġscr atches
Ġscr ambled
Ġscare crow
Ġscar ves
Ġsc raped
Ġsat is
Ġsal ty
Ġsail s
Ġsaf er
Ġs iren
Ġs inking
Ġs imply
Ġs ill
Ġs iblings
Ġs ens
Ġru ining
Ġrob ber
Ġroar s
Ġro amed
Ġribbon s
Ġri b
Ġreturn ing
Ġrespond ed
Ġrespon sible
Ġrep ly
Ġremind s
Ġrel ief
Ġregret ted
Ġrefre shed
Ġrecommend ed
Ġrec order
Ġreal izing
Ġreal ity
Ġre versed
Ġre eds
Ġre ckless
Ġre ass
Ġre app
Ġrain y
Ġrain s
Ġrail s
Ġrace s
Ġra ked
Ġr ays
Ġpur r
Ġpu ppies
Ġprun ing
Ġprot ein
Ġprob ably
Ġpresent ed
Ġpostc ards
Ġpossess ion
Ġpops icles
Ġpol itely
Ġpol ished
Ġpoke s
Ġpocket s
Ġpo les
Ġple asure
Ġpl ucked
Ġpinch ing
Ġpillow s
Ġpicnic s
Ġpet al
Ġpersist ence
Ġpe aches
Ġpat ches
Ġparticular ly
Ġpar ted
Ġpar amedics
Ġpan icked
Ġpair s
Ġpaint brush
Ġpad d
Ġpack et
Ġp ounds
Ġotter s
Ġor phanage
Ġopin ions
Ġoffer ing
Ġoccas ions
Ġobser ving
Ġnewsp apers
Ġnear ly
Ġne arest
Ġn i
Ġmust ered
Ġmoon light
Ġmodel s
Ġmin ty
Ġmeow s
Ġmay or
Ġmass ages
Ġm unch
Ġm esmer
Ġm ateri
Ġm ain
Ġlunch time
Ġlow ered
Ġlight er
Ġlift ing
Ġlick ing
Ġli es
Ġlead er
Ġland ing
Ġlady bug
Ġla unch
Ġl ower
Ġl ent
Ġkey hole
Ġk itty
Ġjourney s
Ġjob s
Ġit ches
Ġinv ites
Ġintr igued
Ġintere sted
Ġin spired
Ġhunt ers
Ġhow ever
Ġhope ful
Ġhonest y
Ġhon or
Ġhon ked
Ġhon k
Ġho st
Ġhis sing
Ġhid er
Ġhesit ated
Ġhelmet s
Ġhelicopter s
Ġhedge hog
Ġhear ing
Ġhe aven
Ġham ster
Ġham mered
Ġha irdresser
Ġh ood
Ġh int
Ġguil t
Ġgu ided
Ġgroup s
Ġgrocer ies
Ġgroan ed
Ġgrandpare nt
Ġgrab bing
Ġgo bbled
Ġgl ued
Ġgl im
Ġgl ared
Ġgiant s
Ġg ulp
Ġfriendship s
Ġfl ips
Ġfin s
Ġfin ishing
Ġfe ver
Ġfa ult
Ġfa bric
Ġf ired
Ġf ifty
Ġexplore r
Ġexperience s
Ġenv ironment
Ġenthusia sm
Ġent ire
Ġengine er
Ġeng ines
Ġener getic
Ġend s
Ġencourage ment
Ġemer ged
Ġemb ra
Ġeffort s
Ġe vil
Ġduck ling
Ġdry ing
Ġdrum s
Ġdro pping
Ġdriver s
Ġdri pping
Ġdri ft
Ġdri es
Ġdress er
Ġdod ged
Ġdo omed
Ġdisplay ed
Ġdiscover ing
Ġdinosaur s
Ġdi ved
Ġdeterm ination
Ġdestroy ing
Ġdesign ed
Ġdes igning
Ġdes c
Ġde feated
Ġdar ling
Ġdance s
Ġdan gers
Ġd umped
Ġd ips
Ġd etails
Ġd amage
Ġd a
Ġcur ly
Ġcross ing
Ġcop s
Ġconn ected
Ġconn ect
Ġconf idence
Ġcon vin
Ġcompetit ion
Ġcompet e
Ġcomp any
Ġcomfort ing
Ġcolour ed
Ġcoll ap
Ġcold ness
Ġclean er
Ġcl asped
Ġcir cus
Ġchoice s
Ġchew y
Ġcheck out
Ġche at
Ġche aper
Ġch ill
Ġch arge
Ġcell s
Ġcaulif lowers
Ġcaterpillar s
Ġc ooper
Ġbush y
Ġbur row
Ġbubb ling
Ġbright est
Ġbreat hed
Ġbracelet s
Ġbra ver
Ġbra id
Ġbounce s
Ġbother ing
Ġbother ed
Ġbo oming
Ġbo iling
Ġbo il
Ġbo bbing
Ġbl onde
Ġbl ocked
Ġbl ink
Ġbird seed
Ġbell ies
Ġbee hive
Ġbeaut if
Ġbe ast
Ġbath robes
Ġback s
Ġback ground
Ġb unch
Ġb umpy
Ġb orn
Ġaw ful
Ġarri ve
Ġar f
Ġapplaud ing
Ġapolog y
Ġapolog ize
Ġapolog ised
Ġant icip
Ġannoy ing
Ġann ounced
Ġang rily
Ġac he
Ġabil ities
Ġa st
Ġa imed
Ġa im
Ġa ff
ĠWor king
ĠWill iam
ĠW o
ĠW hee
ĠW ell
ĠW ar
ĠTo dd
ĠThanks giving
ĠT angle
ĠT ake
ĠSt eam
ĠS quirrel
ĠS ister
ĠR achel
ĠQ ueen
ĠPl anet
ĠP oke
ĠP atch
ĠP arty
ĠOr ange
ĠOn ly
ĠO uch
ĠO ld
ĠN utty
ĠN O
ĠMar shall
ĠM ila
ĠM ike
ĠM alerious
ĠLila h
ĠL onghead
ĠL izzie
ĠL isten
ĠL ion
ĠJ ulie
ĠJ amie
ĠIn st
ĠH orse
ĠH olly
ĠF un
ĠE x
ĠE ddie
ĠE arth
ĠE agle
ĠD id
ĠD espite
ĠD arrin
ĠCo al
ĠCl im
ĠC ompy
ĠC le
ĠC herry
ĠB rett
ĠB ark
ĠAs h
ĠAnn ie
ĠAl though
ĠAl ong
ĠA pple
Ġ' '
Ġ icing
Ġ 2
zz led
z ip
z ily
y sters
y ou
wh o
we ed
w inkle
w ell
ver s
v ided
v ast
vast ated
utomobile s
ut iously
ut ely
ust omer
ush y
us p
usp ic
us ing
us an
us ages
uri ous
ur ry
ur render
und red
un iversity
un ited
ump led
um mies
um ed
ul iar
uff ed
uct ion
uc ed
ubb ing
to es
ter y
t s
t ment
t le
t hen
t ally
t age
step s
st rated
sp icy
so l
sol utely
sh ua
sh r
shr inky
sh oot
sh aped
sh adow
sc re
scre w
s ider
s ers
s end
s aw
rr rr
row ave
ron aut
rom ise
ro ken
ro codile
ro ccoli
ro at
ri or
ret urn
ret ching
re nt
re et
ra se
ra bs
r uits
r ings
qu ered
pr om
prom ise
pr int
pp os
ppos ite
par able
p ut
p ow
p o
po ison
p iece
p here
p an
own ie
out ines
out ed
ount ered
oug hed
ou ches
ot tage
ot ion
ot hing
os ure
os phere
ort unately
ore ver
or ds
or ant
oo ves
on strated
on na
ol ine
oe ver
o ving
o scope
o pped
o co
o ah
nt il
n ew
new ed
n eath
n c
me al
m osphere
m elon
m ar
mar riage
ll in
le e
l osure
l ine
l ide
l ay
l ap
keep ing
k s
k le
jo iced
j ured
j est
iz on
ive s
ive ly
itt ered
itt ed
it ude
isten ing
ist s
ist ling
is ies
ir ce
ir ac
ipp ers
ipp ee
ine ma
inct ively
in ner
in ching
imal s
im its
ild ren
il iar
ick y
ic iest
ic ated
ic ate
i very
hing s
he w
he f
he ap
h ap
hap s
gn orant
gg ies
g th
g ic
fere e
f reeze
f ire
eth oscope
et ops
et ite
erc ise
er ve
er m
er gic
er f
end ing
end ant
en gth
en ery
em ies
em bers
el ax
ear s
ead ing
e ers
e aky
e ah
e ady
d ream
d ink
d ate
cream s
cre ase
col ored
co vered
cl oud
ck ly
cident s
ch o
ch ard
ceed ed
ce pt
cake s
c uments
c led
c ers
c ent
c cidents
c an
c al
br is
boo s
bo ards
be ep
bb ers
b roken
b oy
b ird
b ell
b ank
b ang
b age
ay ing
aw ked
aul i
ate st
at form
arn ess
arm er
arl ings
are fully
ar sh
ar ity
ar get
ar ger
app le
ant astic
an ing
amp oline
am iliar
all ow
ad ually
ad s
ach ine
a usages
a a
Z ip
Y ippee
Y ield
Y eah
Would n
Wh istling
W ork
W oah
W isdom
W ake
V ivi
U nder
Th ree
Th ough
T rust
T oys
T erry
T ara
T H
Sp irit
Sp in
Sp idey
Slow ly
Sh ut
Sh h
Sam antha
S ummer
S u
S que
S plash
S n
S leep
S it
S eth
S ean
S eal
S adly
Rock y
Ro ver
Ro llie
R ug
R uff
R occo
R abbit
R E
Prin cess
Pe pper
P op
P lay
P enny
Out side
On ly
O pen
O X
N ate
N G
May a
Mar ie
Mar ia
M ichael
M alerious
M achine
M abel
Look s
L ove
L ola
L izzie
L iz
L isten
L illy
L arry
L B
LB OX
Ke ep
K ids
K elly
Jo shua
J une
J ulie
J oy
J ordan
J olly
J acob
In stead
I gnorant
I NG
I LBOX
Ho oray
Hi ppy
Her b
H air
Go al
G ot
G et
G ather
Fo x
Fin n
F reeze
F ix
E lsa
E lly
E lephant
E d
E ach
D uck
D own
D ino
D espite
D ays
C s
C rabs
C ount
C oco
C heap
C ari
C ar
Br ownie
Br ad
Bet sy
Be ep
B rrr
B oy
B oth
B op
B less
B elieve
B ack
B aa
B Cs
Al ways
Al right
AN T
A rthur
A nt
A manda
A id
A h
A bigail
A bby
A ILBOX
?âĢĿ .
? !"
.' '
' ."
" !
ĠâĢ Ķ
Ġzebra s
Ġyour selves
Ġyield ing
Ġyield ed
Ġyelp ed
Ġwrap s
Ġwra pper
Ġwor st
Ġwobb ling
Ġwith in
Ġwise st
Ġwind s
Ġwho ever
Ġwh iskers
Ġwh ipped
Ġwh ine
Ġwh ales
Ġweekend s
Ġweapon s
Ġweak er
Ġwater melon
Ġwas hes
Ġwar rior
Ġwa x
Ġwa nna
Ġwa king
Ġwa dd
Ġvolunt eers
Ġvolunt eer
Ġvisit ors
Ġvill ian
Ġvi al
Ġvent ure
Ġveh icles
Ġve ggies
Ġus es
Ġunw rap
Ġuntw ist
Ġunt ie
Ġunlock s
Ġunf amiliar
Ġunderstand s
Ġunder neath
Ġund o
Ġun zip
Ġun screw
Ġun less
Ġun able
Ġty pes
Ġtw itched
Ġtw eet
Ġtreat ed
Ġtre etops
Ġtravell ed
Ġtravel er
Ġtransform ed
Ġtr ampoline
Ġtong ues
Ġto tally
Ġtired ness
Ġtip s
Ġtid ied
Ġticket s
Ġthought s
Ġthin ner
Ġth roat
Ġtest s
Ġtent s
Ġtemper ature
Ġte sting
Ġtang led
Ġt ummies
Ġt umbled
Ġt ugging
Ġt uck
Ġt ippy
Ġt ies
Ġt arget
Ġswims uits
Ġsweet ly
Ġsweet est
Ġsweep ing
Ġsway ing
Ġsw at
Ġsurpr ising
Ġsurf ace
Ġsuit s
Ġsuffer ing
Ġsuccess es
Ġsu pper
Ġstro king
Ġstret ches
Ġstreng then
Ġstr um
Ġstore keeper
Ġstor my
Ġstor ed
Ġstomp ed
Ġsting ing
Ġst iff
Ġst ethoscope
Ġsquee zing
Ġsquare s
Ġsqu awked
Ġsprink led
Ġsprink le
Ġspr ings
Ġspr ang
Ġspoon ful
Ġsplas her
Ġspin ach
Ġspell ing
Ġspeed s
Ġspeed ing
Ġspark s
Ġspace ship
Ġsp ades
Ġsol ving
Ġsoft ness
Ġsoft est
Ġso othing
Ġsnowball s
Ġsniff led
Ġsniff ing
Ġsnee zing
Ġsn oring
Ġsn atches
Ġsn ar
Ġsn apping
Ġsmo other
Ġsmart est
Ġslice s
Ġsleep s
Ġsle ek
Ġsl ed
Ġskirt s
Ġskill ed
Ġsix ty
Ġsince re
Ġside ways
Ġshr unk
Ġshr inking
Ġshort s
Ġshoot s
Ġshoot er
Ġsharp ed
Ġshap ed
Ġsh h
Ġsh ame
Ġset s
Ġser ving
Ġsens ation
Ġsel f
Ġseek er
Ġsec ure
Ġseagull s
Ġsea weed
Ġscurry ing
Ġscratch ing
Ġscr ubbing
Ġscoop ing
Ġscold s
Ġscare s
Ġsc ri
Ġsc ra
Ġsc ience
Ġsc enery
Ġsav or
Ġsatis f
Ġsal on
Ġsafe keeping
Ġs uspic
Ġs izz
Ġs ipping
Ġrul ed
Ġrub s
Ġrot ten
Ġroof s
Ġroll s
Ġro le
Ġro cked
Ġro bbers
Ġriver bank
Ġrisk y
Ġrib bit
Ġresult s
Ġrest oring
Ġres umed
Ġres isted
Ġrepl acing
Ġrep airs
Ġremain ing
Ġrem embers
Ġrefre shing
Ġrec ipe
Ġreapp eared
Ġread er
Ġre wards
Ġre united
Ġre newed
Ġre ly
Ġre joiced
Ġre feree
Ġre ason
Ġrat s
Ġrag s
Ġra cer
Ġr uff
Ġr outines
Ġr ises
Ġr iddle
Ġquiet er
Ġquack s
Ġpur ch
Ġpupil s
Ġpunish ment
Ġprotect ion
Ġprom ising
Ġpro ved
Ġpro ceeded
Ġprincess es
Ġprice s
Ġpri zed
Ġpri ckly
Ġpre par
Ġpray ing
Ġpostc ard
Ġpops icle
Ġpo ster
Ġpo se
Ġpo s
Ġpo llin
Ġpo llen
Ġplum s
Ġplay date
Ġplant ing
Ġplan ning
Ġpl unged
Ġpl ugged
Ġpl atform
Ġpl acing
Ġph rase
Ġpet s
Ġperm itted
Ġperform ed
Ġper haps
Ġpeel s
Ġpedal ing
Ġpec uliar
Ġpeace fully
Ġpe ck
Ġpay s
Ġpaw ed
Ġpart ners
Ġpan icking
Ġpan cakes
Ġpadd led
Ġpad dle
Ġpack ing
Ġp uck
Ġp ry
Ġp outed
Ġp ouch
Ġp oop
Ġp endant
Ġp ang
Ġp ace
Ġown s
Ġover come
Ġout sm
Ġout come
Ġord ers
Ġor chard
Ġon ward
Ġobey ed
Ġoat meal
Ġo pposite
Ġnot es
Ġnightmare s
Ġnight s
Ġni bbled
Ġnest s
Ġneighb ours
Ġneed les
Ġnecklace s
Ġnap s
Ġnap kins
Ġn u
Ġmust n
Ġmug s
Ġmoo ed
Ġmischievous ly
Ġmis ty
Ġmind ful
Ġmic rowave
Ġmess ages
Ġmesmer ised
Ġmeow ing
Ġmeet ings
Ġme als
Ġmatter ed
Ġmateri al
Ġmaster piece
Ġmarket place
Ġmagic ian
Ġm ushy
Ġm ow
Ġm irac
Ġloop s
Ġload ing
Ġlo sing
Ġlo sers
Ġlo cal
Ġlift s
Ġlecture s
Ġleap ing
Ġlean s
Ġleak s
Ġlawy ers
Ġlands lide
Ġlabel s
Ġla zily
Ġl ength
Ġl arger
Ġkn ives
Ġkn it
Ġkiss ing
Ġkey board
Ġk ings
Ġjust ice
Ġjoy ful
Ġjoin ing
Ġj aws
Ġiron ing
Ġintrod uced
Ġint ently
Ġinstr ument
Ġinsist s
Ġinsect s
Ġinse parable
Ġinc hes
Ġin jured
Ġin ched
Ġimagination s
Ġhum ming
Ġhor rible
Ġhor izon
Ġhook s
Ġholiday s
Ġhis s
Ġherb s
Ġheel s
Ġhead ache
Ġhe ights
Ġhe av
Ġhe ater
Ġharm ing
Ġha ted
Ġha lves
Ġh undred
Ġh our
Ġh ooves
Ġh arness
Ġguess ing
Ġguard ian
Ġgreen s
Ġgreat er
Ġgre ed
Ġgre atest
Ġgrand daughter
Ġgra zing
Ġgra cious
Ġgr umbling
Ġgr umbled
Ġgr adually
Ġgood ness
Ġglim mer
Ġgl istening
Ġgl ided
Ġgigg les
Ġgenerous ly
Ġgem s
Ġgarden ing
Ġgar bage
Ġg room
Ġg onna
Ġg lee
Ġfun n
Ġfulfill ed
Ġfrown s
Ġfreed om
Ġforgive s
Ġfoot steps
Ġfo cused
Ġflutter ing
Ġflutter ed
Ġfle as
Ġflashlight s
Ġflap s
Ġfl u
Ġfl ipping
Ġfl ippers
Ġfl ipped
Ġfl ick
Ġfl as
Ġfire s
Ġfil th
Ġfe ast
Ġfast en
Ġfarm ers
Ġfair ness
Ġfact s
Ġfa iled
Ġfa il
Ġf ried
Ġf antastic
Ġf ading
Ġf ade
Ġexplore rs
Ġexplor ation
Ġexplain s
Ġexp ert
Ġexerc ising
Ġexam ining
Ġex ch
Ġex cept
Ġenter ing
Ġenjoy s
Ġencou rag
Ġenc ountered
Ġenc losure
Ġen emies
Ġembra ced
Ġelbow s
Ġear rings
Ġeager ness
Ġe cho
Ġe arned
Ġdust pan
Ġdress ing
Ġdraw n
Ġdra ins
Ġdr own
Ġdot s
Ġdoor way
Ġdoor bell
Ġdoll ars
Ġdo cuments
Ġdisappoin tment
Ġdirect ion
Ġdin ners
Ġdi vided
Ġdeser ved
Ġdesc ri
Ġdemand s
Ġdem onstrated
Ġdelay ed
Ġdel ivery
Ġde vastated
Ġde eds
Ġde bris
Ġde b
Ġday dream
Ġdar ted
Ġdan cers
Ġda isies
Ġd u
Ġd ip
Ġd art
Ġd arlings
Ġd amp
Ġcur rent
Ġcro ak
Ġcream y
Ġcream s
Ġcre w
Ġcre ations
Ġcre aked
Ġcre ak
Ġcrack s
Ġcr umpled
Ġcr uel
Ġcow boy
Ġcountry side
Ġcou ple
Ġcost ly
Ġcorrect ly
Ġcor ds
Ġcooper ate
Ġconvin cing
Ġcontent ment
Ġcont ents
Ġcongratul ations
Ġcongratul ated
Ġconcer n
Ġcon sider
Ġcon quered
Ġcomple ting
Ġcompl icated
Ġcomp ared
Ġcomm otion
Ġcomm and
Ġcomb ined
Ġcom promise
Ġcom mon
Ġcollap sed
Ġcold er
Ġcobweb s
Ġco sy
Ġcloth s
Ġclean s
Ġcle ared
Ġclass es
Ġcl ack
Ġcir cled
Ġcher ished
Ġcheck ing
Ġche ers
Ġchalk s
Ġchain s
Ġch ip
Ġch illy
Ġch attered
Ġch atted
Ġch arity
Ġcarp enter
Ġcare s
Ġcard inal
Ġcar ries
Ġcap ture
Ġcan s
Ġcan ary
Ġcamp fire
Ġcalm ing
Ġca utiously
Ġca used
Ġc ustomer
Ġc oughed
Ġc otton
Ġc ottage
Ġc inema
Ġbuy ing
Ġbus iness
Ġbur nt
Ġbug gy
Ġbuck les
Ġbubb ly
Ġbu dge
Ġbrus hing
Ġbreath s
Ġbr ide
Ġbow ing
Ġbo nd
Ġbo ast
Ġblink s
Ġbl ushed
Ġbl inking
Ġbl ade
Ġbit s
Ġbill s
Ġbicy cles
Ġbend ing
Ġben ches
Ġbelt s
Ġbelong ings
Ġbell s
Ġbehavi or
Ġbeep ed
Ġbeautif ully
Ġbe ating
Ġbe am
Ġbe ads
Ġbat tle
Ġbat hed
Ġbarrel s
Ġbar s
Ġbang ing
Ġball et
Ġbackpack s
Ġbackground s
Ġba a
Ġb ank
Ġaw are
Ġattach ing
Ġat mosphere
Ġast ronaut
Ġarg ument
Ġapron s
Ġappreci ation
Ġapp l
Ġapp etite
Ġany time
Ġanticip ation
Ġan kle
Ġan ger
Ġam ong
Ġallow ing
Ġall ergic
Ġal though
Ġaff ect
Ġadmir ation
Ġadd ress
Ġadd ition
Ġad ult
Ġact ive
Ġact ion
Ġabil ity
Ġa ward
Ġa is
ĠZ og
ĠY uck
ĠWor ld
ĠWo lf
ĠWh oever
ĠW E
ĠW ANT
ĠU ntil
ĠTuesday s
ĠTom ato
ĠTim e
ĠTh ink
ĠT urkey
ĠT rust
ĠT rucky
ĠT oo
ĠT iger
ĠT ape
ĠT O
ĠT HAT
ĠSt ore
ĠSt even
ĠSn eaky
ĠSm oke
ĠSh ould
ĠSh all
ĠSam antha
ĠS weet
ĠS usan
ĠS ure
ĠS oup
ĠS it
ĠS ean
ĠS ave
ĠS ausages
ĠR un
ĠR iding
ĠR eady
ĠR eading
ĠPl aying
ĠP retty
ĠP oula
ĠP inching
ĠP ilot
ĠP aper
ĠOw n
ĠO ther
ĠO live
ĠO h
ĠMusic ian
ĠMe i
ĠM ore
ĠM ine
ĠM elon
ĠM an
ĠM aking
ĠM ake
ĠM AILBOX
ĠL ife
ĠJosh ua
ĠJ ump
ĠJ udge
ĠJ ordan
ĠInst antly
ĠI ce
ĠHo oray
ĠH iding
ĠH and
ĠH a
ĠG iving
ĠFriend ship
ĠFor giving
ĠF reeze
ĠF orever
ĠF armer
ĠE ating
ĠE AT
ĠDave y
ĠD usty
ĠD O
ĠClim bing
ĠCle ar
ĠCar s
ĠC rocodile
ĠC rayons
ĠC hef
ĠC auli
ĠC arefully
ĠBl ob
ĠBl ack
ĠB ull
ĠB ulb
ĠB roccoli
ĠB oy
ĠB ooks
ĠB elieve
ĠB arney
ĠB all
ĠAn other
ĠAn imals
ĠAcorn s
ĠA utomobiles
ĠA unt
ĠA manda
ĠA lya
ĠA ccidents
ĠA BCs
Ġ1 0
Ġ- -
Ġ ouches
Ġ ill
Ġ 9
Ġ 4
âĢĿ ,
âĢ ¦
âĢ¦ âĢĿ
zz les
z iest
z ier
yth ag
ythag or
ythagor as
ym en
y me
y ers
xt ure
x ed
well s
weet heart
w y
w ise
w ing
w elcome
vroom s
vers ation
ver ty
ver t
vert ising
ver ing
vent ed
vel s
ve ll
vell ous
v y
v ix
v ity
v ities
v ince
v as
v ary
v acy
v able
utch ing
ut ron
ut ed
ut ched
ut ation
ust ling
us ks
us es
urther more
urpr ised
urn ament
uri osity
ured ly
ur s
ur king
ur ity
ur f
urf ing
ur ance
ur able
up ed
unt ing
unt il
unt ed
un ned
un ken
un icate
un ge
un ches
un ate
ump h
umph ant
umb les
um bers
ulif lower
ulf ed
ul va
ul pr
ulpr it
ul ks
ul ip
ul ge
ul ation
ul a
ug e
uff s
uff le
udd ies
ud ing
ud ges
ud er
uct s
uc umber
uc ted
uc lid
uc le
ucle us
u ise
u is
uis her
u ing
u ild
turn ed
ting uisher
the med
th at
ter us
ter s
ter rup
terrup ted
ter n
tern s
t ter
t oys
t ouch
t led
t here
t ell
tell ing
t ear
t aker
t ake
t able
st upid
st orm
st ones
st ir
st inctively
st ick
st ein
st and
stand s
st aking
staking ly
st aff
st ac
stac le
ss omed
sp apers
sp ace
shadow ing
shadow ed
sh m
shm allow
shmallow s
sh ar
shar p
sh ake
sent ly
se y
se vered
se ar
sear ch
s urprise
s uring
s ue
s sey
s pect
s our
s orry
s led
s lap
s k
sk ating
s he
s ery
s ence
s en
s ary
s a
sa o
sao ged
rrrr rr
rot um
rom os
romos ome
rod uce
ro ll
ro j
roj an
rm chair
riend ly
ri ous
ri ents
ri b
rib ute
ret h
reth ra
ret e
ress ions
reet ings
reen y
ream s
re spect
re sently
re quest
re m
rem ely
re ated
ray s
rap her
rag r
ragr ant
ract s
ra pt
rapt ions
ra pped
ra in
ra c
rac ted
r ustrated
r uction
r or
r op
r ont
r imp
r ime
r id
rid or
r ates
r ate
rate fully
r ane
qu ired
qu ins
put er
pt op
pt ing
pt ic
ptic al
print s
pr inkle
pp ling
pp les
pow ers
ple xed
ple ased
pl ing
pl er
ph ones
per ately
per ated
pec ting
pa ssed
pa ired
p op
p itched
p ins
p hew
p ed
p air
owl ed
ow y
ow wy
ow sed
ous ins
ous and
ound ed
ould ing
ouch ing
ou raged
ou rage
ou ched
ot le
ost ate
ort s
ort h
orse ful
orm ation
orge ous
ore shadowing
ord inary
or king
or is
or ious
or iginal
or get
orget table
or gan
organ ized
or ched
op ted
oot ball
oop ed
oon s
oom iest
ook y
oof y
ood ling
ood les
ood le
oo zy
oo zing
oo oo
oo king
oo ked
on us
on on
on ished
on ies
omp et
ompet ition
omet s
old ing
old ed
ol ite
ol icking
og ress
og rapher
og gy
og a
o x
o ver
o ssomed
o hed
o ff
o em
oem s
o ard
ny time
nt roduce
nic us
ng el
ness ed
nel s
nder s
nd ition
nc ouraged
na e
n ormal
n iz
n ings
n ied
n ext
n ec
nec ked
mon y
ming ly
ment ion
me ow
ma ids
m unk
m oving
m mediately
m ine
m ery
m art
m ag
mag ine
ly ing
low ing
long er
ll ent
less ly
lend id
le st
le en
le ch
le asing
land s
l ving
l ts
l ster
l or
l oin
l ob
l imits
l ike
l ife
l ers
l en
key s
k ipping
jest y
jest ic
j elly
j ar
izz iness
izz ed
iver sary
iv ore
iv id
iv ate
itt s
itt ies
itt e
ither ed
ited ly
itc ase
it oris
it nessed
it ive
it ic
itic ian
itician s
it ated
ist otle
isp uted
ish ments
ise y
is m
is ible
is en
irr uped
irr itated
ir ted
ir ls
ir ling
ir cles
ink ly
ink ets
ink er
ing ly
ing ling
ing led
ing ing
ing er
inger ly
ing ed
ind ulge
ind ness
ind ered
inct s
in stein
in nied
in itely
in crease
in cl
incl ude
imp ering
imp ed
imed es
im s
im mon
im mery
im ent
im ens
imens ion
im b
ilt s
ill ed
ill ary
ile o
il st
il i
ili ad
ight ning
ight ly
ight ing
igg les
ig hing
ig ger
ig ers
ig eon
igeon s
if ted
if icate
id ded
id ance
ic ation
ic ally
ib niz
ib ly
i xture
i us
i ara
i ance
here r
her s
he ets
ha ved
h unting
h opped
h arsh
h adow
gn ore
gg ings
gg ing
get ting
gen c
genc ies
ged y
ge sting
ge m
g ood
g ive
g as
g ar
g age
fra ined
fort une
fort unate
fere nd
fa ct
fact ion
f ull
f riendly
f ree
f ly
f lowing
f ive
f ired
f illed
f ield
f et
fet ime
f ar
f all
ew spapers
etch up
et work
et ched
et ah
etah s
est ured
est s
est ine
es pect
es ides
ert ificate
erm s
erf ume
erf ect
er vix
er ves
er nicus
er nels
er maids
er k
er ie
er gency
ep ed
ep e
epe at
ention ally
ent re
end er
end ed
en nae
en ing
em ories
em ergency
em ain
ell ishments
elax ing
el ve
el uctantly
el ing
el ids
el ace
eff ect
effect s
ee king
ed ly
ed ication
ect ion
ec hed
ec c
ecc a
eb ecca
e zed
e ves
e ither
e ft
e eling
e ch
e arned
dy ssey
dd ers
d ucts
d own
d est
d ates
cut s
ctor s
ct um
ct ron
ct ions
cre as
com puter
com passed
com ing
com b
co ver
co ld
co at
cloud s
cl uded
cl ap
ck y
ck s
ck led
chan ted
ch ug
ch imedes
ch ildren
ch airs
cess ories
cent rated
ce llent
c ule
c uffs
c rime
c rete
c red
c oon
c ited
c issors
c ier
c hers
c at
c ar
c ame
br ing
br idge
bo at
be haved
be am
ball s
b uild
b solutely
b ly
b ish
b ber
b at
bat he
azz ling
az y
az e
ax e
aw yers
aw ing
aut iously
aut iful
atter s
atter ing
att ractive
att ended
att ach
at uredly
at ors
at itude
at herer
at hed
ast ly
ast ing
ast a
as ured
as ant
art s
art led
art es
art broken
arn ing
are wells
are ful
ard less
ar ted
app iness
ap le
ant um
ant s
ant ically
ank y
ank s
ang rier
ang les
and les
ance s
an terns
an ner
an ion
an ced
amp ion
amp ered
amb ling
am mer
am ine
alley s
all owed
all ic
alk s
al y
al th
al izing
al ity
al ities
al ileo
ak ers
ain t
age ways
ag ue
ag ina
ag er
ad ness
ad ling
ad led
ack le
ace s
ac on
ac les
ab by
ab bed
a way
a uliflower
a uge
a os
a jesty
a ive
a isey
a hed
a fe
Z ips
Z igzag
Z iggy
Y oga
Y esterday
Y ears
Y awn
With out
We e
W orking
W ild
W hew
W et
W ednesday
W ear
W ally
W HAT
W A
WA R
WAR N
WARN ING
V alleys
U p
To dd
The ater
The E
TheE nd
Th omas
TH Y
T winkle
T urtle
T una
T rucky
T ree
T oy
T ippy
T hings
T aking
T able
Sun shine
Su zy
Su zie
St upid
St retching
St ore
St itch
St ir
St ill
St even
St ella
St ealing
St artled
St and
St aff
Sque eze
Sque aky
Sp ark
Some one
So ft
Sn owy
Sn ake
Sh rink
Sh rimp
Sh ow
Sh oo
Sh iny
Sh hh
Sh are
Sh all
S weetheart
S urrender
S urprised
S prinkle
S pring
S oy
S owwy
S oup
S mart
S lap
S ize
S ix
S ince
S ienna
S erve
S end
S C
SC RE
SCRE E
SCREE C
SCREEC H
Rob by
Ro ll
Re alizing
R rrrrrr
R ise
R ight
R ia
R hythm
R emain
R elax
R ed
R ay
Quick ly
Prin ce
Pop corn
Pe ople
P romise
P retty
P resently
P igeons
P iano
P erfect
P ercy
P aws
P atch
P ark
P aper
P apa
P O
PO P
Oh hh
OK I
OKI E
OKIE S
O ysters
O ther
O oh
O U
O OKIES
Near by
N utty
N obody
N ine
N ice
N ewspapers
N ever
N avy
N O
N D
N A
Moral s
Miss ile
Mar riage
M ouse
M other
M oppy
M o
M ix
M ind
M ina
M ath
M atch
M arry
M ail
Lila h
Let s
L ung
L uke
L ooking
L onghead
L ion
L inda
L iam
L enny
L eft
L awyers
L ate
L THY
Ke ith
K iss
K ing
K ick
K atelyn
K anga
Jump ing
Jo jo
Jess ica
J umpy
J s
J oin
J illy
J amie
It s
Is n
In stinctively
In crease
I ntroduce
I mmediately
I ce
I TH
Ho pper
Hair y
Hair cut
Ha ha
H urry
H oppy
H mm
H ide
H enry
H atty
H arsh
H annah
